<?xml version="1.0"?>
<MethodSetup Method="BDT::BDT">
  <GeneralInfo>
    <Info name="TMVA Release" value="4.2.0 [262656]"/>
    <Info name="ROOT Release" value="5.34/32 [336416]"/>
    <Info name="Creator" value="mp744"/>
    <Info name="Date" value="Wed Jun 29 18:37:54 2016"/>
    <Info name="Host" value="Darwin Physics-15-09.local 14.4.0 Darwin Kernel Version 14.4.0: Thu May 28 11:35:04 PDT 2015; root:xnu-2782.30.5~1/RELEASE_X86_64 x86_64"/>
    <Info name="Dir" value="/Users/mp744/Documents/CERN/hh2yybb/1btag_studies/James/bbyy_jet_classifier"/>
    <Info name="Training events" value="929362"/>
    <Info name="TrainingTime" value="4.10529903e+02"/>
    <Info name="AnalysisType" value="Classification"/>
  </GeneralInfo>
  <Options>
    <Option name="V" modified="No">False</Option>
    <Option name="VerbosityLevel" modified="No">Default</Option>
    <Option name="VarTransform" modified="No">None</Option>
    <Option name="H" modified="No">False</Option>
    <Option name="CreateMVAPdfs" modified="No">False</Option>
    <Option name="IgnoreNegWeightsInTraining" modified="No">False</Option>
    <Option name="NTrees" modified="Yes">300</Option>
    <Option name="MaxDepth" modified="Yes">10</Option>
    <Option name="MinNodeSize" modified="Yes">10</Option>
    <Option name="nCuts" modified="No">20</Option>
    <Option name="BoostType" modified="Yes">Grad</Option>
    <Option name="AdaBoostR2Loss" modified="No">quadratic</Option>
    <Option name="UseBaggedBoost" modified="No">False</Option>
    <Option name="Shrinkage" modified="No">1.000000e+00</Option>
    <Option name="AdaBoostBeta" modified="No">5.000000e-01</Option>
    <Option name="UseRandomisedTrees" modified="No">False</Option>
    <Option name="UseNvars" modified="No">3</Option>
    <Option name="UsePoissonNvars" modified="No">True</Option>
    <Option name="BaggedSampleFraction" modified="No">6.000000e-01</Option>
    <Option name="UseYesNoLeaf" modified="No">True</Option>
    <Option name="NegWeightTreatment" modified="No">ignorenegweightsintraining</Option>
    <Option name="Css" modified="No">1.000000e+00</Option>
    <Option name="Cts_sb" modified="No">1.000000e+00</Option>
    <Option name="Ctb_ss" modified="No">1.000000e+00</Option>
    <Option name="Cbb" modified="No">1.000000e+00</Option>
    <Option name="NodePurityLimit" modified="No">5.000000e-01</Option>
    <Option name="SeparationType" modified="Yes">giniindex</Option>
    <Option name="DoBoostMonitor" modified="No">False</Option>
    <Option name="UseFisherCuts" modified="No">False</Option>
    <Option name="MinLinCorrForFisher" modified="No">8.000000e-01</Option>
    <Option name="UseExclusiveVars" modified="No">False</Option>
    <Option name="DoPreselection" modified="No">False</Option>
    <Option name="SigToBkgFraction" modified="No">1.000000e+00</Option>
    <Option name="PruneMethod" modified="No">nopruning</Option>
    <Option name="PruneStrength" modified="No">0.000000e+00</Option>
    <Option name="PruningValFraction" modified="No">5.000000e-01</Option>
    <Option name="nEventsMin" modified="No">0</Option>
    <Option name="UseBaggedGrad" modified="No">False</Option>
    <Option name="GradBaggingFraction" modified="No">6.000000e-01</Option>
    <Option name="UseNTrainEvents" modified="No">0</Option>
    <Option name="NNodesMax" modified="No">0</Option>
  </Options>
  <Variables NVar="8">
    <Variable VarIndex="0" Expression="abs_eta_j" Label="abs_eta_j" Title="abs_eta_j" Unit="" Internal="abs_eta_j" Type="D" Min="1.89229877e-06" Max="4.42681456e+00"/>
    <Variable VarIndex="1" Expression="abs_eta_jb" Label="abs_eta_jb" Title="abs_eta_jb" Unit="" Internal="abs_eta_jb" Type="D" Min="2.89327363e-06" Max="1.14711752e+01"/>
    <Variable VarIndex="2" Expression="Delta_eta_jb" Label="Delta_eta_jb" Title="Delta_eta_jb" Unit="" Internal="Delta_eta_jb" Type="D" Min="0.00000000e+00" Max="6.87481880e+00"/>
    <Variable VarIndex="3" Expression="idx_by_mH" Label="idx_by_mH" Title="idx_by_mH" Unit="" Internal="idx_by_mH" Type="I" Min="0.00000000e+00" Max="1.50000000e+01"/>
    <Variable VarIndex="4" Expression="idx_by_pT" Label="idx_by_pT" Title="idx_by_pT" Unit="" Internal="idx_by_pT" Type="D" Min="0.00000000e+00" Max="1.50000000e+01"/>
    <Variable VarIndex="5" Expression="m_jb" Label="m_jb" Title="m_jb" Unit="" Internal="m_jb" Type="D" Min="1.27181139e+01" Max="4.56620801e+03"/>
    <Variable VarIndex="6" Expression="pT_j" Label="pT_j" Title="pT_j" Unit="" Internal="pT_j" Type="D" Min="2.50000057e+01" Max="1.98097791e+03"/>
    <Variable VarIndex="7" Expression="pT_jb" Label="pT_jb" Title="pT_jb" Unit="" Internal="pT_jb" Type="D" Min="1.99382566e-02" Max="2.65298071e+03"/>
  </Variables>
  <Spectators NSpec="0"/>
  <Classes NClass="2">
    <Class Name="Background" Index="0"/>
    <Class Name="Signal" Index="1"/>
  </Classes>
  <Transformations NTransformations="0"/>
  <MVAPdfs/>
  <Weights NTrees="300" AnalysisType="1">
    <BinaryTree type="DecisionTree" boostWeight="1.0000000000000000e+00" itree="0">
      <Node pos="s" depth="0" NCoef="0" IVar="2" Cut="1.9642339944839478e+00" cType="1" res="-2.6139212322418004e-12" rms="5.0000000000000000e-01" purity="5.0000000000000000e-01" nType="0">
        <Node pos="l" depth="1" NCoef="0" IVar="4" Cut="1.4285714626312256e+00" cType="1" res="5.9385225176811218e-02" rms="4.9646085500717163e-01" purity="5.5938524007797241e-01" nType="0">
          <Node pos="l" depth="2" NCoef="0" IVar="6" Cut="1.1814366912841797e+02" cType="1" res="-1.1420696042478085e-02" rms="4.9986955523490906e-01" purity="4.8857933282852173e-01" nType="0">
            <Node pos="l" depth="3" NCoef="0" IVar="5" Cut="1.1754277801513672e+02" cType="1" res="-8.8124647736549377e-02" rms="4.9217277765274048e-01" purity="4.1187536716461182e-01" nType="0">
              <Node pos="l" depth="4" NCoef="0" IVar="-1" Cut="0.0000000000000000e+00" cType="1" res="-2.1976771950721741e-01" rms="4.1712531447410583e-01" purity="2.2430726885795593e-01" nType="-99"/>
              <Node pos="r" depth="4" NCoef="0" IVar="-1" Cut="0.0000000000000000e+00" cType="1" res="1.5678888186812401e-02" rms="4.9840328097343445e-01" purity="5.3992688655853271e-01" nType="-99"/>
            </Node>
            <Node pos="r" depth="3" NCoef="0" IVar="-1" Cut="0.0000000000000000e+00" cType="1" res="5.5257633328437805e-02" rms="4.7013926506042480e-01" purity="6.7020297050476074e-01" nType="-99"/>
          </Node>
          <Node pos="r" depth="2" NCoef="0" IVar="5" Cut="8.8306938171386719e+01" cType="1" res="1.6420660912990570e-01" rms="4.7226706147193909e-01" purity="6.6420656442642212e-01" nType="0">
            <Node pos="l" depth="3" NCoef="0" IVar="-1" Cut="0.0000000000000000e+00" cType="1" res="-1.2289085425436497e-02" rms="4.9922236800193787e-01" purity="4.7212493419647217e-01" nType="-99"/>
            <Node pos="r" depth="3" NCoef="0" IVar="-1" Cut="0.0000000000000000e+00" cType="1" res="7.4067234992980957e-02" rms="4.3107202649116516e-01" purity="7.5333160161972046e-01" nType="-99"/>
          </Node>
        </Node>
        <Node pos="r" depth="1" NCoef="0" IVar="-1" Cut="0.0000000000000000e+00" cType="1" res="-2.0133678615093231e-01" rms="4.2522177100181580e-01" purity="2.3696684837341309e-01" nType="-99"/>
      </Node>
    </BinaryTree>
    <BinaryTree type="DecisionTree" boostWeight="1.0000000000000000e+00" itree="1">
      <Node pos="s" depth="0" NCoef="0" IVar="2" Cut="2.2916061878204346e+00" cType="1" res="2.0066466182470322e-02" rms="4.7941291332244873e-01" purity="5.0000000000000000e-01" nType="0">
        <Node pos="l" depth="1" NCoef="0" IVar="4" Cut="1.4285714626312256e+00" cType="1" res="5.5836535990238190e-02" rms="4.8184719681739807e-01" purity="5.4748231172561646e-01" nType="0">
          <Node pos="l" depth="2" NCoef="0" IVar="6" Cut="1.1814366912841797e+02" cType="1" res="4.3209787691012025e-04" rms="4.8218116164207458e-01" purity="4.7649532556533813e-01" nType="0">
            <Node pos="l" depth="3" NCoef="0" IVar="5" Cut="1.5339257812500000e+02" cType="1" res="-5.4856140166521072e-02" rms="4.7543480992317200e-01" purity="4.0201106667518616e-01" nType="0">
              <Node pos="l" depth="4" NCoef="0" IVar="5" Cut="1.0728379058837891e+02" cType="1" res="-1.3572631776332855e-01" rms="4.4834661483764648e-01" purity="2.9781261086463928e-01" nType="0">
                <Node pos="l" depth="5" NCoef="0" IVar="-1" Cut="0.0000000000000000e+00" cType="1" res="-2.1350583434104919e-01" rms="3.8119909167289734e-01" purity="1.7645044624805450e-01" nType="-99"/>
                <Node pos="r" depth="5" NCoef="0" IVar="-1" Cut="0.0000000000000000e+00" cType="1" res="-2.8689624741673470e-02" rms="4.9313062429428101e-01" purity="4.1643846035003662e-01" nType="-99"/>
              </Node>
              <Node pos="r" depth="4" NCoef="0" IVar="-1" Cut="0.0000000000000000e+00" cType="1" res="2.8265504166483879e-02" rms="4.8872232437133789e-01" purity="5.6956642866134644e-01" nType="-99"/>
            </Node>
            <Node pos="r" depth="3" NCoef="0" IVar="-1" Cut="0.0000000000000000e+00" cType="1" res="4.4797331094741821e-02" rms="4.7182983160018921e-01" purity="6.5811532735824585e-01" nType="-99"/>
          </Node>
          <Node pos="r" depth="2" NCoef="0" IVar="5" Cut="8.8306938171386719e+01" cType="1" res="1.3644276559352875e-01" rms="4.6983507275581360e-01" purity="6.5075916051864624e-01" nType="0">
            <Node pos="l" depth="3" NCoef="0" IVar="-1" Cut="0.0000000000000000e+00" cType="1" res="-9.2483349144458771e-03" rms="4.9920156598091125e-01" purity="4.7149425745010376e-01" nType="-99"/>
            <Node pos="r" depth="3" NCoef="0" IVar="-1" Cut="0.0000000000000000e+00" cType="1" res="6.1872083693742752e-02" rms="4.4005328416824341e-01" purity="7.2695410251617432e-01" nType="-99"/>
          </Node>
        </Node>
        <Node pos="r" depth="1" NCoef="0" IVar="-1" Cut="0.0000000000000000e+00" cType="1" res="-2.1640321612358093e-01" rms="3.8306748867034912e-01" purity="1.7866016924381256e-01" nType="-99"/>
      </Node>
    </BinaryTree>
    <BinaryTree type="DecisionTree" boostWeight="1.0000000000000000e+00" itree="2">
      <Node pos="s" depth="0" NCoef="0" IVar="2" Cut="1.6368615627288818e+00" cType="1" res="3.2590433955192566e-02" rms="4.6590864658355713e-01" purity="5.0000000000000000e-01" nType="0">
        <Node pos="l" depth="1" NCoef="0" IVar="4" Cut="7.1428573131561279e-01" cType="1" res="7.6831355690956116e-02" rms="4.6716481447219849e-01" purity="5.7055962085723877e-01" nType="0">
          <Node pos="l" depth="2" NCoef="0" IVar="2" Cut="7.0150977373123169e-01" cType="1" res="1.6382385510951281e-03" rms="4.7474300861358643e-01" purity="5.0178790092468262e-01" nType="0">
            <Node pos="l" depth="3" NCoef="0" IVar="-1" Cut="0.0000000000000000e+00" cType="1" res="2.0620247349143028e-02" rms="4.6589535474777222e-01" purity="5.4912465810775757e-01" nType="-99"/>
            <Node pos="r" depth="3" NCoef="0" IVar="-1" Cut="0.0000000000000000e+00" cType="1" res="-2.7725333347916603e-02" rms="4.7803178429603577e-01" purity="4.4528609514236450e-01" nType="-99"/>
          </Node>
          <Node pos="r" depth="2" NCoef="0" IVar="3" Cut="1.0000000000000000e+00" cType="1" res="1.0257203131914139e-01" rms="4.5212498307228088e-01" purity="6.0172444581985474e-01" nType="0">
            <Node pos="l" depth="3" NCoef="0" IVar="-1" Cut="0.0000000000000000e+00" cType="1" res="5.8244880288839340e-02" rms="4.4132500886917114e-01" purity="6.8958246707916260e-01" nType="-99"/>
            <Node pos="r" depth="3" NCoef="0" IVar="3" Cut="2.0000000000000000e+00" cType="1" res="4.9625258892774582e-02" rms="4.5284342765808105e-01" purity="5.3821694850921631e-01" nType="0">
              <Node pos="l" depth="4" NCoef="0" IVar="-1" Cut="0.0000000000000000e+00" cType="1" res="3.5587619990110397e-02" rms="4.5518463850021362e-01" purity="5.6413263082504272e-01" nType="-99"/>
              <Node pos="r" depth="4" NCoef="0" IVar="-1" Cut="0.0000000000000000e+00" cType="1" res="9.9708279594779015e-03" rms="4.7657224535942078e-01" purity="5.0643223524093628e-01" nType="-99"/>
            </Node>
          </Node>
        </Node>
        <Node pos="r" depth="1" NCoef="0" IVar="4" Cut="1.3333333730697632e+00" cType="1" res="-9.2413187026977539e-02" rms="4.3886548280715942e-01" purity="3.0063235759735107e-01" nType="0">
          <Node pos="l" depth="2" NCoef="0" IVar="-1" Cut="0.0000000000000000e+00" cType="1" res="-1.1940805613994598e-01" rms="4.1659945249557495e-01" purity="2.4199485778808594e-01" nType="-99"/>
          <Node pos="r" depth="2" NCoef="0" IVar="-1" Cut="0.0000000000000000e+00" cType="1" res="-2.2290676832199097e-02" rms="4.5299774408340454e-01" purity="3.5815584659576416e-01" nType="-99"/>
        </Node>
      </Node>
    </BinaryTree>
    <BinaryTree type="DecisionTree" boostWeight="1.0000000000000000e+00" itree="3">
      <Node pos="s" depth="0" NCoef="0" IVar="2" Cut="1.3094892501831055e+00" cType="1" res="3.1575743108987808e-02" rms="4.6105989813804626e-01" purity="5.0000000000000000e-01" nType="0">
        <Node pos="l" depth="1" NCoef="0" IVar="7" Cut="1.2642032623291016e+02" cType="1" res="7.5199298560619354e-02" rms="4.6134263277053833e-01" purity="5.7867580652236938e-01" nType="0">
          <Node pos="l" depth="2" NCoef="0" IVar="5" Cut="1.5919714355468750e+02" cType="1" res="5.0540085881948471e-02" rms="4.6653926372528076e-01" purity="5.4700636863708496e-01" nType="0">
            <Node pos="l" depth="3" NCoef="0" IVar="5" Cut="8.2469978332519531e+01" cType="1" res="2.0694918930530548e-03" rms="4.6394351124763489e-01" purity="4.7829625010490417e-01" nType="0">
              <Node pos="l" depth="4" NCoef="0" IVar="-1" Cut="0.0000000000000000e+00" cType="1" res="-1.2029376626014709e-01" rms="4.0782156586647034e-01" purity="2.5597286224365234e-01" nType="-99"/>
              <Node pos="r" depth="4" NCoef="0" IVar="2" Cut="6.2356859445571899e-01" cType="1" res="7.7265128493309021e-02" rms="4.6861448884010315e-01" purity="5.7996934652328491e-01" nType="0">
                <Node pos="l" depth="5" NCoef="0" IVar="-1" Cut="0.0000000000000000e+00" cType="1" res="3.6736987531185150e-02" rms="4.6592208743095398e-01" purity="5.9909468889236450e-01" nType="-99"/>
                <Node pos="r" depth="5" NCoef="0" IVar="-1" Cut="0.0000000000000000e+00" cType="1" res="2.1590240299701691e-02" rms="4.7034877538681030e-01" purity="5.6007796525955200e-01" nType="-99"/>
              </Node>
            </Node>
            <Node pos="r" depth="3" NCoef="0" IVar="-1" Cut="0.0000000000000000e+00" cType="1" res="5.1456026732921600e-02" rms="4.5241606235504150e-01" purity="7.0946693420410156e-01" nType="-99"/>
          </Node>
          <Node pos="r" depth="2" NCoef="0" IVar="-1" Cut="0.0000000000000000e+00" cType="1" res="5.3749792277812958e-02" rms="4.2926907539367676e-01" purity="6.9632989168167114e-01" nType="-99"/>
        </Node>
        <Node pos="r" depth="1" NCoef="0" IVar="4" Cut="1.3333333730697632e+00" cType="1" res="-4.4188093394041061e-02" rms="4.5064181089401245e-01" purity="3.6335864663124084e-01" nType="0">
          <Node pos="l" depth="2" NCoef="0" IVar="-1" Cut="0.0000000000000000e+00" cType="1" res="-6.3661031424999237e-02" rms="4.3594554066658020e-01" purity="2.9129180312156677e-01" nType="-99"/>
          <Node pos="r" depth="2" NCoef="0" IVar="-1" Cut="0.0000000000000000e+00" cType="1" res="1.6789784422144294e-03" rms="4.6049341559410095e-01" purity="4.3766030669212341e-01" nType="-99"/>
        </Node>
      </Node>
    </BinaryTree>
    <BinaryTree type="DecisionTree" boostWeight="1.0000000000000000e+00" itree="4">
      <Node pos="s" depth="0" NCoef="0" IVar="2" Cut="1.6368615627288818e+00" cType="1" res="3.2100312411785126e-02" rms="4.5549631118774414e-01" purity="5.0000000000000000e-01" nType="0">
        <Node pos="l" depth="1" NCoef="0" IVar="4" Cut="7.1428573131561279e-01" cType="1" res="6.0471255332231522e-02" rms="4.5887404680252075e-01" purity="5.7055962085723877e-01" nType="0">
          <Node pos="l" depth="2" NCoef="0" IVar="1" Cut="1.4745582342147827e+00" cType="1" res="-1.1063640937209129e-02" rms="4.6946862339973450e-01" purity="5.0178790092468262e-01" nType="0">
            <Node pos="l" depth="3" NCoef="0" IVar="-1" Cut="0.0000000000000000e+00" cType="1" res="-2.3795355111360550e-02" rms="4.6147668361663818e-01" purity="4.4712111353874207e-01" nType="-99"/>
            <Node pos="r" depth="3" NCoef="0" IVar="-1" Cut="0.0000000000000000e+00" cType="1" res="1.1556023731827736e-02" rms="4.7420179843902588e-01" purity="5.5860590934753418e-01" nType="-99"/>
          </Node>
          <Node pos="r" depth="2" NCoef="0" IVar="3" Cut="1.0000000000000000e+00" cType="1" res="8.5257336497306824e-02" rms="4.4270336627960205e-01" purity="6.0172444581985474e-01" nType="0">
            <Node pos="l" depth="3" NCoef="0" IVar="-1" Cut="0.0000000000000000e+00" cType="1" res="4.6237792819738388e-02" rms="4.3751257658004761e-01" purity="6.8958246707916260e-01" nType="-99"/>
            <Node pos="r" depth="3" NCoef="0" IVar="4" Cut="1.5238095521926880e+00" cType="1" res="5.8791242539882660e-02" rms="4.5623582601547241e-01" purity="5.3821694850921631e-01" nType="0">
              <Node pos="l" depth="4" NCoef="0" IVar="-1" Cut="0.0000000000000000e+00" cType="1" res="1.2881679460406303e-02" rms="4.3435540795326233e-01" purity="4.3394586443901062e-01" nType="-99"/>
              <Node pos="r" depth="4" NCoef="0" IVar="-1" Cut="0.0000000000000000e+00" cType="1" res="2.9485378414392471e-02" rms="4.6915227174758911e-01" purity="6.0883724689483643e-01" nType="-99"/>
            </Node>
          </Node>
        </Node>
        <Node pos="r" depth="1" NCoef="0" IVar="2" Cut="2.3851418495178223e+00" cType="1" res="-4.8062354326248169e-02" rms="4.3594712018966675e-01" purity="3.0063235759735107e-01" nType="0">
          <Node pos="l" depth="2" NCoef="0" IVar="-1" Cut="0.0000000000000000e+00" cType="1" res="-3.2748007215559483e-03" rms="4.7747194766998291e-01" purity="4.0862524509429932e-01" nType="-99"/>
          <Node pos="r" depth="2" NCoef="0" IVar="-1" Cut="0.0000000000000000e+00" cType="1" res="-1.2625336647033691e-01" rms="3.7115824222564697e-01" purity="1.6573679447174072e-01" nType="-99"/>
        </Node>
      </Node>
    </BinaryTree>
    <BinaryTree type="DecisionTree" boostWeight="1.0000000000000000e+00" itree="5">
      <Node pos="s" depth="0" NCoef="0" IVar="2" Cut="1.3094892501831055e+00" cType="1" res="3.0485557392239571e-02" rms="4.5273315906524658e-01" purity="5.0000000000000000e-01" nType="0">
        <Node pos="l" depth="1" NCoef="0" IVar="4" Cut="7.1428573131561279e-01" cType="1" res="5.8482203632593155e-02" rms="4.5357242226600647e-01" purity="5.7867580652236938e-01" nType="0">
          <Node pos="l" depth="2" NCoef="0" IVar="-1" Cut="0.0000000000000000e+00" cType="1" res="1.1301309568807483e-03" rms="4.6724754571914673e-01" purity="5.1880127191543579e-01" nType="-99"/>
          <Node pos="r" depth="2" NCoef="0" IVar="3" Cut="1.0000000000000000e+00" cType="1" res="7.3414839804172516e-02" rms="4.3501013517379761e-01" purity="6.0668313503265381e-01" nType="0">
            <Node pos="l" depth="3" NCoef="0" IVar="-1" Cut="0.0000000000000000e+00" cType="1" res="4.4296089559793472e-02" rms="4.2892590165138245e-01" purity="7.0984584093093872e-01" nType="-99"/>
            <Node pos="r" depth="3" NCoef="0" IVar="3" Cut="2.0000000000000000e+00" cType="1" res="3.7357375025749207e-02" rms="4.3775415420532227e-01" purity="5.3290277719497681e-01" nType="0">
              <Node pos="l" depth="4" NCoef="0" IVar="-1" Cut="0.0000000000000000e+00" cType="1" res="2.8129940852522850e-02" rms="4.4071549177169800e-01" purity="5.6367373466491699e-01" nType="-99"/>
              <Node pos="r" depth="4" NCoef="0" IVar="-1" Cut="0.0000000000000000e+00" cType="1" res="9.0413764119148254e-03" rms="4.6395376324653625e-01" purity="4.9548935890197754e-01" nType="-99"/>
            </Node>
          </Node>
        </Node>
        <Node pos="r" depth="1" NCoef="0" IVar="4" Cut="1.3333333730697632e+00" cType="1" res="-1.8138015642762184e-02" rms="4.4712498784065247e-01" purity="3.6335864663124084e-01" nType="0">
          <Node pos="l" depth="2" NCoef="0" IVar="-1" Cut="0.0000000000000000e+00" cType="1" res="-3.7787899374961853e-02" rms="4.3551012873649597e-01" purity="2.9129180312156677e-01" nType="-99"/>
          <Node pos="r" depth="2" NCoef="0" IVar="-1" Cut="0.0000000000000000e+00" cType="1" res="8.2898000255227089e-03" rms="4.5623791217803955e-01" purity="4.3766030669212341e-01" nType="-99"/>
        </Node>
      </Node>
    </BinaryTree>
    <BinaryTree type="DecisionTree" boostWeight="1.0000000000000000e+00" itree="6">
      <Node pos="s" depth="0" NCoef="0" IVar="6" Cut="1.1814180755615234e+02" cType="1" res="2.6601608842611313e-02" rms="4.5132660865783691e-01" purity="5.0000000000000000e-01" nType="0">
        <Node pos="l" depth="1" NCoef="0" IVar="4" Cut="7.1428573131561279e-01" cType="1" res="1.0163681581616402e-02" rms="4.4851887226104736e-01" purity="4.7068229317665100e-01" nType="0">
          <Node pos="l" depth="2" NCoef="0" IVar="-1" Cut="0.0000000000000000e+00" cType="1" res="-5.6744854897260666e-02" rms="4.3277356028556824e-01" purity="3.2351112365722656e-01" nType="-99"/>
          <Node pos="r" depth="2" NCoef="0" IVar="3" Cut="2.0000000000000000e+00" cType="1" res="3.6545384675264359e-02" rms="4.4285485148429871e-01" purity="5.0697797536849976e-01" nType="0">
            <Node pos="l" depth="3" NCoef="0" IVar="4" Cut="1.6666666269302368e+00" cType="1" res="5.5896695703268051e-02" rms="4.4732689857482910e-01" purity="5.5969655513763428e-01" nType="0">
              <Node pos="l" depth="4" NCoef="0" IVar="-1" Cut="0.0000000000000000e+00" cType="1" res="3.1608706340193748e-03" rms="4.4646412134170532e-01" purity="4.2610424757003784e-01" nType="-99"/>
              <Node pos="r" depth="4" NCoef="0" IVar="-1" Cut="0.0000000000000000e+00" cType="1" res="3.2811503857374191e-02" rms="4.4442075490951538e-01" purity="6.5794110298156738e-01" nType="-99"/>
            </Node>
            <Node pos="r" depth="3" NCoef="0" IVar="-1" Cut="0.0000000000000000e+00" cType="1" res="-7.5391642749309540e-03" rms="4.4881087541580200e-01" purity="3.8652625679969788e-01" nType="-99"/>
          </Node>
        </Node>
        <Node pos="r" depth="1" NCoef="0" IVar="-1" Cut="0.0000000000000000e+00" cType="1" res="3.7552401423454285e-02" rms="4.5637676119804382e-01" purity="6.4245134592056274e-01" nType="-99"/>
      </Node>
    </BinaryTree>
    <BinaryTree type="DecisionTree" boostWeight="1.0000000000000000e+00" itree="7">
      <Node pos="s" depth="0" NCoef="0" IVar="7" Cut="1.2635140228271484e+02" cType="1" res="2.4129763245582581e-02" rms="4.4937226176261902e-01" purity="5.0000000000000000e-01" nType="0">
        <Node pos="l" depth="1" NCoef="0" IVar="2" Cut="9.8211699724197388e-01" cType="1" res="8.7028928101062775e-03" rms="4.5113670825958252e-01" purity="4.7062867879867554e-01" nType="0">
          <Node pos="l" depth="2" NCoef="0" IVar="6" Cut="9.1677116394042969e+01" cType="1" res="3.7762396037578583e-02" rms="4.5176771283149719e-01" purity="5.5323445796966553e-01" nType="0">
            <Node pos="l" depth="3" NCoef="0" IVar="4" Cut="1.1428571939468384e+00" cType="1" res="1.5076619572937489e-02" rms="4.4345095753669739e-01" purity="5.1421183347702026e-01" nType="0">
              <Node pos="l" depth="4" NCoef="0" IVar="-1" Cut="0.0000000000000000e+00" cType="1" res="-2.5289008393883705e-02" rms="4.2445045709609985e-01" purity="3.6498889327049255e-01" nType="-99"/>
              <Node pos="r" depth="4" NCoef="0" IVar="-1" Cut="0.0000000000000000e+00" cType="1" res="2.3461395874619484e-02" rms="4.5300394296646118e-01" purity="6.4046806097030640e-01" nType="-99"/>
            </Node>
            <Node pos="r" depth="3" NCoef="0" IVar="-1" Cut="0.0000000000000000e+00" cType="1" res="2.8746554628014565e-02" rms="4.6404710412025452e-01" purity="6.2687057256698608e-01" nType="-99"/>
          </Node>
          <Node pos="r" depth="2" NCoef="0" IVar="4" Cut="1.2380952835083008e+00" cType="1" res="-1.9089447334408760e-02" rms="4.4877547025680542e-01" purity="3.9162492752075195e-01" nType="0">
            <Node pos="l" depth="3" NCoef="0" IVar="7" Cut="7.2331062316894531e+01" cType="1" res="-4.2916830629110336e-02" rms="4.3890389800071716e-01" purity="3.2065641880035400e-01" nType="0">
              <Node pos="l" depth="4" NCoef="0" IVar="-1" Cut="0.0000000000000000e+00" cType="1" res="-1.2909983284771442e-02" rms="4.5144402980804443e-01" purity="3.5299617052078247e-01" nType="-99"/>
              <Node pos="r" depth="4" NCoef="0" IVar="-1" Cut="0.0000000000000000e+00" cType="1" res="-4.5407429337501526e-02" rms="4.2659223079681396e-01" purity="2.9210734367370605e-01" nType="-99"/>
            </Node>
            <Node pos="r" depth="3" NCoef="0" IVar="-1" Cut="0.0000000000000000e+00" cType="1" res="3.1014718115329742e-03" rms="4.5775038003921509e-01" purity="4.6773725748062134e-01" nType="-99"/>
          </Node>
        </Node>
        <Node pos="r" depth="1" NCoef="0" IVar="-1" Cut="0.0000000000000000e+00" cType="1" res="3.3760663121938705e-02" rms="4.3562281131744385e-01" purity="6.2562984228134155e-01" nType="-99"/>
      </Node>
    </BinaryTree>
    <BinaryTree type="DecisionTree" boostWeight="1.0000000000000000e+00" itree="8">
      <Node pos="s" depth="0" NCoef="0" IVar="5" Cut="2.2955096435546875e+02" cType="1" res="2.1553384140133858e-02" rms="4.4811946153640747e-01" purity="5.0000000000000000e-01" nType="0">
        <Node pos="l" depth="1" NCoef="0" IVar="5" Cut="7.4670288085937500e+01" cType="1" res="7.6693044975399971e-03" rms="4.5204252004623413e-01" purity="5.0254619121551514e-01" nType="0">
          <Node pos="l" depth="2" NCoef="0" IVar="-1" Cut="0.0000000000000000e+00" cType="1" res="-1.7191833257675171e-01" rms="3.7854069471359253e-01" purity="2.0374554395675659e-01" nType="-99"/>
          <Node pos="r" depth="2" NCoef="0" IVar="4" Cut="7.1428573131561279e-01" cType="1" res="4.0021806955337524e-02" rms="4.5463046431541443e-01" purity="5.5084574222564697e-01" nType="0">
            <Node pos="l" depth="3" NCoef="0" IVar="-1" Cut="0.0000000000000000e+00" cType="1" res="-4.5235447585582733e-02" rms="4.5535117387771606e-01" purity="3.7960091233253479e-01" nType="-99"/>
            <Node pos="r" depth="3" NCoef="0" IVar="2" Cut="1.0483973026275635e+00" cType="1" res="8.2615718245506287e-02" rms="4.4659626483917236e-01" purity="6.1062121391296387e-01" nType="0">
              <Node pos="l" depth="4" NCoef="0" IVar="-1" Cut="0.0000000000000000e+00" cType="1" res="4.5935608446598053e-02" rms="4.2545476555824280e-01" purity="7.2692257165908813e-01" nType="-99"/>
              <Node pos="r" depth="4" NCoef="0" IVar="5" Cut="1.3367247009277344e+02" cType="1" res="2.3983793333172798e-02" rms="4.6004614233970642e-01" purity="4.9093845486640930e-01" nType="0">
                <Node pos="l" depth="5" NCoef="0" IVar="-1" Cut="0.0000000000000000e+00" cType="1" res="2.9527965933084488e-02" rms="4.5986846089363098e-01" purity="5.8187770843505859e-01" nType="-99"/>
                <Node pos="r" depth="5" NCoef="0" IVar="-1" Cut="0.0000000000000000e+00" cType="1" res="-2.4210885167121887e-02" rms="4.5201915502548218e-01" purity="3.7459531426429749e-01" nType="-99"/>
              </Node>
            </Node>
          </Node>
        </Node>
        <Node pos="r" depth="1" NCoef="0" IVar="-1" Cut="0.0000000000000000e+00" cType="1" res="3.6018390208482742e-02" rms="4.2791804671287537e-01" purity="4.8995268344879150e-01" nType="-99"/>
      </Node>
    </BinaryTree>
    <BinaryTree type="DecisionTree" boostWeight="1.0000000000000000e+00" itree="9">
      <Node pos="s" depth="0" NCoef="0" IVar="2" Cut="1.6368615627288818e+00" cType="1" res="2.4351270869374275e-02" rms="4.4209143519401550e-01" purity="5.0000000000000000e-01" nType="0">
        <Node pos="l" depth="1" NCoef="0" IVar="4" Cut="1.4285714626312256e+00" cType="1" res="4.1312783956527710e-02" rms="4.4484540820121765e-01" purity="5.7055962085723877e-01" nType="0">
          <Node pos="l" depth="2" NCoef="0" IVar="3" Cut="1.0000000000000000e+00" cType="1" res="1.7331440001726151e-02" rms="4.4473689794540405e-01" purity="5.0179660320281982e-01" nType="0">
            <Node pos="l" depth="3" NCoef="0" IVar="-1" Cut="0.0000000000000000e+00" cType="1" res="-1.4696521684527397e-02" rms="4.5995935797691345e-01" purity="4.6751636266708374e-01" nType="-99"/>
            <Node pos="r" depth="3" NCoef="0" IVar="7" Cut="8.5544715881347656e+01" cType="1" res="5.2607387304306030e-02" rms="4.3646562099456787e-01" purity="5.2324426174163818e-01" nType="0">
              <Node pos="l" depth="4" NCoef="0" IVar="-1" Cut="0.0000000000000000e+00" cType="1" res="3.5349268466234207e-02" rms="4.5007902383804321e-01" purity="5.8485901355743408e-01" nType="-99"/>
              <Node pos="r" depth="4" NCoef="0" IVar="-1" Cut="0.0000000000000000e+00" cType="1" res="6.4172428101301193e-03" rms="4.1885727643966675e-01" purity="4.6218183636665344e-01" nType="-99"/>
            </Node>
          </Node>
          <Node pos="r" depth="2" NCoef="0" IVar="1" Cut="1.1739071607589722e+00" cType="1" res="7.3189094662666321e-02" rms="4.3883752822875977e-01" purity="6.7492222785949707e-01" nType="0">
            <Node pos="l" depth="3" NCoef="0" IVar="-1" Cut="0.0000000000000000e+00" cType="1" res="2.9356703162193298e-02" rms="4.3140536546707153e-01" purity="6.8029689788818359e-01" nType="-99"/>
            <Node pos="r" depth="3" NCoef="0" IVar="-1" Cut="0.0000000000000000e+00" cType="1" res="2.3723356425762177e-02" rms="4.4493547081947327e-01" purity="6.7034381628036499e-01" nType="-99"/>
          </Node>
        </Node>
        <Node pos="r" depth="1" NCoef="0" IVar="2" Cut="2.3851418495178223e+00" cType="1" res="-2.3573830723762512e-02" rms="4.3061989545822144e-01" purity="3.0063235759735107e-01" nType="0">
          <Node pos="l" depth="2" NCoef="0" IVar="-1" Cut="0.0000000000000000e+00" cType="1" res="8.0063106724992394e-04" rms="4.7182652354240417e-01" purity="4.0862524509429932e-01" nType="-99"/>
          <Node pos="r" depth="2" NCoef="0" IVar="-1" Cut="0.0000000000000000e+00" cType="1" res="-7.7957876026630402e-02" rms="3.7042734026908875e-01" purity="1.6573679447174072e-01" nType="-99"/>
        </Node>
      </Node>
    </BinaryTree>
    <BinaryTree type="DecisionTree" boostWeight="1.0000000000000000e+00" itree="10">
      <Node pos="s" depth="0" NCoef="0" IVar="7" Cut="1.2635140228271484e+02" cType="1" res="2.2328123450279236e-02" rms="4.4083654880523682e-01" purity="5.0000000000000000e-01" nType="0">
        <Node pos="l" depth="1" NCoef="0" IVar="5" Cut="1.5919714355468750e+02" cType="1" res="1.0866711847484112e-02" rms="4.4315135478973389e-01" purity="4.7062867879867554e-01" nType="0">
          <Node pos="l" depth="2" NCoef="0" IVar="4" Cut="1.1428571939468384e+00" cType="1" res="-9.8446076735854149e-03" rms="4.4501242041587830e-01" purity="4.6649035811424255e-01" nType="0">
            <Node pos="l" depth="3" NCoef="0" IVar="2" Cut="6.7671120166778564e-01" cType="1" res="-8.0126479268074036e-02" rms="4.2013940215110779e-01" purity="2.9393485188484192e-01" nType="0">
              <Node pos="l" depth="4" NCoef="0" IVar="-1" Cut="0.0000000000000000e+00" cType="1" res="-3.8914538919925690e-02" rms="4.2363923788070679e-01" purity="3.2795545458793640e-01" nType="-99"/>
              <Node pos="r" depth="4" NCoef="0" IVar="-1" Cut="0.0000000000000000e+00" cType="1" res="-7.5897924602031708e-02" rms="4.1616591811180115e-01" purity="2.6294139027595520e-01" nType="-99"/>
            </Node>
            <Node pos="r" depth="3" NCoef="0" IVar="7" Cut="6.0215087890625000e+01" cType="1" res="4.7118388116359711e-02" rms="4.5632088184356689e-01" purity="6.0634541511535645e-01" nType="0">
              <Node pos="l" depth="4" NCoef="0" IVar="-1" Cut="0.0000000000000000e+00" cType="1" res="-3.0589915695600212e-04" rms="4.7217163443565369e-01" purity="5.4826402664184570e-01" nType="-99"/>
              <Node pos="r" depth="4" NCoef="0" IVar="-1" Cut="0.0000000000000000e+00" cType="1" res="3.2948426902294159e-02" rms="4.3702232837677002e-01" purity="6.5884310007095337e-01" nType="-99"/>
            </Node>
          </Node>
          <Node pos="r" depth="2" NCoef="0" IVar="2" Cut="1.3095030784606934e+00" cType="1" res="4.2656809091567993e-02" rms="4.3837997317314148e-01" purity="4.7698062658309937e-01" nType="0">
            <Node pos="l" depth="3" NCoef="0" IVar="-1" Cut="0.0000000000000000e+00" cType="1" res="3.7084817886352539e-02" rms="4.4743439555168152e-01" purity="7.0940303802490234e-01" nType="-99"/>
            <Node pos="r" depth="3" NCoef="0" IVar="-1" Cut="0.0000000000000000e+00" cType="1" res="-1.5600943937897682e-02" rms="4.2074951529502869e-01" purity="2.7529305219650269e-01" nType="-99"/>
          </Node>
        </Node>
        <Node pos="r" depth="1" NCoef="0" IVar="-1" Cut="0.0000000000000000e+00" cType="1" res="2.7707673609256744e-02" rms="4.2733967304229736e-01" purity="6.2562984228134155e-01" nType="-99"/>
      </Node>
    </BinaryTree>
    <BinaryTree type="DecisionTree" boostWeight="1.0000000000000000e+00" itree="11">
      <Node pos="s" depth="0" NCoef="0" IVar="2" Cut="9.8211699724197388e-01" cType="1" res="2.1754235029220581e-02" rms="4.3868279457092285e-01" purity="5.0000000000000000e-01" nType="0">
        <Node pos="l" depth="1" NCoef="0" IVar="4" Cut="7.1428573131561279e-01" cType="1" res="4.2259249836206436e-02" rms="4.3242707848548889e-01" purity="5.8405864238739014e-01" nType="0">
          <Node pos="l" depth="2" NCoef="0" IVar="-1" Cut="0.0000000000000000e+00" cType="1" res="6.2110424041748047e-03" rms="4.4680568575859070e-01" purity="5.3435134887695312e-01" nType="-99"/>
          <Node pos="r" depth="2" NCoef="0" IVar="2" Cut="3.7413671612739563e-01" cType="1" res="5.5603045970201492e-02" rms="4.2464885115623474e-01" purity="6.0812455415725708e-01" nType="0">
            <Node pos="l" depth="3" NCoef="0" IVar="-1" Cut="0.0000000000000000e+00" cType="1" res="2.8243571519851685e-02" rms="4.1919481754302979e-01" purity="6.2464314699172974e-01" nType="-99"/>
            <Node pos="r" depth="3" NCoef="0" IVar="-1" Cut="0.0000000000000000e+00" cType="1" res="1.8423078581690788e-02" rms="4.2772978544235229e-01" purity="5.9769308567047119e-01" nType="-99"/>
          </Node>
        </Node>
        <Node pos="r" depth="1" NCoef="0" IVar="4" Cut="6.6666668653488159e-01" cType="1" res="9.0888282284140587e-04" rms="4.4398254156112671e-01" purity="4.1454616189002991e-01" nType="0">
          <Node pos="l" depth="2" NCoef="0" IVar="-1" Cut="0.0000000000000000e+00" cType="1" res="-2.3283516988158226e-02" rms="4.3303394317626953e-01" purity="3.2793140411376953e-01" nType="-99"/>
          <Node pos="r" depth="2" NCoef="0" IVar="7" Cut="8.3162536621093750e+01" cType="1" res="1.3519500382244587e-02" rms="4.4705003499984741e-01" purity="4.4474917650222778e-01" nType="0">
            <Node pos="l" depth="3" NCoef="0" IVar="0" Cut="1.4739681482315063e+00" cType="1" res="-1.4550111256539822e-02" rms="4.5011523365974426e-01" purity="4.0042057633399963e-01" nType="0">
              <Node pos="l" depth="4" NCoef="0" IVar="-1" Cut="0.0000000000000000e+00" cType="1" res="-1.1088914237916470e-02" rms="4.7005224227905273e-01" purity="4.3495035171508789e-01" nType="-99"/>
              <Node pos="r" depth="4" NCoef="0" IVar="-1" Cut="0.0000000000000000e+00" cType="1" res="-4.9553713761270046e-03" rms="4.2956352233886719e-01" purity="3.6655870079994202e-01" nType="-99"/>
            </Node>
            <Node pos="r" depth="3" NCoef="0" IVar="-1" Cut="0.0000000000000000e+00" cType="1" res="2.3054486140608788e-02" rms="4.4075307250022888e-01" purity="4.9965181946754456e-01" nType="-99"/>
          </Node>
        </Node>
      </Node>
    </BinaryTree>
    <BinaryTree type="DecisionTree" boostWeight="1.0000000000000000e+00" itree="12">
      <Node pos="s" depth="0" NCoef="0" IVar="5" Cut="2.2955096435546875e+02" cType="1" res="1.8346484750509262e-02" rms="4.3812459707260132e-01" purity="5.0000000000000000e-01" nType="0">
        <Node pos="l" depth="1" NCoef="0" IVar="5" Cut="7.4670288085937500e+01" cType="1" res="7.6297922059893608e-03" rms="4.4145682454109192e-01" purity="5.0254619121551514e-01" nType="0">
          <Node pos="l" depth="2" NCoef="0" IVar="-1" Cut="0.0000000000000000e+00" cType="1" res="-1.2422514706850052e-01" rms="3.7834861874580383e-01" purity="2.0374554395675659e-01" nType="-99"/>
          <Node pos="r" depth="2" NCoef="0" IVar="4" Cut="7.1428573131561279e-01" cType="1" res="3.0469663441181183e-02" rms="4.4665220379829407e-01" purity="5.5084574222564697e-01" nType="0">
            <Node pos="l" depth="3" NCoef="0" IVar="-1" Cut="0.0000000000000000e+00" cType="1" res="-3.1872469931840897e-02" rms="4.4949373602867126e-01" purity="3.7960091233253479e-01" nType="-99"/>
            <Node pos="r" depth="3" NCoef="0" IVar="2" Cut="8.3871942758560181e-01" cType="1" res="6.0983836650848389e-02" rms="4.4160023331642151e-01" purity="6.1062121391296387e-01" nType="0">
              <Node pos="l" depth="4" NCoef="0" IVar="-1" Cut="0.0000000000000000e+00" cType="1" res="3.7664536386728287e-02" rms="4.1940781474113464e-01" purity="7.3706245422363281e-01" nType="-99"/>
              <Node pos="r" depth="4" NCoef="0" IVar="5" Cut="1.2629721832275391e+02" cType="1" res="2.7442280203104019e-02" rms="4.5329460501670837e-01" purity="5.2316242456436157e-01" nType="0">
                <Node pos="l" depth="5" NCoef="0" IVar="-1" Cut="0.0000000000000000e+00" cType="1" res="2.6193905621767044e-02" rms="4.4966250658035278e-01" purity="6.0912168025970459e-01" nType="-99"/>
                <Node pos="r" depth="5" NCoef="0" IVar="-1" Cut="0.0000000000000000e+00" cType="1" res="-8.5091851651668549e-03" rms="4.5339217782020569e-01" purity="4.2799469828605652e-01" nType="-99"/>
              </Node>
            </Node>
          </Node>
        </Node>
        <Node pos="r" depth="1" NCoef="0" IVar="-1" Cut="0.0000000000000000e+00" cType="1" res="2.9664449393749237e-02" rms="4.2207348346710205e-01" purity="4.8995268344879150e-01" nType="-99"/>
      </Node>
    </BinaryTree>
    <BinaryTree type="DecisionTree" boostWeight="1.0000000000000000e+00" itree="13">
      <Node pos="s" depth="0" NCoef="0" IVar="2" Cut="1.3094892501831055e+00" cType="1" res="1.9301660358905792e-02" rms="4.3509474396705627e-01" purity="5.0000000000000000e-01" nType="0">
        <Node pos="l" depth="1" NCoef="0" IVar="6" Cut="1.1814180755615234e+02" cType="1" res="3.4191276878118515e-02" rms="4.3227705359458923e-01" purity="5.7867580652236938e-01" nType="0">
          <Node pos="l" depth="2" NCoef="0" IVar="5" Cut="8.4498825073242188e+01" cType="1" res="2.5140892714262009e-02" rms="4.3113103508949280e-01" purity="5.4463297128677368e-01" nType="0">
            <Node pos="l" depth="3" NCoef="0" IVar="-1" Cut="0.0000000000000000e+00" cType="1" res="-4.6544678509235382e-02" rms="3.9502158761024475e-01" purity="2.7113518118858337e-01" nType="-99"/>
            <Node pos="r" depth="3" NCoef="0" IVar="7" Cut="7.5377700805664062e+01" cType="1" res="5.6675858795642853e-02" rms="4.3955829739570618e-01" purity="6.4569365978240967e-01" nType="0">
              <Node pos="l" depth="4" NCoef="0" IVar="-1" Cut="0.0000000000000000e+00" cType="1" res="1.0631103999912739e-02" rms="4.5814901590347290e-01" purity="5.9620559215545654e-01" nType="-99"/>
              <Node pos="r" depth="4" NCoef="0" IVar="-1" Cut="0.0000000000000000e+00" cType="1" res="3.2162819057703018e-02" rms="4.1768854856491089e-01" purity="6.9578731060028076e-01" nType="-99"/>
            </Node>
          </Node>
          <Node pos="r" depth="2" NCoef="0" IVar="-1" Cut="0.0000000000000000e+00" cType="1" res="2.3937627673149109e-02" rms="4.3491607904434204e-01" purity="7.1079885959625244e-01" nType="-99"/>
        </Node>
        <Node pos="r" depth="1" NCoef="0" IVar="2" Cut="2.3695521354675293e+00" cType="1" res="-6.5580895170569420e-03" rms="4.3874627351760864e-01" purity="3.6335864663124084e-01" nType="0">
          <Node pos="l" depth="2" NCoef="0" IVar="0" Cut="1.2602941989898682e+00" cType="1" res="5.1918840035796165e-03" rms="4.6705797314643860e-01" purity="4.5677280426025391e-01" nType="0">
            <Node pos="l" depth="3" NCoef="0" IVar="-1" Cut="0.0000000000000000e+00" cType="1" res="-6.3053937628865242e-03" rms="4.6717381477355957e-01" purity="4.2328432202339172e-01" nType="-99"/>
            <Node pos="r" depth="3" NCoef="0" IVar="-1" Cut="0.0000000000000000e+00" cType="1" res="1.2788340449333191e-02" rms="4.6590259671211243e-01" purity="5.0177311897277832e-01" nType="-99"/>
          </Node>
          <Node pos="r" depth="2" NCoef="0" IVar="-1" Cut="0.0000000000000000e+00" cType="1" res="-4.6793580055236816e-02" rms="3.7151852250099182e-01" purity="1.6818377375602722e-01" nType="-99"/>
        </Node>
      </Node>
    </BinaryTree>
    <BinaryTree type="DecisionTree" boostWeight="1.0000000000000000e+00" itree="14">
      <Node pos="s" depth="0" NCoef="0" IVar="4" Cut="2.1428570747375488e+00" cType="1" res="1.8477529287338257e-02" rms="4.3407693505287170e-01" purity="5.0000000000000000e-01" nType="0">
        <Node pos="l" depth="1" NCoef="0" IVar="5" Cut="2.2955096435546875e+02" cType="1" res="9.1892229393124580e-03" rms="4.3441313505172729e-01" purity="4.7926604747772217e-01" nType="0">
          <Node pos="l" depth="2" NCoef="0" IVar="5" Cut="8.4995544433593750e+01" cType="1" res="-6.6940174438059330e-03" rms="4.3676283955574036e-01" purity="4.6731024980545044e-01" nType="0">
            <Node pos="l" depth="3" NCoef="0" IVar="-1" Cut="0.0000000000000000e+00" cType="1" res="-8.9341804385185242e-02" rms="3.6053362488746643e-01" purity="2.0681904256343842e-01" nType="-99"/>
            <Node pos="r" depth="3" NCoef="0" IVar="4" Cut="9.5238097012042999e-02" cType="1" res="1.1459452100098133e-02" rms="4.4950288534164429e-01" purity="5.2364701032638550e-01" nType="0">
              <Node pos="l" depth="4" NCoef="0" IVar="-1" Cut="0.0000000000000000e+00" cType="1" res="-2.5269364938139915e-02" rms="4.5232594013214111e-01" purity="3.8659247756004333e-01" nType="-99"/>
              <Node pos="r" depth="4" NCoef="0" IVar="2" Cut="1.0483973026275635e+00" cType="1" res="4.0519427508115768e-02" rms="4.4525548815727234e-01" purity="5.9323155879974365e-01" nType="0">
                <Node pos="l" depth="5" NCoef="0" IVar="-1" Cut="0.0000000000000000e+00" cType="1" res="2.7512788772583008e-02" rms="4.3126845359802246e-01" purity="7.2183179855346680e-01" nType="-99"/>
                <Node pos="r" depth="5" NCoef="0" IVar="-1" Cut="0.0000000000000000e+00" cType="1" res="1.0133022442460060e-03" rms="4.5659542083740234e-01" purity="4.5578601956367493e-01" nType="-99"/>
              </Node>
            </Node>
          </Node>
          <Node pos="r" depth="2" NCoef="0" IVar="-1" Cut="0.0000000000000000e+00" cType="1" res="3.0387798324227333e-02" rms="4.2152518033981323e-01" purity="5.2079749107360840e-01" nType="-99"/>
        </Node>
        <Node pos="r" depth="1" NCoef="0" IVar="-1" Cut="0.0000000000000000e+00" cType="1" res="2.4948477745056152e-02" rms="4.3041583895683289e-01" purity="5.8810079097747803e-01" nType="-99"/>
      </Node>
    </BinaryTree>
    <BinaryTree type="DecisionTree" boostWeight="1.0000000000000000e+00" itree="15">
      <Node pos="s" depth="0" NCoef="0" IVar="2" Cut="1.3094892501831055e+00" cType="1" res="1.7718264833092690e-02" rms="4.3247887492179871e-01" purity="5.0000000000000000e-01" nType="0">
        <Node pos="l" depth="1" NCoef="0" IVar="3" Cut="1.0000000000000000e+00" cType="1" res="2.5595013052225113e-02" rms="4.2217400670051575e-01" purity="5.7867580652236938e-01" nType="0">
          <Node pos="l" depth="2" NCoef="0" IVar="-1" Cut="0.0000000000000000e+00" cType="1" res="4.2138504795730114e-03" rms="4.3070402741432190e-01" purity="6.0821306705474854e-01" nType="-99"/>
          <Node pos="r" depth="2" NCoef="0" IVar="1" Cut="1.7361757755279541e+00" cType="1" res="4.5116700232028961e-02" rms="4.2698761820793152e-01" purity="5.5982375144958496e-01" nType="0">
            <Node pos="l" depth="3" NCoef="0" IVar="0" Cut="6.1266815662384033e-01" cType="1" res="3.1384710222482681e-02" rms="4.1940525174140930e-01" purity="5.1716721057891846e-01" nType="0">
              <Node pos="l" depth="4" NCoef="0" IVar="-1" Cut="0.0000000000000000e+00" cType="1" res="1.9493080675601959e-02" rms="4.2212837934494019e-01" purity="5.4783105850219727e-01" nType="-99"/>
              <Node pos="r" depth="4" NCoef="0" IVar="-1" Cut="0.0000000000000000e+00" cType="1" res="8.1978151574730873e-03" rms="4.1562271118164062e-01" purity="4.8047852516174316e-01" nType="-99"/>
            </Node>
            <Node pos="r" depth="3" NCoef="0" IVar="-1" Cut="0.0000000000000000e+00" cType="1" res="2.7137881144881248e-02" rms="4.3972101807594299e-01" purity="6.3995563983917236e-01" nType="-99"/>
          </Node>
        </Node>
        <Node pos="r" depth="1" NCoef="0" IVar="3" Cut="1.0000000000000000e+00" cType="1" res="-3.1152709852904081e-03" rms="4.2732414603233337e-01" purity="3.6335864663124084e-01" nType="0">
          <Node pos="l" depth="2" NCoef="0" IVar="-1" Cut="0.0000000000000000e+00" cType="1" res="-1.5512001700699329e-02" rms="4.3798258900642395e-01" purity="3.9910179376602173e-01" nType="-99"/>
          <Node pos="r" depth="2" NCoef="0" IVar="2" Cut="2.1045362949371338e+00" cType="1" res="2.9252446256577969e-03" rms="4.3742963671684265e-01" purity="3.4804385900497437e-01" nType="0">
            <Node pos="l" depth="3" NCoef="0" IVar="-1" Cut="0.0000000000000000e+00" cType="1" res="1.1199563741683960e-02" rms="4.7763648629188538e-01" purity="4.9583044648170471e-01" nType="-99"/>
            <Node pos="r" depth="3" NCoef="0" IVar="-1" Cut="0.0000000000000000e+00" cType="1" res="-2.2533422335982323e-02" rms="3.9289319515228271e-01" purity="2.0325464010238647e-01" nType="-99"/>
          </Node>
        </Node>
      </Node>
    </BinaryTree>
    <BinaryTree type="DecisionTree" boostWeight="1.0000000000000000e+00" itree="16">
      <Node pos="s" depth="0" NCoef="0" IVar="2" Cut="9.8211699724197388e-01" cType="1" res="1.5207570046186447e-02" rms="4.3206021189689636e-01" purity="5.0000000000000000e-01" nType="0">
        <Node pos="l" depth="1" NCoef="0" IVar="4" Cut="7.1428573131561279e-01" cType="1" res="3.0010420829057693e-02" rms="4.2272821068763733e-01" purity="5.8405864238739014e-01" nType="0">
          <Node pos="l" depth="2" NCoef="0" IVar="-1" Cut="0.0000000000000000e+00" cType="1" res="4.6148044057190418e-03" rms="4.3988767266273499e-01" purity="5.3435134887695312e-01" nType="-99"/>
          <Node pos="r" depth="2" NCoef="0" IVar="2" Cut="3.7413671612739563e-01" cType="1" res="3.9416626095771790e-02" rms="4.1383749246597290e-01" purity="6.0812455415725708e-01" nType="0">
            <Node pos="l" depth="3" NCoef="0" IVar="-1" Cut="0.0000000000000000e+00" cType="1" res="2.2519998252391815e-02" rms="4.0758302807807922e-01" purity="6.2464314699172974e-01" nType="-99"/>
            <Node pos="r" depth="3" NCoef="0" IVar="-1" Cut="0.0000000000000000e+00" cType="1" res="1.3460816815495491e-02" rms="4.1750743985176086e-01" purity="5.9769308567047119e-01" nType="-99"/>
          </Node>
        </Node>
        <Node pos="r" depth="1" NCoef="0" IVar="0" Cut="2.1080112457275391e+00" cType="1" res="1.5902529412414879e-04" rms="4.4083568453788757e-01" purity="4.1454616189002991e-01" nType="0">
          <Node pos="l" depth="2" NCoef="0" IVar="3" Cut="1.0000000000000000e+00" cType="1" res="-5.3146802820265293e-03" rms="3.9591714739799500e-01" purity="4.1518133878707886e-01" nType="0">
            <Node pos="l" depth="3" NCoef="0" IVar="-1" Cut="0.0000000000000000e+00" cType="1" res="-2.6125896722078323e-02" rms="4.3725621700286865e-01" purity="4.1279473900794983e-01" nType="-99"/>
            <Node pos="r" depth="3" NCoef="0" IVar="5" Cut="1.7343397521972656e+02" cType="1" res="9.9296635016798973e-03" rms="4.4891053438186646e-01" purity="4.1644439101219177e-01" nType="0">
              <Node pos="l" depth="4" NCoef="0" IVar="-1" Cut="0.0000000000000000e+00" cType="1" res="-5.0364597700536251e-03" rms="4.5196685194969177e-01" purity="4.3608438968658447e-01" nType="-99"/>
              <Node pos="r" depth="4" NCoef="0" IVar="-1" Cut="0.0000000000000000e+00" cType="1" res="1.3606048189103603e-02" rms="4.4624686241149902e-01" purity="4.0265649557113647e-01" nType="-99"/>
            </Node>
          </Node>
          <Node pos="r" depth="2" NCoef="0" IVar="-1" Cut="0.0000000000000000e+00" cType="1" res="1.7563596367835999e-02" rms="4.2395600676536560e-01" purity="4.1257128119468689e-01" nType="-99"/>
        </Node>
      </Node>
    </BinaryTree>
    <BinaryTree type="DecisionTree" boostWeight="1.0000000000000000e+00" itree="17">
      <Node pos="s" depth="0" NCoef="0" IVar="4" Cut="2.1428570747375488e+00" cType="1" res="1.2589407153427601e-02" rms="4.3164798617362976e-01" purity="5.0000000000000000e-01" nType="0">
        <Node pos="l" depth="1" NCoef="0" IVar="5" Cut="2.2955096435546875e+02" cType="1" res="5.5576455779373646e-03" rms="4.3176487088203430e-01" purity="4.7926604747772217e-01" nType="0">
          <Node pos="l" depth="2" NCoef="0" IVar="5" Cut="9.5320892333984375e+01" cType="1" res="-6.1695179902017117e-03" rms="4.3432357907295227e-01" purity="4.6731024980545044e-01" nType="0">
            <Node pos="l" depth="3" NCoef="0" IVar="-1" Cut="0.0000000000000000e+00" cType="1" res="-4.7189489006996155e-02" rms="3.8628524541854858e-01" purity="2.8272601962089539e-01" nType="-99"/>
            <Node pos="r" depth="3" NCoef="0" IVar="4" Cut="9.5238097012042999e-02" cType="1" res="1.1154165491461754e-02" rms="4.4743877649307251e-01" purity="5.2719658613204956e-01" nType="0">
              <Node pos="l" depth="4" NCoef="0" IVar="-1" Cut="0.0000000000000000e+00" cType="1" res="-1.9040854647755623e-02" rms="4.5474463701248169e-01" purity="3.9573320746421814e-01" nType="-99"/>
              <Node pos="r" depth="4" NCoef="0" IVar="2" Cut="1.0484042167663574e+00" cType="1" res="3.6560583859682083e-02" rms="4.4131755828857422e-01" purity="5.9938353300094604e-01" nType="0">
                <Node pos="l" depth="5" NCoef="0" IVar="-1" Cut="0.0000000000000000e+00" cType="1" res="2.3528035730123520e-02" rms="4.2512735724449158e-01" purity="7.4330759048461914e-01" nType="-99"/>
                <Node pos="r" depth="5" NCoef="0" IVar="-1" Cut="0.0000000000000000e+00" cType="1" res="4.1486402042210102e-03" rms="4.5538130402565002e-01" purity="4.5339265465736389e-01" nType="-99"/>
              </Node>
            </Node>
          </Node>
          <Node pos="r" depth="2" NCoef="0" IVar="-1" Cut="0.0000000000000000e+00" cType="1" res="2.2386757656931877e-02" rms="4.2022094130516052e-01" purity="5.2079749107360840e-01" nType="-99"/>
        </Node>
        <Node pos="r" depth="1" NCoef="0" IVar="-1" Cut="0.0000000000000000e+00" cType="1" res="1.8624486401677132e-02" rms="4.2987009882926941e-01" purity="5.8810079097747803e-01" nType="-99"/>
      </Node>
    </BinaryTree>
    <BinaryTree type="DecisionTree" boostWeight="1.0000000000000000e+00" itree="18">
      <Node pos="s" depth="0" NCoef="0" IVar="2" Cut="1.6368615627288818e+00" cType="1" res="1.1895010247826576e-02" rms="4.3080171942710876e-01" purity="5.0000000000000000e-01" nType="0">
        <Node pos="l" depth="1" NCoef="0" IVar="3" Cut="1.0000000000000000e+00" cType="1" res="1.7798947170376778e-02" rms="4.2660325765609741e-01" purity="5.7055962085723877e-01" nType="0">
          <Node pos="l" depth="2" NCoef="0" IVar="2" Cut="7.0151233673095703e-01" cType="1" res="1.6074548475444317e-03" rms="4.3084660172462463e-01" purity="5.9211617708206177e-01" nType="0">
            <Node pos="l" depth="3" NCoef="0" IVar="-1" Cut="0.0000000000000000e+00" cType="1" res="7.1813208051025867e-03" rms="4.2363196611404419e-01" purity="6.3294601440429688e-01" nType="-99"/>
            <Node pos="r" depth="3" NCoef="0" IVar="-1" Cut="0.0000000000000000e+00" cType="1" res="-6.2466980889439583e-03" rms="4.3738946318626404e-01" purity="5.5141675472259521e-01" nType="-99"/>
          </Node>
          <Node pos="r" depth="2" NCoef="0" IVar="1" Cut="1.9565100669860840e+00" cType="1" res="3.3432230353355408e-02" rms="4.3222984671592712e-01" purity="5.5671685934066772e-01" nType="0">
            <Node pos="l" depth="3" NCoef="0" IVar="0" Cut="8.4250187873840332e-01" cType="1" res="2.5082932785153389e-02" rms="4.2579185962677002e-01" purity="5.2354741096496582e-01" nType="0">
              <Node pos="l" depth="4" NCoef="0" IVar="2" Cut="6.2357115745544434e-01" cType="1" res="3.3162310719490051e-02" rms="4.2709088325500488e-01" purity="5.4317009449005127e-01" nType="0">
                <Node pos="l" depth="5" NCoef="0" IVar="-1" Cut="0.0000000000000000e+00" cType="1" res="1.7890771850943565e-02" rms="4.0855178236961365e-01" purity="5.5513167381286621e-01" nType="-99"/>
                <Node pos="r" depth="5" NCoef="0" IVar="-1" Cut="0.0000000000000000e+00" cType="1" res="1.2118733488023281e-02" rms="4.4458228349685669e-01" purity="5.3133577108383179e-01" nType="-99"/>
              </Node>
              <Node pos="r" depth="4" NCoef="0" IVar="-1" Cut="0.0000000000000000e+00" cType="1" res="5.1183933392167091e-03" rms="4.2300274968147278e-01" purity="4.8761263489723206e-01" nType="-99"/>
            </Node>
            <Node pos="r" depth="3" NCoef="0" IVar="-1" Cut="0.0000000000000000e+00" cType="1" res="2.1195879206061363e-02" rms="4.4750753045082092e-01" purity="6.4120393991470337e-01" nType="-99"/>
          </Node>
        </Node>
        <Node pos="r" depth="1" NCoef="0" IVar="2" Cut="2.3851418495178223e+00" cType="1" res="-1.3795396313071251e-02" rms="4.2644074559211731e-01" purity="3.0063235759735107e-01" nType="0">
          <Node pos="l" depth="2" NCoef="0" IVar="-1" Cut="0.0000000000000000e+00" cType="1" res="-1.7937318189069629e-03" rms="4.6649965643882751e-01" purity="4.0862524509429932e-01" nType="-99"/>
          <Node pos="r" depth="2" NCoef="0" IVar="-1" Cut="0.0000000000000000e+00" cType="1" res="-4.1965223848819733e-02" rms="3.6994868516921997e-01" purity="1.6573679447174072e-01" nType="-99"/>
        </Node>
      </Node>
    </BinaryTree>
    <BinaryTree type="DecisionTree" boostWeight="1.0000000000000000e+00" itree="19">
      <Node pos="s" depth="0" NCoef="0" IVar="0" Cut="2.3188085556030273e+00" cType="1" res="1.0737398639321327e-02" rms="4.3046224117279053e-01" purity="5.0000000000000000e-01" nType="0">
        <Node pos="l" depth="1" NCoef="0" IVar="4" Cut="2.1428570747375488e+00" cType="1" res="5.7185869663953781e-03" rms="4.3169301748275757e-01" purity="5.0221854448318481e-01" nType="0">
          <Node pos="l" depth="2" NCoef="0" IVar="5" Cut="2.2955096435546875e+02" cType="1" res="-1.1915509821847081e-03" rms="4.3060484528541565e-01" purity="4.7749820351600647e-01" nType="0">
            <Node pos="l" depth="3" NCoef="0" IVar="5" Cut="1.7792366027832031e+02" cType="1" res="-1.2724828906357288e-02" rms="4.3307995796203613e-01" purity="4.5697006583213806e-01" nType="0">
              <Node pos="l" depth="4" NCoef="0" IVar="4" Cut="9.5238097012042999e-02" cType="1" res="-2.9198985546827316e-02" rms="4.2761844396591187e-01" purity="4.3390107154846191e-01" nType="0">
                <Node pos="l" depth="5" NCoef="0" IVar="-1" Cut="0.0000000000000000e+00" cType="1" res="-7.0322223007678986e-02" rms="4.1301199793815613e-01" purity="2.7367776632308960e-01" nType="-99"/>
                <Node pos="r" depth="5" NCoef="0" IVar="5" Cut="9.1387374877929688e+01" cType="1" res="-6.3086440786719322e-03" rms="4.3031877279281616e-01" purity="4.9036926031112671e-01" nType="0">
                  <Node pos="l" depth="6" NCoef="0" IVar="-1" Cut="0.0000000000000000e+00" cType="1" res="-3.6017518490552902e-02" rms="3.8931983709335327e-01" purity="2.6999568939208984e-01" nType="-99"/>
                  <Node pos="r" depth="6" NCoef="0" IVar="-1" Cut="0.0000000000000000e+00" cType="1" res="5.2107218652963638e-03" rms="4.4785994291305542e-01" purity="5.9810733795166016e-01" nType="-99"/>
                </Node>
              </Node>
              <Node pos="r" depth="4" NCoef="0" IVar="-1" Cut="0.0000000000000000e+00" cType="1" res="2.2919891402125359e-02" rms="4.4812411069869995e-01" purity="5.4804885387420654e-01" nType="-99"/>
            </Node>
            <Node pos="r" depth="3" NCoef="0" IVar="-1" Cut="0.0000000000000000e+00" cType="1" res="1.9050283357501030e-02" rms="4.1876396536827087e-01" purity="5.5240690708160400e-01" nType="-99"/>
          </Node>
          <Node pos="r" depth="2" NCoef="0" IVar="-1" Cut="0.0000000000000000e+00" cType="1" res="1.7483249306678772e-02" rms="4.3555489182472229e-01" purity="6.3135808706283569e-01" nType="-99"/>
        </Node>
        <Node pos="r" depth="1" NCoef="0" IVar="-1" Cut="0.0000000000000000e+00" cType="1" res="2.6307404041290283e-02" rms="4.1855823993682861e-01" purity="4.8254388570785522e-01" nType="-99"/>
      </Node>
    </BinaryTree>
    <BinaryTree type="DecisionTree" boostWeight="1.0000000000000000e+00" itree="20">
      <Node pos="s" depth="0" NCoef="0" IVar="2" Cut="1.6368615627288818e+00" cType="1" res="1.0719140060245991e-02" rms="4.2926248908042908e-01" purity="5.0000000000000000e-01" nType="0">
        <Node pos="l" depth="1" NCoef="0" IVar="7" Cut="1.2642032623291016e+02" cType="1" res="1.9207250326871872e-02" rms="4.3011718988418579e-01" purity="5.7055962085723877e-01" nType="0">
          <Node pos="l" depth="2" NCoef="0" IVar="5" Cut="1.5919714355468750e+02" cType="1" res="1.2353628873825073e-02" rms="4.3604531884193420e-01" purity="5.3965348005294800e-01" nType="0">
            <Node pos="l" depth="3" NCoef="0" IVar="6" Cut="5.1172084808349609e+01" cType="1" res="-4.5923087745904922e-03" rms="4.2819863557815552e-01" purity="4.7940573096275330e-01" nType="0">
              <Node pos="l" depth="4" NCoef="0" IVar="-1" Cut="0.0000000000000000e+00" cType="1" res="1.9438777118921280e-02" rms="4.3404474854469299e-01" purity="6.1122143268585205e-01" nType="-99"/>
              <Node pos="r" depth="4" NCoef="0" IVar="7" Cut="7.2279930114746094e+01" cType="1" res="-3.5043478012084961e-02" rms="4.2170804738998413e-01" purity="3.9930382370948792e-01" nType="0">
                <Node pos="l" depth="5" NCoef="0" IVar="-1" Cut="0.0000000000000000e+00" cType="1" res="-2.6758236810564995e-02" rms="4.5533239841461182e-01" purity="4.4815924763679504e-01" nType="-99"/>
                <Node pos="r" depth="5" NCoef="0" IVar="-1" Cut="0.0000000000000000e+00" cType="1" res="-1.6019394621253014e-02" rms="3.9580035209655762e-01" purity="3.6466071009635925e-01" nType="-99"/>
              </Node>
            </Node>
            <Node pos="r" depth="3" NCoef="0" IVar="-1" Cut="0.0000000000000000e+00" cType="1" res="1.8959578126668930e-02" rms="4.5122784376144409e-01" purity="6.7884451150894165e-01" nType="-99"/>
          </Node>
          <Node pos="r" depth="2" NCoef="0" IVar="-1" Cut="0.0000000000000000e+00" cType="1" res="1.8138833343982697e-02" rms="4.0558338165283203e-01" purity="6.8875223398208618e-01" nType="-99"/>
        </Node>
        <Node pos="r" depth="1" NCoef="0" IVar="7" Cut="7.5651176452636719e+01" cType="1" res="-1.3264187611639500e-02" rms="4.2592501640319824e-01" purity="3.0063235759735107e-01" nType="0">
          <Node pos="l" depth="2" NCoef="0" IVar="-1" Cut="0.0000000000000000e+00" cType="1" res="-1.8874470144510269e-02" rms="4.2476361989974976e-01" purity="2.8306466341018677e-01" nType="-99"/>
          <Node pos="r" depth="2" NCoef="0" IVar="-1" Cut="0.0000000000000000e+00" cType="1" res="-1.9942077342420816e-03" rms="4.2687928676605225e-01" purity="3.1896138191223145e-01" nType="-99"/>
        </Node>
      </Node>
    </BinaryTree>
    <BinaryTree type="DecisionTree" boostWeight="1.0000000000000000e+00" itree="21">
      <Node pos="s" depth="0" NCoef="0" IVar="3" Cut="3.0000000000000000e+00" cType="1" res="1.1109585873782635e-02" rms="4.2463544011116028e-01" purity="5.0000000000000000e-01" nType="0">
        <Node pos="l" depth="1" NCoef="0" IVar="4" Cut="2.1428570747375488e+00" cType="1" res="1.5438190661370754e-02" rms="4.2863065004348755e-01" purity="5.1680099964141846e-01" nType="0">
          <Node pos="l" depth="2" NCoef="0" IVar="5" Cut="2.3002169799804688e+02" cType="1" res="9.1524478048086166e-03" rms="4.2872643470764160e-01" purity="4.8658192157745361e-01" nType="0">
            <Node pos="l" depth="3" NCoef="0" IVar="5" Cut="9.5805618286132812e+01" cType="1" res="2.2959245834499598e-03" rms="4.3139758706092834e-01" purity="4.7336706519126892e-01" nType="0">
              <Node pos="l" depth="4" NCoef="0" IVar="-1" Cut="0.0000000000000000e+00" cType="1" res="-2.7747677639126778e-02" rms="3.8701874017715454e-01" purity="2.8928700089454651e-01" nType="-99"/>
              <Node pos="r" depth="4" NCoef="0" IVar="2" Cut="8.3872139453887939e-01" cType="1" res="1.3949104584753513e-02" rms="4.4366067647933960e-01" purity="5.3065365552902222e-01" nType="0">
                <Node pos="l" depth="5" NCoef="0" IVar="-1" Cut="0.0000000000000000e+00" cType="1" res="1.5747400000691414e-02" rms="4.3967506289482117e-01" purity="6.4649289846420288e-01" nType="-99"/>
                <Node pos="r" depth="5" NCoef="0" IVar="7" Cut="7.1908210754394531e+01" cType="1" res="-7.1977633051574230e-03" rms="4.4587716460227966e-01" purity="4.3351930379867554e-01" nType="0">
                  <Node pos="l" depth="6" NCoef="0" IVar="-1" Cut="0.0000000000000000e+00" cType="1" res="-1.5198492445051670e-02" rms="4.5312204957008362e-01" purity="3.9576640725135803e-01" nType="-99"/>
                  <Node pos="r" depth="6" NCoef="0" IVar="-1" Cut="0.0000000000000000e+00" cType="1" res="4.0281661786139011e-03" rms="4.3943065404891968e-01" purity="4.6368744969367981e-01" nType="-99"/>
                </Node>
              </Node>
            </Node>
            <Node pos="r" depth="3" NCoef="0" IVar="-1" Cut="0.0000000000000000e+00" cType="1" res="1.9490219652652740e-02" rms="4.1494855284690857e-01" purity="5.4662889242172241e-01" nType="-99"/>
          </Node>
          <Node pos="r" depth="2" NCoef="0" IVar="-1" Cut="0.0000000000000000e+00" cType="1" res="1.9144212827086449e-02" rms="4.2677327990531921e-01" purity="6.6748106479644775e-01" nType="-99"/>
        </Node>
        <Node pos="r" depth="1" NCoef="0" IVar="-1" Cut="0.0000000000000000e+00" cType="1" res="-1.6806466504931450e-02" rms="4.2743644118309021e-01" purity="3.8520032167434692e-01" nType="-99"/>
      </Node>
    </BinaryTree>
    <BinaryTree type="DecisionTree" boostWeight="1.0000000000000000e+00" itree="22">
      <Node pos="s" depth="0" NCoef="0" IVar="2" Cut="3.2737231254577637e-01" cType="1" res="9.2503735795617104e-03" rms="4.2827188968658447e-01" purity="5.0000000000000000e-01" nType="0">
        <Node pos="l" depth="1" NCoef="0" IVar="-1" Cut="0.0000000000000000e+00" cType="1" res="1.5676356852054596e-02" rms="4.1291350126266479e-01" purity="6.0448759794235229e-01" nType="-99"/>
        <Node pos="r" depth="1" NCoef="0" IVar="2" Cut="2.5098550319671631e+00" cType="1" res="3.7078345194458961e-03" rms="4.3126869201660156e-01" purity="4.7775182127952576e-01" nType="0">
          <Node pos="l" depth="2" NCoef="0" IVar="0" Cut="1.8904309272766113e+00" cType="1" res="9.2470822855830193e-03" rms="4.4063973426818848e-01" purity="5.2372926473617554e-01" nType="0">
            <Node pos="l" depth="3" NCoef="0" IVar="3" Cut="1.0000000000000000e+00" cType="1" res="1.9664128776639700e-03" rms="4.0254476666450500e-01" purity="5.1181221008300781e-01" nType="0">
              <Node pos="l" depth="4" NCoef="0" IVar="1" Cut="1.1190799474716187e+00" cType="1" res="-1.7889946699142456e-02" rms="4.3381613492965698e-01" purity="5.1427763700485229e-01" nType="0">
                <Node pos="l" depth="5" NCoef="0" IVar="-1" Cut="0.0000000000000000e+00" cType="1" res="1.8510401714593172e-03" rms="4.2472922801971436e-01" purity="5.3932714462280273e-01" nType="-99"/>
                <Node pos="r" depth="5" NCoef="0" IVar="-1" Cut="0.0000000000000000e+00" cType="1" res="-2.1964289247989655e-02" rms="4.4261455535888672e-01" purity="4.8585957288742065e-01" nType="-99"/>
              </Node>
              <Node pos="r" depth="4" NCoef="0" IVar="7" Cut="8.5238883972167969e+01" cType="1" res="1.4414212666451931e-02" rms="4.4307503104209900e-01" purity="5.1030242443084717e-01" nType="0">
                <Node pos="l" depth="5" NCoef="0" IVar="-1" Cut="0.0000000000000000e+00" cType="1" res="1.0725685395300388e-02" rms="4.5958006381988525e-01" purity="5.2937626838684082e-01" nType="-99"/>
                <Node pos="r" depth="5" NCoef="0" IVar="-1" Cut="0.0000000000000000e+00" cType="1" res="1.9044834189116955e-03" rms="4.2221364378929138e-01" purity="4.8746079206466675e-01" nType="-99"/>
              </Node>
            </Node>
            <Node pos="r" depth="3" NCoef="0" IVar="-1" Cut="0.0000000000000000e+00" cType="1" res="1.8734131008386612e-02" rms="4.4276940822601318e-01" purity="5.8049911260604858e-01" nType="-99"/>
          </Node>
          <Node pos="r" depth="2" NCoef="0" IVar="-1" Cut="0.0000000000000000e+00" cType="1" res="-6.1341062188148499e-02" rms="3.5486108064651489e-01" purity="1.4976938068866730e-01" nType="-99"/>
        </Node>
      </Node>
    </BinaryTree>
    <BinaryTree type="DecisionTree" boostWeight="1.0000000000000000e+00" itree="23">
      <Node pos="s" depth="0" NCoef="0" IVar="0" Cut="2.3188085556030273e+00" cType="1" res="8.7956786155700684e-03" rms="4.2783859372138977e-01" purity="5.0000000000000000e-01" nType="0">
        <Node pos="l" depth="1" NCoef="0" IVar="2" Cut="4.5708489418029785e-01" cType="1" res="4.4295629486441612e-03" rms="4.2911624908447266e-01" purity="5.0221854448318481e-01" nType="0">
          <Node pos="l" depth="2" NCoef="0" IVar="0" Cut="7.7293401956558228e-01" cType="1" res="2.5173317641019821e-02" rms="4.1213840246200562e-01" purity="5.9569507837295532e-01" nType="0">
            <Node pos="l" depth="3" NCoef="0" IVar="-1" Cut="0.0000000000000000e+00" cType="1" res="1.4999300241470337e-02" rms="4.0927541255950928e-01" purity="6.0844492912292480e-01" nType="-99"/>
            <Node pos="r" depth="3" NCoef="0" IVar="-1" Cut="0.0000000000000000e+00" cType="1" res="7.3737218044698238e-03" rms="4.1500511765480042e-01" purity="5.8195483684539795e-01" nType="-99"/>
          </Node>
          <Node pos="r" depth="2" NCoef="0" IVar="3" Cut="1.0000000000000000e+00" cType="1" res="3.5931848105974495e-04" rms="3.9490506052970886e-01" purity="4.6741843223571777e-01" nType="0">
            <Node pos="l" depth="3" NCoef="0" IVar="1" Cut="1.1190936565399170e+00" cType="1" res="-1.9015584141016006e-02" rms="4.3089157342910767e-01" purity="4.8596072196960449e-01" nType="0">
              <Node pos="l" depth="4" NCoef="0" IVar="-1" Cut="0.0000000000000000e+00" cType="1" res="2.3092293122317642e-04" rms="4.2358285188674927e-01" purity="5.1393979787826538e-01" nType="-99"/>
              <Node pos="r" depth="4" NCoef="0" IVar="-1" Cut="0.0000000000000000e+00" cType="1" res="-2.0403228700160980e-02" rms="4.3701073527336121e-01" purity="4.5894333720207214e-01" nType="-99"/>
            </Node>
            <Node pos="r" depth="3" NCoef="0" IVar="0" Cut="1.5458601713180542e+00" cType="1" res="5.4448852315545082e-03" rms="4.3704563379287720e-01" purity="4.5711332559585571e-01" nType="0">
              <Node pos="l" depth="4" NCoef="0" IVar="5" Cut="1.6047012329101562e+02" cType="1" res="1.2161356396973133e-02" rms="4.4084668159484863e-01" purity="4.8356291651725769e-01" nType="0">
                <Node pos="l" depth="5" NCoef="0" IVar="-1" Cut="0.0000000000000000e+00" cType="1" res="6.6633621463552117e-04" rms="4.2983615398406982e-01" purity="4.3789061903953552e-01" nType="-99"/>
                <Node pos="r" depth="5" NCoef="0" IVar="-1" Cut="0.0000000000000000e+00" cType="1" res="1.0490878485143185e-02" rms="4.5045012235641479e-01" purity="5.2534407377243042e-01" nType="-99"/>
              </Node>
              <Node pos="r" depth="4" NCoef="0" IVar="-1" Cut="0.0000000000000000e+00" cType="1" res="-1.0074519552290440e-02" rms="4.2431879043579102e-01" purity="3.7479683756828308e-01" nType="-99"/>
            </Node>
          </Node>
        </Node>
        <Node pos="r" depth="1" NCoef="0" IVar="-1" Cut="0.0000000000000000e+00" cType="1" res="2.3328032344579697e-02" rms="4.1605365276336670e-01" purity="4.8254388570785522e-01" nType="-99"/>
      </Node>
    </BinaryTree>
    <BinaryTree type="DecisionTree" boostWeight="1.0000000000000000e+00" itree="24">
      <Node pos="s" depth="0" NCoef="0" IVar="3" Cut="3.0000000000000000e+00" cType="1" res="8.3472924306988716e-03" rms="4.2350956797599792e-01" purity="5.0000000000000000e-01" nType="0">
        <Node pos="l" depth="1" NCoef="0" IVar="4" Cut="7.1428573131561279e-01" cType="1" res="1.1490046046674252e-02" rms="4.2747244238853455e-01" purity="5.1680099964141846e-01" nType="0">
          <Node pos="l" depth="2" NCoef="0" IVar="7" Cut="7.3908180236816406e+01" cType="1" res="-7.6957335695624352e-03" rms="4.2727985978126526e-01" purity="4.3706303834915161e-01" nType="0">
            <Node pos="l" depth="3" NCoef="0" IVar="-1" Cut="0.0000000000000000e+00" cType="1" res="6.9703655317425728e-03" rms="4.3176347017288208e-01" purity="4.7886776924133301e-01" nType="-99"/>
            <Node pos="r" depth="3" NCoef="0" IVar="-1" Cut="0.0000000000000000e+00" cType="1" res="-1.6601100564002991e-02" rms="4.2188382148742676e-01" purity="3.9678400754928589e-01" nType="-99"/>
          </Node>
          <Node pos="r" depth="2" NCoef="0" IVar="4" Cut="2.3333332538604736e+00" cType="1" res="1.9365863874554634e-02" rms="4.2730215191841125e-01" purity="5.4953360557556152e-01" nType="0">
            <Node pos="l" depth="3" NCoef="0" IVar="0" Cut="1.4756060838699341e+00" cType="1" res="1.4249481260776520e-02" rms="4.2745050787925720e-01" purity="5.1317566633224487e-01" nType="0">
              <Node pos="l" depth="4" NCoef="0" IVar="2" Cut="9.3645721673965454e-01" cType="1" res="8.8016716763377190e-03" rms="4.2789030075073242e-01" purity="5.2317625284194946e-01" nType="0">
                <Node pos="l" depth="5" NCoef="0" IVar="-1" Cut="0.0000000000000000e+00" cType="1" res="8.5236867889761925e-03" rms="4.0729454159736633e-01" purity="5.8684068918228149e-01" nType="-99"/>
                <Node pos="r" depth="5" NCoef="0" IVar="-1" Cut="0.0000000000000000e+00" cType="1" res="-1.6781901940703392e-03" rms="4.5264133810997009e-01" purity="4.4157841801643372e-01" nType="-99"/>
              </Node>
              <Node pos="r" depth="4" NCoef="0" IVar="-1" Cut="0.0000000000000000e+00" cType="1" res="1.4060376212000847e-02" rms="4.2618012428283691e-01" purity="4.9028509855270386e-01" nType="-99"/>
            </Node>
            <Node pos="r" depth="3" NCoef="0" IVar="-1" Cut="0.0000000000000000e+00" cType="1" res="1.5030257403850555e-02" rms="4.2639803886413574e-01" purity="6.6748106479644775e-01" nType="-99"/>
          </Node>
        </Node>
        <Node pos="r" depth="1" NCoef="0" IVar="-1" Cut="0.0000000000000000e+00" cType="1" res="-1.3232174329459667e-02" rms="4.2710590362548828e-01" purity="3.8520032167434692e-01" nType="-99"/>
      </Node>
    </BinaryTree>
    <BinaryTree type="DecisionTree" boostWeight="1.0000000000000000e+00" itree="25">
      <Node pos="s" depth="0" NCoef="0" IVar="7" Cut="1.2635140228271484e+02" cType="1" res="6.3569555059075356e-03" rms="4.2735159397125244e-01" purity="5.0000000000000000e-01" nType="0">
        <Node pos="l" depth="1" NCoef="0" IVar="7" Cut="3.6114437103271484e+01" cType="1" res="1.9946137908846140e-03" rms="4.3027788400650024e-01" purity="4.7062867879867554e-01" nType="0">
          <Node pos="l" depth="2" NCoef="0" IVar="-1" Cut="0.0000000000000000e+00" cType="1" res="-1.6440665349364281e-02" rms="4.5151218771934509e-01" purity="4.7871860861778259e-01" nType="-99"/>
          <Node pos="r" depth="2" NCoef="0" IVar="4" Cut="6.1904764175415039e-01" cType="1" res="7.9836733639240265e-03" rms="4.2612588405609131e-01" purity="4.6919530630111694e-01" nType="0">
            <Node pos="l" depth="3" NCoef="0" IVar="7" Cut="7.4786895751953125e+01" cType="1" res="-1.3616125099360943e-02" rms="4.2538446187973022e-01" purity="4.1550502181053162e-01" nType="0">
              <Node pos="l" depth="4" NCoef="0" IVar="-1" Cut="0.0000000000000000e+00" cType="1" res="1.2645293027162552e-03" rms="4.3080228567123413e-01" purity="4.5639395713806152e-01" nType="-99"/>
              <Node pos="r" depth="4" NCoef="0" IVar="-1" Cut="0.0000000000000000e+00" cType="1" res="-1.8843516707420349e-02" rms="4.1908493638038635e-01" purity="3.7334102392196655e-01" nType="-99"/>
            </Node>
            <Node pos="r" depth="3" NCoef="0" IVar="5" Cut="1.2792829132080078e+02" cType="1" res="1.7925426363945007e-02" rms="4.2609888315200806e-01" purity="4.9390736222267151e-01" nType="0">
              <Node pos="l" depth="4" NCoef="0" IVar="5" Cut="8.4038665771484375e+01" cType="1" res="2.9769841581583023e-02" rms="4.2142713069915771e-01" purity="5.1831239461898804e-01" nType="0">
                <Node pos="l" depth="5" NCoef="0" IVar="-1" Cut="0.0000000000000000e+00" cType="1" res="-1.5249232761561871e-02" rms="3.9736998081207275e-01" purity="2.7762344479560852e-01" nType="-99"/>
                <Node pos="r" depth="5" NCoef="0" IVar="-1" Cut="0.0000000000000000e+00" cType="1" res="2.3892309516668320e-02" rms="4.3251857161521912e-01" purity="6.6215646266937256e-01" nType="-99"/>
              </Node>
              <Node pos="r" depth="4" NCoef="0" IVar="-1" Cut="0.0000000000000000e+00" cType="1" res="1.7962009587790817e-04" rms="4.3235203623771667e-01" purity="4.5762324333190918e-01" nType="-99"/>
            </Node>
          </Node>
        </Node>
        <Node pos="r" depth="1" NCoef="0" IVar="-1" Cut="0.0000000000000000e+00" cType="1" res="1.1109634302556515e-02" rms="4.1408357024192810e-01" purity="6.2562984228134155e-01" nType="-99"/>
      </Node>
    </BinaryTree>
    <BinaryTree type="DecisionTree" boostWeight="1.0000000000000000e+00" itree="26">
      <Node pos="s" depth="0" NCoef="0" IVar="2" Cut="1.3094892501831055e+00" cType="1" res="5.9294863604009151e-03" rms="4.2699900269508362e-01" purity="5.0000000000000000e-01" nType="0">
        <Node pos="l" depth="1" NCoef="0" IVar="7" Cut="1.2642032623291016e+02" cType="1" res="1.2697962112724781e-02" rms="4.2272225022315979e-01" purity="5.7867580652236938e-01" nType="0">
          <Node pos="l" depth="2" NCoef="0" IVar="5" Cut="1.5919714355468750e+02" cType="1" res="7.9144099727272987e-03" rms="4.2912897467613220e-01" purity="5.4700636863708496e-01" nType="0">
            <Node pos="l" depth="3" NCoef="0" IVar="4" Cut="1.1428571939468384e+00" cType="1" res="-6.5235588699579239e-03" rms="4.2280998826026917e-01" purity="4.7829625010490417e-01" nType="0">
              <Node pos="l" depth="4" NCoef="0" IVar="-1" Cut="0.0000000000000000e+00" cType="1" res="-2.5072563439607620e-02" rms="4.0826392173767090e-01" purity="3.1394535303115845e-01" nType="-99"/>
              <Node pos="r" depth="4" NCoef="0" IVar="-1" Cut="0.0000000000000000e+00" cType="1" res="9.7669139504432678e-03" rms="4.3471917510032654e-01" purity="6.3986533880233765e-01" nType="-99"/>
            </Node>
            <Node pos="r" depth="3" NCoef="0" IVar="-1" Cut="0.0000000000000000e+00" cType="1" res="1.5535131096839905e-02" rms="4.4183948636054993e-01" purity="7.0946693420410156e-01" nType="-99"/>
          </Node>
          <Node pos="r" depth="2" NCoef="0" IVar="-1" Cut="0.0000000000000000e+00" cType="1" res="1.2795255519449711e-02" rms="3.9751470088958740e-01" purity="6.9632989168167114e-01" nType="-99"/>
        </Node>
        <Node pos="r" depth="1" NCoef="0" IVar="7" Cut="8.1776397705078125e+01" cType="1" res="-5.8257584460079670e-03" rms="4.3407592177391052e-01" purity="3.6335864663124084e-01" nType="0">
          <Node pos="l" depth="2" NCoef="0" IVar="5" Cut="1.6930505371093750e+02" cType="1" res="-1.3966713100671768e-02" rms="4.3509551882743835e-01" purity="3.3890166878700256e-01" nType="0">
            <Node pos="l" depth="3" NCoef="0" IVar="-1" Cut="0.0000000000000000e+00" cType="1" res="-1.2688290327787399e-02" rms="4.5446485280990601e-01" purity="4.0372461080551147e-01" nType="-99"/>
            <Node pos="r" depth="3" NCoef="0" IVar="-1" Cut="0.0000000000000000e+00" cType="1" res="-5.0674965605139732e-03" rms="4.1499263048171997e-01" purity="2.7509692311286926e-01" nType="-99"/>
          </Node>
          <Node pos="r" depth="2" NCoef="0" IVar="-1" Cut="0.0000000000000000e+00" cType="1" res="2.5963981170207262e-03" rms="4.3259888887405396e-01" purity="3.9362290501594543e-01" nType="-99"/>
        </Node>
      </Node>
    </BinaryTree>
    <BinaryTree type="DecisionTree" boostWeight="1.0000000000000000e+00" itree="27">
      <Node pos="s" depth="0" NCoef="0" IVar="0" Cut="2.3188085556030273e+00" cType="1" res="5.8311796747148037e-03" rms="4.2672979831695557e-01" purity="5.0000000000000000e-01" nType="0">
        <Node pos="l" depth="1" NCoef="0" IVar="2" Cut="1.1427122354507446e+00" cType="1" res="2.6420832145959139e-03" rms="4.2814379930496216e-01" purity="5.0221854448318481e-01" nType="0">
          <Node pos="l" depth="2" NCoef="0" IVar="2" Cut="5.4414796829223633e-01" cType="1" res="1.0590782389044762e-02" rms="4.2018264532089233e-01" purity="5.7440978288650513e-01" nType="0">
            <Node pos="l" depth="3" NCoef="0" IVar="0" Cut="7.7293401956558228e-01" cType="1" res="1.8432890996336937e-02" rms="4.1094985604286194e-01" purity="5.9209483861923218e-01" nType="0">
              <Node pos="l" depth="4" NCoef="0" IVar="-1" Cut="0.0000000000000000e+00" cType="1" res="1.0970360599458218e-02" rms="4.0786075592041016e-01" purity="6.0286527872085571e-01" nType="-99"/>
              <Node pos="r" depth="4" NCoef="0" IVar="-1" Cut="0.0000000000000000e+00" cType="1" res="5.9094154275953770e-03" rms="4.1415241360664368e-01" purity="5.8055859804153442e-01" nType="-99"/>
            </Node>
            <Node pos="r" depth="3" NCoef="0" IVar="0" Cut="7.7293443679809570e-01" cType="1" res="1.9437897717580199e-03" rms="4.2996758222579956e-01" purity="5.5490970611572266e-01" nType="0">
              <Node pos="l" depth="4" NCoef="0" IVar="-1" Cut="0.0000000000000000e+00" cType="1" res="4.0957708843052387e-03" rms="4.2906218767166138e-01" purity="5.5998623371124268e-01" nType="-99"/>
              <Node pos="r" depth="4" NCoef="0" IVar="-1" Cut="0.0000000000000000e+00" cType="1" res="-2.4043733719736338e-03" rms="4.3078923225402832e-01" purity="5.4966932535171509e-01" nType="-99"/>
            </Node>
          </Node>
          <Node pos="r" depth="2" NCoef="0" IVar="3" Cut="1.0000000000000000e+00" cType="1" res="-5.4889023303985596e-03" rms="3.8880440592765808e-01" purity="3.8630497455596924e-01" nType="0">
            <Node pos="l" depth="3" NCoef="0" IVar="-1" Cut="0.0000000000000000e+00" cType="1" res="-1.7807811498641968e-02" rms="4.3121156096458435e-01" purity="3.8626247644424438e-01" nType="-99"/>
            <Node pos="r" depth="3" NCoef="0" IVar="7" Cut="8.3280609130859375e+01" cType="1" res="-7.2905822889879346e-04" rms="4.4447046518325806e-01" purity="3.8632604479789734e-01" nType="0">
              <Node pos="l" depth="4" NCoef="0" IVar="-1" Cut="0.0000000000000000e+00" cType="1" res="4.5407302677631378e-03" rms="4.5202067494392395e-01" purity="3.8743776082992554e-01" nType="-99"/>
              <Node pos="r" depth="4" NCoef="0" IVar="-1" Cut="0.0000000000000000e+00" cType="1" res="-6.7540258169174194e-03" rms="4.3475309014320374e-01" purity="3.8495346903800964e-01" nType="-99"/>
            </Node>
          </Node>
        </Node>
        <Node pos="r" depth="1" NCoef="0" IVar="-1" Cut="0.0000000000000000e+00" cType="1" res="1.7070658504962921e-02" rms="4.1458114981651306e-01" purity="4.8254388570785522e-01" nType="-99"/>
      </Node>
    </BinaryTree>
    <BinaryTree type="DecisionTree" boostWeight="1.0000000000000000e+00" itree="28">
      <Node pos="s" depth="0" NCoef="0" IVar="3" Cut="3.0000000000000000e+00" cType="1" res="6.0596447438001633e-03" rms="4.2251989245414734e-01" purity="5.0000000000000000e-01" nType="0">
        <Node pos="l" depth="1" NCoef="0" IVar="3" Cut="2.0000000000000000e+00" cType="1" res="3.1166507396847010e-03" rms="2.5464576482772827e-01" purity="5.1680099964141846e-01" nType="0">
          <Node pos="l" depth="2" NCoef="0" IVar="6" Cut="9.7664230346679688e+01" cType="1" res="3.9993389509618282e-03" rms="4.2479988932609558e-01" purity="5.2830606698989868e-01" nType="0">
            <Node pos="l" depth="3" NCoef="0" IVar="6" Cut="4.9221569061279297e+01" cType="1" res="-1.8271385924890637e-03" rms="4.2214202880859375e-01" purity="5.0923258066177368e-01" nType="0">
              <Node pos="l" depth="4" NCoef="0" IVar="-1" Cut="0.0000000000000000e+00" cType="1" res="1.3840709812939167e-02" rms="4.2457553744316101e-01" purity="6.2254059314727783e-01" nType="-99"/>
              <Node pos="r" depth="4" NCoef="0" IVar="5" Cut="1.1179417419433594e+02" cType="1" res="-1.8193246796727180e-02" rms="4.1996136307716370e-01" purity="4.5229029655456543e-01" nType="0">
                <Node pos="l" depth="5" NCoef="0" IVar="-1" Cut="0.0000000000000000e+00" cType="1" res="-3.0883561819791794e-02" rms="3.8121426105499268e-01" purity="3.4917268157005310e-01" nType="-99"/>
                <Node pos="r" depth="5" NCoef="0" IVar="6" Cut="7.4596534729003906e+01" cType="1" res="-5.1393974572420120e-03" rms="4.3884623050689697e-01" purity="5.0778174400329590e-01" nType="0">
                  <Node pos="l" depth="6" NCoef="0" IVar="-1" Cut="0.0000000000000000e+00" cType="1" res="-8.8396165519952774e-03" rms="4.4059258699417114e-01" purity="5.1685053110122681e-01" nType="-99"/>
                  <Node pos="r" depth="6" NCoef="0" IVar="-1" Cut="0.0000000000000000e+00" cType="1" res="3.7910058163106441e-03" rms="4.3664753437042236e-01" purity="4.9824607372283936e-01" nType="-99"/>
                </Node>
              </Node>
            </Node>
            <Node pos="r" depth="3" NCoef="0" IVar="-1" Cut="0.0000000000000000e+00" cType="1" res="9.3783680349588394e-03" rms="4.3205943703651428e-01" purity="5.8433943986892700e-01" nType="-99"/>
          </Node>
          <Node pos="r" depth="2" NCoef="0" IVar="-1" Cut="0.0000000000000000e+00" cType="1" res="1.2407972477376461e-02" rms="4.3170374631881714e-01" purity="4.7660437226295471e-01" nType="-99"/>
        </Node>
        <Node pos="r" depth="1" NCoef="0" IVar="-1" Cut="0.0000000000000000e+00" cType="1" res="-1.1598368175327778e-02" rms="4.2689990997314453e-01" purity="3.8520032167434692e-01" nType="-99"/>
      </Node>
    </BinaryTree>
    <BinaryTree type="DecisionTree" boostWeight="1.0000000000000000e+00" itree="29">
      <Node pos="s" depth="0" NCoef="0" IVar="2" Cut="1.3094892501831055e+00" cType="1" res="4.4695008546113968e-03" rms="4.2631414532661438e-01" purity="5.0000000000000000e-01" nType="0">
        <Node pos="l" depth="1" NCoef="0" IVar="4" Cut="7.1428573131561279e-01" cType="1" res="9.8737413063645363e-03" rms="4.2191973328590393e-01" purity="5.7867580652236938e-01" nType="0">
          <Node pos="l" depth="2" NCoef="0" IVar="-1" Cut="0.0000000000000000e+00" cType="1" res="-5.1683088531717658e-04" rms="4.3307694792747498e-01" purity="5.1880127191543579e-01" nType="-99"/>
          <Node pos="r" depth="2" NCoef="0" IVar="3" Cut="1.0000000000000000e+00" cType="1" res="1.0291954502463341e-02" rms="4.0763369202613831e-01" purity="6.0668313503265381e-01" nType="0">
            <Node pos="l" depth="3" NCoef="0" IVar="-1" Cut="0.0000000000000000e+00" cType="1" res="1.0395317338407040e-02" rms="4.1278213262557983e-01" purity="7.0984584093093872e-01" nType="-99"/>
            <Node pos="r" depth="3" NCoef="0" IVar="4" Cut="1.5238095521926880e+00" cType="1" res="7.9436758533120155e-03" rms="4.1899457573890686e-01" purity="5.3290277719497681e-01" nType="0">
              <Node pos="l" depth="4" NCoef="0" IVar="-1" Cut="0.0000000000000000e+00" cType="1" res="3.2221866422332823e-04" rms="3.8242465257644653e-01" purity="4.2927008867263794e-01" nType="-99"/>
              <Node pos="r" depth="4" NCoef="0" IVar="-1" Cut="0.0000000000000000e+00" cType="1" res="5.9438510797917843e-03" rms="4.4290706515312195e-01" purity="6.0601466894149780e-01" nType="-99"/>
            </Node>
          </Node>
        </Node>
        <Node pos="r" depth="1" NCoef="0" IVar="7" Cut="8.1776397705078125e+01" cType="1" res="-4.9163899384438992e-03" rms="4.3368047475814819e-01" purity="3.6335864663124084e-01" nType="0">
          <Node pos="l" depth="2" NCoef="0" IVar="0" Cut="1.4739681482315063e+00" cType="1" res="-1.2755262665450573e-02" rms="4.3477171659469604e-01" purity="3.3890166878700256e-01" nType="0">
            <Node pos="l" depth="3" NCoef="0" IVar="-1" Cut="0.0000000000000000e+00" cType="1" res="-2.2851836401969194e-03" rms="4.5288434624671936e-01" purity="3.6654034256935120e-01" nType="-99"/>
            <Node pos="r" depth="3" NCoef="0" IVar="-1" Cut="0.0000000000000000e+00" cType="1" res="-1.6549481078982353e-02" rms="4.1588112711906433e-01" purity="3.1155833601951599e-01" nType="-99"/>
          </Node>
          <Node pos="r" depth="2" NCoef="0" IVar="-1" Cut="0.0000000000000000e+00" cType="1" res="2.9289205558598042e-03" rms="4.3212947249412537e-01" purity="3.9362290501594543e-01" nType="-99"/>
        </Node>
      </Node>
    </BinaryTree>
    <BinaryTree type="DecisionTree" boostWeight="1.0000000000000000e+00" itree="30">
      <Node pos="s" depth="0" NCoef="0" IVar="0" Cut="2.3188085556030273e+00" cType="1" res="3.9610955864191055e-03" rms="4.2624703049659729e-01" purity="5.0000000000000000e-01" nType="0">
        <Node pos="l" depth="1" NCoef="0" IVar="5" Cut="2.2955096435546875e+02" cType="1" res="1.2815436348319054e-03" rms="4.2767596244812012e-01" purity="5.0221854448318481e-01" nType="0">
          <Node pos="l" depth="2" NCoef="0" IVar="5" Cut="7.4670288085937500e+01" cType="1" res="-3.1999559141695499e-03" rms="4.2977103590965271e-01" purity="4.9258938431739807e-01" nType="0">
            <Node pos="l" depth="3" NCoef="0" IVar="-1" Cut="0.0000000000000000e+00" cType="1" res="-5.5523697286844254e-02" rms="3.6770814657211304e-01" purity="1.9814479351043701e-01" nType="-99"/>
            <Node pos="r" depth="3" NCoef="0" IVar="4" Cut="7.1428573131561279e-01" cType="1" res="5.1498645916581154e-03" rms="4.3894314765930176e-01" purity="5.4283684492111206e-01" nType="0">
              <Node pos="l" depth="4" NCoef="0" IVar="-1" Cut="0.0000000000000000e+00" cType="1" res="-1.3840305618941784e-02" rms="4.4052842259407043e-01" purity="3.7862184643745422e-01" nType="-99"/>
              <Node pos="r" depth="4" NCoef="0" IVar="7" Cut="5.6568183898925781e+01" cType="1" res="1.6711253672838211e-02" rms="4.3777331709861755e-01" purity="6.0855060815811157e-01" nType="0">
                <Node pos="l" depth="5" NCoef="0" IVar="-1" Cut="0.0000000000000000e+00" cType="1" res="-1.5451691113412380e-02" rms="4.6453809738159180e-01" purity="5.3079664707183838e-01" nType="-99"/>
                <Node pos="r" depth="5" NCoef="0" IVar="5" Cut="1.2629711151123047e+02" cType="1" res="3.7028197199106216e-02" rms="4.2448773980140686e-01" purity="6.4091110229492188e-01" nType="0">
                  <Node pos="l" depth="6" NCoef="0" IVar="-1" Cut="0.0000000000000000e+00" cType="1" res="2.6032524183392525e-02" rms="4.1051459312438965e-01" purity="6.7742687463760376e-01" nType="-99"/>
                  <Node pos="r" depth="6" NCoef="0" IVar="-1" Cut="0.0000000000000000e+00" cType="1" res="1.5211497666314244e-03" rms="4.4016158580780029e-01" purity="5.9224486351013184e-01" nType="-99"/>
                </Node>
              </Node>
            </Node>
          </Node>
          <Node pos="r" depth="2" NCoef="0" IVar="-1" Cut="0.0000000000000000e+00" cType="1" res="1.0240240953862667e-02" rms="4.1805955767631531e-01" purity="5.4338479042053223e-01" nType="-99"/>
        </Node>
        <Node pos="r" depth="1" NCoef="0" IVar="-1" Cut="0.0000000000000000e+00" cType="1" res="1.3962591998279095e-02" rms="4.1422796249389648e-01" purity="4.8254388570785522e-01" nType="-99"/>
      </Node>
    </BinaryTree>
    <BinaryTree type="DecisionTree" boostWeight="1.0000000000000000e+00" itree="31">
      <Node pos="s" depth="0" NCoef="0" IVar="2" Cut="9.8211699724197388e-01" cType="1" res="4.6197329647839069e-03" rms="4.2567756772041321e-01" purity="5.0000000000000000e-01" nType="0">
        <Node pos="l" depth="1" NCoef="0" IVar="3" Cut="1.0000000000000000e+00" cType="1" res="9.8990453407168388e-03" rms="4.0787190198898315e-01" purity="5.8405864238739014e-01" nType="0">
          <Node pos="l" depth="2" NCoef="0" IVar="-1" Cut="0.0000000000000000e+00" cType="1" res="7.8639166895300150e-04" rms="4.1890159249305725e-01" purity="6.2335497140884399e-01" nType="-99"/>
          <Node pos="r" depth="2" NCoef="0" IVar="7" Cut="8.5285133361816406e+01" cType="1" res="1.8559144809842110e-02" rms="4.1250771284103394e-01" purity="5.5914819240570068e-01" nType="0">
            <Node pos="l" depth="3" NCoef="0" IVar="-1" Cut="0.0000000000000000e+00" cType="1" res="1.3352748937904835e-02" rms="4.3458831310272217e-01" purity="5.9669917821884155e-01" nType="-99"/>
            <Node pos="r" depth="3" NCoef="0" IVar="-1" Cut="0.0000000000000000e+00" cType="1" res="2.5672083720564842e-03" rms="3.8381919264793396e-01" purity="5.1397883892059326e-01" nType="-99"/>
          </Node>
        </Node>
        <Node pos="r" depth="1" NCoef="0" IVar="4" Cut="6.6666668653488159e-01" cType="1" res="-2.8977429028600454e-03" rms="4.3605723977088928e-01" purity="4.1454616189002991e-01" nType="0">
          <Node pos="l" depth="2" NCoef="0" IVar="-1" Cut="0.0000000000000000e+00" cType="1" res="-1.2911338359117508e-02" rms="4.2214071750640869e-01" purity="3.2793140411376953e-01" nType="-99"/>
          <Node pos="r" depth="2" NCoef="0" IVar="7" Cut="8.3162536621093750e+01" cType="1" res="2.5062633212655783e-03" rms="4.4067856669425964e-01" purity="4.4474917650222778e-01" nType="0">
            <Node pos="l" depth="3" NCoef="0" IVar="0" Cut="1.4739681482315063e+00" cType="1" res="-8.7443189695477486e-03" rms="4.4415748119354248e-01" purity="4.0042057633399963e-01" nType="0">
              <Node pos="l" depth="4" NCoef="0" IVar="-1" Cut="0.0000000000000000e+00" cType="1" res="-2.2330307401716709e-03" rms="4.6515768766403198e-01" purity="4.3495035171508789e-01" nType="-99"/>
              <Node pos="r" depth="4" NCoef="0" IVar="-1" Cut="0.0000000000000000e+00" cType="1" res="-8.8481865823268890e-03" rms="4.2250159382820129e-01" purity="3.6655870079994202e-01" nType="-99"/>
            </Node>
            <Node pos="r" depth="3" NCoef="0" IVar="-1" Cut="0.0000000000000000e+00" cType="1" res="8.4902066737413406e-03" rms="4.3592900037765503e-01" purity="4.9965181946754456e-01" nType="-99"/>
          </Node>
        </Node>
      </Node>
    </BinaryTree>
    <BinaryTree type="DecisionTree" boostWeight="1.0000000000000000e+00" itree="32">
      <Node pos="s" depth="0" NCoef="0" IVar="2" Cut="3.2737231254577637e-01" cType="1" res="4.0483637712895870e-03" rms="4.2556533217430115e-01" purity="5.0000000000000000e-01" nType="0">
        <Node pos="l" depth="1" NCoef="0" IVar="-1" Cut="0.0000000000000000e+00" cType="1" res="8.6584649980068207e-03" rms="4.1030189394950867e-01" purity="6.0448759794235229e-01" nType="-99"/>
        <Node pos="r" depth="1" NCoef="0" IVar="2" Cut="2.5098550319671631e+00" cType="1" res="9.7880512475967407e-04" rms="4.2868256568908691e-01" purity="4.7775182127952576e-01" nType="0">
          <Node pos="l" depth="2" NCoef="0" IVar="0" Cut="1.8904309272766113e+00" cType="1" res="4.1338987648487091e-03" rms="4.3802443146705627e-01" purity="5.2372926473617554e-01" nType="0">
            <Node pos="l" depth="3" NCoef="0" IVar="3" Cut="1.0000000000000000e+00" cType="1" res="-1.8455704775988124e-05" rms="4.0052145719528198e-01" purity="5.1181221008300781e-01" nType="0">
              <Node pos="l" depth="4" NCoef="0" IVar="1" Cut="1.1190799474716187e+00" cType="1" res="-1.3445807620882988e-02" rms="4.3080928921699524e-01" purity="5.1427763700485229e-01" nType="0">
                <Node pos="l" depth="5" NCoef="0" IVar="-1" Cut="0.0000000000000000e+00" cType="1" res="-1.2488426873460412e-03" rms="4.2226752638816833e-01" purity="5.3932714462280273e-01" nType="-99"/>
                <Node pos="r" depth="5" NCoef="0" IVar="-1" Cut="0.0000000000000000e+00" cType="1" res="-1.3567333109676838e-02" rms="4.3996745347976685e-01" purity="4.8585957288742065e-01" nType="-99"/>
              </Node>
              <Node pos="r" depth="4" NCoef="0" IVar="7" Cut="8.5238883972167969e+01" cType="1" res="8.9953457936644554e-03" rms="4.4145572185516357e-01" purity="5.1030242443084717e-01" nType="0">
                <Node pos="l" depth="5" NCoef="0" IVar="-1" Cut="0.0000000000000000e+00" cType="1" res="7.8128315508365631e-03" rms="4.5815110206604004e-01" purity="5.2937626838684082e-01" nType="-99"/>
                <Node pos="r" depth="5" NCoef="0" IVar="-1" Cut="0.0000000000000000e+00" cType="1" res="-5.3749681683257222e-05" rms="4.2041063308715820e-01" purity="4.8746079206466675e-01" nType="-99"/>
              </Node>
            </Node>
            <Node pos="r" depth="3" NCoef="0" IVar="-1" Cut="0.0000000000000000e+00" cType="1" res="9.8135815933346748e-03" rms="4.3972498178482056e-01" purity="5.8049911260604858e-01" nType="-99"/>
          </Node>
          <Node pos="r" depth="2" NCoef="0" IVar="-1" Cut="0.0000000000000000e+00" cType="1" res="-3.8981564342975616e-02" rms="3.5416534543037415e-01" purity="1.4976938068866730e-01" nType="-99"/>
        </Node>
      </Node>
    </BinaryTree>
    <BinaryTree type="DecisionTree" boostWeight="1.0000000000000000e+00" itree="33">
      <Node pos="s" depth="0" NCoef="0" IVar="0" Cut="2.3188085556030273e+00" cType="1" res="4.0400386787950993e-03" rms="4.2541316151618958e-01" purity="5.0000000000000000e-01" nType="0">
        <Node pos="l" depth="1" NCoef="0" IVar="5" Cut="2.2955096435546875e+02" cType="1" res="1.7267807852476835e-03" rms="4.2687350511550903e-01" purity="5.0221854448318481e-01" nType="0">
          <Node pos="l" depth="2" NCoef="0" IVar="5" Cut="7.4670288085937500e+01" cType="1" res="-2.0715396385639906e-03" rms="4.2892503738403320e-01" purity="4.9258938431739807e-01" nType="0">
            <Node pos="l" depth="3" NCoef="0" IVar="-1" Cut="0.0000000000000000e+00" cType="1" res="-4.1048530489206314e-02" rms="3.6790281534194946e-01" purity="1.9814479351043701e-01" nType="-99"/>
            <Node pos="r" depth="3" NCoef="0" IVar="5" Cut="1.8529920959472656e+02" cType="1" res="3.9812740869820118e-03" rms="4.3820449709892273e-01" purity="5.4283684492111206e-01" nType="0">
              <Node pos="l" depth="4" NCoef="0" IVar="4" Cut="7.1428573131561279e-01" cType="1" res="-2.5444431230425835e-03" rms="4.3657660484313965e-01" purity="5.4138904809951782e-01" nType="0">
                <Node pos="l" depth="5" NCoef="0" IVar="-1" Cut="0.0000000000000000e+00" cType="1" res="-3.2619774341583252e-02" rms="4.2870923876762390e-01" purity="3.0781459808349609e-01" nType="-99"/>
                <Node pos="r" depth="5" NCoef="0" IVar="5" Cut="1.3261798095703125e+02" cType="1" res="1.1308312416076660e-02" rms="4.3810755014419556e-01" purity="6.1485385894775391e-01" nType="0">
                  <Node pos="l" depth="6" NCoef="0" IVar="7" Cut="7.4962478637695312e+01" cType="1" res="2.7044067159295082e-02" rms="4.3095842003822327e-01" purity="6.4457809925079346e-01" nType="0">
                    <Node pos="l" depth="7" NCoef="0" IVar="-1" Cut="0.0000000000000000e+00" cType="1" res="-1.9665709696710110e-03" rms="4.6396860480308533e-01" purity="5.8220553398132324e-01" nType="-99"/>
                    <Node pos="r" depth="7" NCoef="0" IVar="-1" Cut="0.0000000000000000e+00" cType="1" res="2.2828329354524612e-02" rms="3.9839267730712891e-01" purity="6.9825506210327148e-01" nType="-99"/>
                  </Node>
                  <Node pos="r" depth="6" NCoef="0" IVar="-1" Cut="0.0000000000000000e+00" cType="1" res="-1.4413543976843357e-02" rms="4.5341897010803223e-01" purity="5.3874897956848145e-01" nType="-99"/>
                </Node>
              </Node>
              <Node pos="r" depth="4" NCoef="0" IVar="-1" Cut="0.0000000000000000e+00" cType="1" res="1.6343701630830765e-02" rms="4.4464319944381714e-01" purity="5.4983800649642944e-01" nType="-99"/>
            </Node>
          </Node>
          <Node pos="r" depth="2" NCoef="0" IVar="-1" Cut="0.0000000000000000e+00" cType="1" res="9.1390758752822876e-03" rms="4.1759994626045227e-01" purity="5.4338479042053223e-01" nType="-99"/>
        </Node>
        <Node pos="r" depth="1" NCoef="0" IVar="-1" Cut="0.0000000000000000e+00" cType="1" res="1.2609153054654598e-02" rms="4.1329160332679749e-01" purity="4.8254388570785522e-01" nType="-99"/>
      </Node>
    </BinaryTree>
    <BinaryTree type="DecisionTree" boostWeight="1.0000000000000000e+00" itree="34">
      <Node pos="s" depth="0" NCoef="0" IVar="2" Cut="6.5474462509155273e-01" cType="1" res="4.6804104931652546e-03" rms="4.2490687966346741e-01" purity="5.0000000000000000e-01" nType="0">
        <Node pos="l" depth="1" NCoef="0" IVar="3" Cut="1.0000000000000000e+00" cType="1" res="1.3341992162168026e-02" rms="3.9835500717163086e-01" purity="5.8893674612045288e-01" nType="0">
          <Node pos="l" depth="2" NCoef="0" IVar="-1" Cut="0.0000000000000000e+00" cType="1" res="3.1255832873284817e-03" rms="4.1645115613937378e-01" purity="6.3398003578186035e-01" nType="-99"/>
          <Node pos="r" depth="2" NCoef="0" IVar="2" Cut="3.4295853972434998e-01" cType="1" res="1.7827652394771576e-02" rms="4.0438124537467957e-01" purity="5.6062960624694824e-01" nType="0">
            <Node pos="l" depth="3" NCoef="0" IVar="-1" Cut="0.0000000000000000e+00" cType="1" res="1.1853631585836411e-02" rms="4.0458202362060547e-01" purity="5.7742637395858765e-01" nType="-99"/>
            <Node pos="r" depth="3" NCoef="0" IVar="-1" Cut="0.0000000000000000e+00" cType="1" res="5.2727898582816124e-03" rms="4.0403360128402710e-01" purity="5.4234915971755981e-01" nType="-99"/>
          </Node>
        </Node>
        <Node pos="r" depth="1" NCoef="0" IVar="0" Cut="2.3188114166259766e+00" cType="1" res="-7.8830940765328705e-05" rms="4.3308198451995850e-01" purity="4.5219206809997559e-01" nType="0">
          <Node pos="l" depth="2" NCoef="0" IVar="3" Cut="1.0000000000000000e+00" cType="1" res="-4.5536758261732757e-04" rms="3.9412209391593933e-01" purity="4.5000493526458740e-01" nType="0">
            <Node pos="l" depth="3" NCoef="0" IVar="-1" Cut="0.0000000000000000e+00" cType="1" res="-8.5054170340299606e-03" rms="4.2912292480468750e-01" purity="4.6253558993339539e-01" nType="-99"/>
            <Node pos="r" depth="3" NCoef="0" IVar="0" Cut="1.2146064043045044e+00" cType="1" res="3.5075640771538019e-03" rms="4.4034576416015625e-01" purity="4.4314715266227722e-01" nType="0">
              <Node pos="l" depth="4" NCoef="0" IVar="3" Cut="2.0000000000000000e+00" cType="1" res="7.6027358882129192e-03" rms="3.7055972218513489e-01" purity="4.7805958986282349e-01" nType="0">
                <Node pos="l" depth="5" NCoef="0" IVar="-1" Cut="0.0000000000000000e+00" cType="1" res="1.3349259970709682e-03" rms="4.4070720672607422e-01" purity="4.7718870639801025e-01" nType="-99"/>
                <Node pos="r" depth="5" NCoef="0" IVar="-1" Cut="0.0000000000000000e+00" cType="1" res="9.3169417232275009e-03" rms="4.5393040776252747e-01" purity="4.7908753156661987e-01" nType="-99"/>
              </Node>
              <Node pos="r" depth="4" NCoef="0" IVar="-1" Cut="0.0000000000000000e+00" cType="1" res="-4.5564509928226471e-03" rms="4.2875260114669800e-01" purity="3.8360276818275452e-01" nType="-99"/>
            </Node>
          </Node>
          <Node pos="r" depth="2" NCoef="0" IVar="-1" Cut="0.0000000000000000e+00" cType="1" res="9.3500418588519096e-03" rms="4.1426709294319153e-01" purity="4.6369087696075439e-01" nType="-99"/>
        </Node>
      </Node>
    </BinaryTree>
    <BinaryTree type="DecisionTree" boostWeight="1.0000000000000000e+00" itree="35">
      <Node pos="s" depth="0" NCoef="0" IVar="3" Cut="3.0000000000000000e+00" cType="1" res="5.0726765766739845e-03" rms="4.2075183987617493e-01" purity="5.0000000000000000e-01" nType="0">
        <Node pos="l" depth="1" NCoef="0" IVar="3" Cut="2.0000000000000000e+00" cType="1" res="2.5700058322399855e-03" rms="2.5355488061904907e-01" purity="5.1680099964141846e-01" nType="0">
          <Node pos="l" depth="2" NCoef="0" IVar="6" Cut="9.7664230346679688e+01" cType="1" res="2.9339531902223825e-03" rms="4.2291113734245300e-01" purity="5.2830606698989868e-01" nType="0">
            <Node pos="l" depth="3" NCoef="0" IVar="6" Cut="4.9221569061279297e+01" cType="1" res="-2.2631608881056309e-03" rms="4.2052429914474487e-01" purity="5.0923258066177368e-01" nType="0">
              <Node pos="l" depth="4" NCoef="0" IVar="-1" Cut="0.0000000000000000e+00" cType="1" res="1.0390521958470345e-02" rms="4.2318940162658691e-01" purity="6.2254059314727783e-01" nType="-99"/>
              <Node pos="r" depth="4" NCoef="0" IVar="5" Cut="1.1179417419433594e+02" cType="1" res="-1.4581180177628994e-02" rms="4.1863709688186646e-01" purity="4.5229029655456543e-01" nType="0">
                <Node pos="l" depth="5" NCoef="0" IVar="-1" Cut="0.0000000000000000e+00" cType="1" res="-2.6713421568274498e-02" rms="3.7944719195365906e-01" purity="3.4917268157005310e-01" nType="-99"/>
                <Node pos="r" depth="5" NCoef="0" IVar="6" Cut="7.4596534729003906e+01" cType="1" res="-2.9781863559037447e-03" rms="4.3783950805664062e-01" purity="5.0778174400329590e-01" nType="0">
                  <Node pos="l" depth="6" NCoef="0" IVar="-1" Cut="0.0000000000000000e+00" cType="1" res="-7.4611888267099857e-03" rms="4.3950730562210083e-01" purity="5.1685053110122681e-01" nType="-99"/>
                  <Node pos="r" depth="6" NCoef="0" IVar="-1" Cut="0.0000000000000000e+00" cType="1" res="4.6110744588077068e-03" rms="4.3576213717460632e-01" purity="4.9824607372283936e-01" nType="-99"/>
                </Node>
              </Node>
            </Node>
            <Node pos="r" depth="3" NCoef="0" IVar="-1" Cut="0.0000000000000000e+00" cType="1" res="8.3040026947855949e-03" rms="4.2948284745216370e-01" purity="5.8433943986892700e-01" nType="-99"/>
          </Node>
          <Node pos="r" depth="2" NCoef="0" IVar="-1" Cut="0.0000000000000000e+00" cType="1" res="9.7610037773847580e-03" rms="4.3036231398582458e-01" purity="4.7660437226295471e-01" nType="-99"/>
        </Node>
        <Node pos="r" depth="1" NCoef="0" IVar="-1" Cut="0.0000000000000000e+00" cType="1" res="-8.0276969820261002e-03" rms="4.2573401331901550e-01" purity="3.8520032167434692e-01" nType="-99"/>
      </Node>
    </BinaryTree>
    <BinaryTree type="DecisionTree" boostWeight="1.0000000000000000e+00" itree="36">
      <Node pos="s" depth="0" NCoef="0" IVar="2" Cut="1.3094892501831055e+00" cType="1" res="3.5049419384449720e-03" rms="4.2464607954025269e-01" purity="5.0000000000000000e-01" nType="0">
        <Node pos="l" depth="1" NCoef="0" IVar="7" Cut="1.2642032623291016e+02" cType="1" res="8.2506416365504265e-03" rms="4.1991385817527771e-01" purity="5.7867580652236938e-01" nType="0">
          <Node pos="l" depth="2" NCoef="0" IVar="5" Cut="1.5919714355468750e+02" cType="1" res="5.4175551049411297e-03" rms="4.2653572559356689e-01" purity="5.4700636863708496e-01" nType="0">
            <Node pos="l" depth="3" NCoef="0" IVar="6" Cut="5.7715106964111328e+01" cType="1" res="-2.4122528266161680e-03" rms="4.2021504044532776e-01" purity="4.7829625010490417e-01" nType="0">
              <Node pos="l" depth="4" NCoef="0" IVar="-1" Cut="0.0000000000000000e+00" cType="1" res="8.7641309946775436e-03" rms="4.2073321342468262e-01" purity="5.7675653696060181e-01" nType="-99"/>
              <Node pos="r" depth="4" NCoef="0" IVar="-1" Cut="0.0000000000000000e+00" cType="1" res="-1.1873601935803890e-02" rms="4.1904762387275696e-01" purity="3.9611440896987915e-01" nType="-99"/>
            </Node>
            <Node pos="r" depth="3" NCoef="0" IVar="-1" Cut="0.0000000000000000e+00" cType="1" res="9.2292418703436852e-03" rms="4.4056737422943115e-01" purity="7.0946693420410156e-01" nType="-99"/>
          </Node>
          <Node pos="r" depth="2" NCoef="0" IVar="-1" Cut="0.0000000000000000e+00" cType="1" res="8.3239870145916939e-03" rms="3.9416214823722839e-01" purity="6.9632989168167114e-01" nType="-99"/>
        </Node>
        <Node pos="r" depth="1" NCoef="0" IVar="4" Cut="1.3333333730697632e+00" cType="1" res="-4.7372193075716496e-03" rms="4.3261814117431641e-01" purity="3.6335864663124084e-01" nType="0">
          <Node pos="l" depth="2" NCoef="0" IVar="-1" Cut="0.0000000000000000e+00" cType="1" res="-7.7258056262508035e-04" rms="4.2211809754371643e-01" purity="2.9129180312156677e-01" nType="-99"/>
          <Node pos="r" depth="2" NCoef="0" IVar="-1" Cut="0.0000000000000000e+00" cType="1" res="-4.8286621458828449e-03" rms="4.4314980506896973e-01" purity="4.3766030669212341e-01" nType="-99"/>
        </Node>
      </Node>
    </BinaryTree>
    <BinaryTree type="DecisionTree" boostWeight="1.0000000000000000e+00" itree="37">
      <Node pos="s" depth="0" NCoef="0" IVar="2" Cut="1.6368615627288818e+00" cType="1" res="3.2732500694692135e-03" rms="4.2455241084098816e-01" purity="5.0000000000000000e-01" nType="0">
        <Node pos="l" depth="1" NCoef="0" IVar="4" Cut="7.1428573131561279e-01" cType="1" res="6.4393524080514908e-03" rms="4.2504164576530457e-01" purity="5.7055962085723877e-01" nType="0">
          <Node pos="l" depth="2" NCoef="0" IVar="2" Cut="6.2356537580490112e-01" cType="1" res="-1.0674381628632545e-03" rms="4.3276175856590271e-01" purity="5.0178790092468262e-01" nType="0">
            <Node pos="l" depth="3" NCoef="0" IVar="-1" Cut="0.0000000000000000e+00" cType="1" res="5.6749214418232441e-03" rms="4.2418748140335083e-01" purity="5.5190938711166382e-01" nType="-99"/>
            <Node pos="r" depth="3" NCoef="0" IVar="-1" Cut="0.0000000000000000e+00" cType="1" res="-7.2236717678606510e-03" rms="4.4044438004493713e-01" purity="4.5380505919456482e-01" nType="-99"/>
          </Node>
          <Node pos="r" depth="2" NCoef="0" IVar="0" Cut="1.3695946931838989e+00" cType="1" res="9.8411496728658676e-03" rms="4.2145261168479919e-01" purity="6.0172444581985474e-01" nType="0">
            <Node pos="l" depth="3" NCoef="0" IVar="1" Cut="1.1190654039382935e+00" cType="1" res="6.2552550807595253e-03" rms="4.2154565453529358e-01" purity="5.8780044317245483e-01" nType="0">
              <Node pos="l" depth="4" NCoef="0" IVar="1" Cut="5.3288716077804565e-01" cType="1" res="1.0200932621955872e-02" rms="4.0823820233345032e-01" purity="5.7763630151748657e-01" nType="0">
                <Node pos="l" depth="5" NCoef="0" IVar="-1" Cut="0.0000000000000000e+00" cType="1" res="6.8442397750914097e-03" rms="4.0637847781181335e-01" purity="5.7983809709548950e-01" nType="-99"/>
                <Node pos="r" depth="5" NCoef="0" IVar="-1" Cut="0.0000000000000000e+00" cType="1" res="3.4125326201319695e-03" rms="4.0999180078506470e-01" purity="5.7551705837249756e-01" nType="-99"/>
              </Node>
              <Node pos="r" depth="4" NCoef="0" IVar="-1" Cut="0.0000000000000000e+00" cType="1" res="-1.1329424887662753e-04" rms="4.4253244996070862e-01" purity="6.0455501079559326e-01" nType="-99"/>
            </Node>
            <Node pos="r" depth="3" NCoef="0" IVar="-1" Cut="0.0000000000000000e+00" cType="1" res="8.6849499493837357e-03" rms="4.2106649279594421e-01" purity="6.3801264762878418e-01" nType="-99"/>
          </Node>
        </Node>
        <Node pos="r" depth="1" NCoef="0" IVar="2" Cut="2.3851418495178223e+00" cType="1" res="-5.6726364418864250e-03" rms="4.2303898930549622e-01" purity="3.0063235759735107e-01" nType="0">
          <Node pos="l" depth="2" NCoef="0" IVar="-1" Cut="0.0000000000000000e+00" cType="1" res="-5.8402279391884804e-03" rms="4.6258619427680969e-01" purity="4.0862524509429932e-01" nType="-99"/>
          <Node pos="r" depth="2" NCoef="0" IVar="-1" Cut="0.0000000000000000e+00" cType="1" res="8.0634036567062140e-04" rms="3.6762082576751709e-01" purity="1.6573679447174072e-01" nType="-99"/>
        </Node>
      </Node>
    </BinaryTree>
    <BinaryTree type="DecisionTree" boostWeight="1.0000000000000000e+00" itree="38">
      <Node pos="s" depth="0" NCoef="0" IVar="3" Cut="3.0000000000000000e+00" cType="1" res="4.0017259307205677e-03" rms="4.2044118046760559e-01" purity="5.0000000000000000e-01" nType="0">
        <Node pos="l" depth="1" NCoef="0" IVar="4" Cut="7.1428573131561279e-01" cType="1" res="4.7691655345261097e-03" rms="4.2428377270698547e-01" purity="5.1680099964141846e-01" nType="0">
          <Node pos="l" depth="2" NCoef="0" IVar="7" Cut="7.3908180236816406e+01" cType="1" res="-3.0541063752025366e-03" rms="4.2345964908599854e-01" purity="4.3706303834915161e-01" nType="0">
            <Node pos="l" depth="3" NCoef="0" IVar="-1" Cut="0.0000000000000000e+00" cType="1" res="5.1149767823517323e-03" rms="4.2810863256454468e-01" purity="4.7886776924133301e-01" nType="-99"/>
            <Node pos="r" depth="3" NCoef="0" IVar="-1" Cut="0.0000000000000000e+00" cType="1" res="-9.2252437025308609e-03" rms="4.1856771707534790e-01" purity="3.9678400754928589e-01" nType="-99"/>
          </Node>
          <Node pos="r" depth="2" NCoef="0" IVar="5" Cut="1.5381935119628906e+02" cType="1" res="7.9806409776210785e-03" rms="4.2457988858222961e-01" purity="5.4953360557556152e-01" nType="0">
            <Node pos="l" depth="3" NCoef="0" IVar="5" Cut="1.0025415039062500e+02" cType="1" res="1.3597889803349972e-02" rms="4.2216742038726807e-01" purity="5.6616288423538208e-01" nType="0">
              <Node pos="l" depth="4" NCoef="0" IVar="-1" Cut="0.0000000000000000e+00" cType="1" res="-3.2700868323445320e-03" rms="4.1807100176811218e-01" purity="4.3981248140335083e-01" nType="-99"/>
              <Node pos="r" depth="4" NCoef="0" IVar="-1" Cut="0.0000000000000000e+00" cType="1" res="1.2447341345250607e-02" rms="4.2473405599594116e-01" purity="6.6464978456497192e-01" nType="-99"/>
            </Node>
            <Node pos="r" depth="3" NCoef="0" IVar="-1" Cut="0.0000000000000000e+00" cType="1" res="-3.9281169883906841e-03" rms="4.3060758709907532e-01" purity="5.0504451990127563e-01" nType="-99"/>
          </Node>
        </Node>
        <Node pos="r" depth="1" NCoef="0" IVar="-1" Cut="0.0000000000000000e+00" cType="1" res="-6.7330240271985531e-03" rms="4.2573156952857971e-01" purity="3.8520032167434692e-01" nType="-99"/>
      </Node>
    </BinaryTree>
    <BinaryTree type="DecisionTree" boostWeight="1.0000000000000000e+00" itree="39">
      <Node pos="s" depth="0" NCoef="0" IVar="2" Cut="3.2737231254577637e-01" cType="1" res="2.6261268649250269e-03" rms="4.2440888285636902e-01" purity="5.0000000000000000e-01" nType="0">
        <Node pos="l" depth="1" NCoef="0" IVar="-1" Cut="0.0000000000000000e+00" cType="1" res="5.9140147641301155e-03" rms="4.0879672765731812e-01" purity="6.0448759794235229e-01" nType="-99"/>
        <Node pos="r" depth="1" NCoef="0" IVar="2" Cut="2.5098550319671631e+00" cType="1" res="5.7976809330284595e-04" rms="4.2763164639472961e-01" purity="4.7775182127952576e-01" nType="0">
          <Node pos="l" depth="2" NCoef="0" IVar="3" Cut="1.0000000000000000e+00" cType="1" res="2.8035128489136696e-03" rms="4.3265041708946228e-01" purity="5.2372926473617554e-01" nType="0">
            <Node pos="l" depth="3" NCoef="0" IVar="6" Cut="7.0069252014160156e+01" cType="1" res="-4.2732474394142628e-03" rms="4.2805588245391846e-01" purity="5.3561872243881226e-01" nType="0">
              <Node pos="l" depth="4" NCoef="0" IVar="-1" Cut="0.0000000000000000e+00" cType="1" res="2.1264955867081881e-03" rms="4.2938786745071411e-01" purity="5.9824097156524658e-01" nType="-99"/>
              <Node pos="r" depth="4" NCoef="0" IVar="-1" Cut="0.0000000000000000e+00" cType="1" res="-7.9046068713068962e-03" rms="4.2632234096527100e-01" purity="4.6461191773414612e-01" nType="-99"/>
            </Node>
            <Node pos="r" depth="3" NCoef="0" IVar="4" Cut="6.6666668653488159e-01" cType="1" res="6.6729369573295116e-03" rms="4.4226965308189392e-01" purity="5.1636457443237305e-01" nType="0">
              <Node pos="l" depth="4" NCoef="0" IVar="-1" Cut="0.0000000000000000e+00" cType="1" res="7.1145202964544296e-03" rms="4.4333067536354065e-01" purity="5.1874220371246338e-01" nType="-99"/>
              <Node pos="r" depth="4" NCoef="0" IVar="3" Cut="2.0000000000000000e+00" cType="1" res="9.6742546884343028e-04" rms="4.2594808340072632e-01" purity="5.1517719030380249e-01" nType="0">
                <Node pos="l" depth="5" NCoef="0" IVar="-1" Cut="0.0000000000000000e+00" cType="1" res="-2.0803862717002630e-03" rms="4.3192517757415771e-01" purity="5.3271752595901489e-01" nType="-99"/>
                <Node pos="r" depth="5" NCoef="0" IVar="-1" Cut="0.0000000000000000e+00" cType="1" res="5.4269852116703987e-03" rms="4.5314192771911621e-01" purity="4.9382555484771729e-01" nType="-99"/>
              </Node>
            </Node>
          </Node>
          <Node pos="r" depth="2" NCoef="0" IVar="-1" Cut="0.0000000000000000e+00" cType="1" res="-2.4497075006365776e-02" rms="3.5408216714859009e-01" purity="1.4976938068866730e-01" nType="-99"/>
        </Node>
      </Node>
    </BinaryTree>
    <BinaryTree type="DecisionTree" boostWeight="1.0000000000000000e+00" itree="40">
      <Node pos="s" depth="0" NCoef="0" IVar="0" Cut="2.3188085556030273e+00" cType="1" res="2.5849505327641964e-03" rms="4.2434135079383850e-01" purity="5.0000000000000000e-01" nType="0">
        <Node pos="l" depth="1" NCoef="0" IVar="0" Cut="1.5458661317825317e+00" cType="1" res="9.7499514231458306e-04" rms="4.2575922608375549e-01" purity="5.0221854448318481e-01" nType="0">
          <Node pos="l" depth="2" NCoef="0" IVar="5" Cut="2.2955096435546875e+02" cType="1" res="4.1923625394701958e-03" rms="4.2702808976173401e-01" purity="5.1974380016326904e-01" nType="0">
            <Node pos="l" depth="3" NCoef="0" IVar="5" Cut="1.6759759521484375e+02" cType="1" res="9.6083653625100851e-04" rms="4.2780563235282898e-01" purity="5.0079816579818726e-01" nType="0">
              <Node pos="l" depth="4" NCoef="0" IVar="4" Cut="1.4285714626312256e+00" cType="1" res="-3.9856866933405399e-03" rms="4.2120423913002014e-01" purity="4.8465463519096375e-01" nType="0">
                <Node pos="l" depth="5" NCoef="0" IVar="5" Cut="1.0949045562744141e+02" cType="1" res="-2.0922802388668060e-02" rms="4.0790712833404541e-01" purity="3.4033754467964172e-01" nType="0">
                  <Node pos="l" depth="6" NCoef="0" IVar="-1" Cut="0.0000000000000000e+00" cType="1" res="-3.9427302777767181e-02" rms="3.4716507792472839e-01" purity="2.0580431818962097e-01" nType="-99"/>
                  <Node pos="r" depth="6" NCoef="0" IVar="-1" Cut="0.0000000000000000e+00" cType="1" res="-5.2685234695672989e-03" rms="4.4890373945236206e-01" purity="4.4420334696769714e-01" nType="-99"/>
                </Node>
                <Node pos="r" depth="5" NCoef="0" IVar="-1" Cut="0.0000000000000000e+00" cType="1" res="6.3442764803767204e-03" rms="4.3409281969070435e-01" purity="6.3711345195770264e-01" nType="-99"/>
              </Node>
              <Node pos="r" depth="4" NCoef="0" IVar="-1" Cut="0.0000000000000000e+00" cType="1" res="8.6894761770963669e-03" rms="4.5059815049171448e-01" purity="5.5966007709503174e-01" nType="-99"/>
            </Node>
            <Node pos="r" depth="3" NCoef="0" IVar="-1" Cut="0.0000000000000000e+00" cType="1" res="9.1994861140847206e-03" rms="4.2293947935104370e-01" purity="6.1053538322448730e-01" nType="-99"/>
          </Node>
          <Node pos="r" depth="2" NCoef="0" IVar="-1" Cut="0.0000000000000000e+00" cType="1" res="-6.9836289621889591e-03" rms="4.2057183384895325e-01" purity="4.3428286910057068e-01" nType="-99"/>
        </Node>
        <Node pos="r" depth="1" NCoef="0" IVar="-1" Cut="0.0000000000000000e+00" cType="1" res="8.8369715958833694e-03" rms="4.1279643774032593e-01" purity="4.8254388570785522e-01" nType="-99"/>
      </Node>
    </BinaryTree>
    <BinaryTree type="DecisionTree" boostWeight="1.0000000000000000e+00" itree="41">
      <Node pos="s" depth="0" NCoef="0" IVar="3" Cut="3.0000000000000000e+00" cType="1" res="3.9032001513987780e-03" rms="4.2015764117240906e-01" purity="5.0000000000000000e-01" nType="0">
        <Node pos="l" depth="1" NCoef="0" IVar="2" Cut="9.8189669847488403e-01" cType="1" res="4.5130378566682339e-03" rms="4.2397505044937134e-01" purity="5.1680099964141846e-01" nType="0">
          <Node pos="l" depth="2" NCoef="0" IVar="3" Cut="1.0000000000000000e+00" cType="1" res="3.6706214305013418e-03" rms="2.3378178477287292e-01" purity="5.9348225593566895e-01" nType="0">
            <Node pos="l" depth="3" NCoef="0" IVar="-1" Cut="0.0000000000000000e+00" cType="1" res="1.4535095542669296e-03" rms="4.1729357838630676e-01" purity="6.2331110239028931e-01" nType="-99"/>
            <Node pos="r" depth="3" NCoef="0" IVar="7" Cut="8.5285133361816406e+01" cType="1" res="1.4148117043077946e-02" rms="4.0695431828498840e-01" purity="5.7103866338729858e-01" nType="0">
              <Node pos="l" depth="4" NCoef="0" IVar="-1" Cut="0.0000000000000000e+00" cType="1" res="1.0128225199878216e-02" rms="4.2938202619552612e-01" purity="6.1380827426910400e-01" nType="-99"/>
              <Node pos="r" depth="4" NCoef="0" IVar="-1" Cut="0.0000000000000000e+00" cType="1" res="2.2208921145647764e-03" rms="3.7661716341972351e-01" purity="5.1725840568542480e-01" nType="-99"/>
            </Node>
          </Node>
          <Node pos="r" depth="2" NCoef="0" IVar="4" Cut="5.2380955219268799e-01" cType="1" res="-8.0086360685527325e-04" rms="4.3717026710510254e-01" purity="4.3305325508117676e-01" nType="0">
            <Node pos="l" depth="3" NCoef="0" IVar="-1" Cut="0.0000000000000000e+00" cType="1" res="-1.0753399692475796e-02" rms="4.1740888357162476e-01" purity="3.1869107484817505e-01" nType="-99"/>
            <Node pos="r" depth="3" NCoef="0" IVar="7" Cut="7.5651176452636719e+01" cType="1" res="3.9867609739303589e-03" rms="4.4367739558219910e-01" purity="4.7247409820556641e-01" nType="0">
              <Node pos="l" depth="4" NCoef="0" IVar="-1" Cut="0.0000000000000000e+00" cType="1" res="-4.7876886092126369e-03" rms="4.5357432961463928e-01" purity="4.2297431826591492e-01" nType="-99"/>
              <Node pos="r" depth="4" NCoef="0" IVar="-1" Cut="0.0000000000000000e+00" cType="1" res="7.8251156955957413e-03" rms="4.3402838706970215e-01" purity="5.1818400621414185e-01" nType="-99"/>
            </Node>
          </Node>
        </Node>
        <Node pos="r" depth="1" NCoef="0" IVar="-1" Cut="0.0000000000000000e+00" cType="1" res="-5.8829826302826405e-03" rms="4.2563149333000183e-01" purity="3.8520032167434692e-01" nType="-99"/>
      </Node>
    </BinaryTree>
    <BinaryTree type="DecisionTree" boostWeight="1.0000000000000000e+00" itree="42">
      <Node pos="s" depth="0" NCoef="0" IVar="3" Cut="3.0000000000000000e+00" cType="1" res="3.6285331007093191e-03" rms="4.2009121179580688e-01" purity="5.0000000000000000e-01" nType="0">
        <Node pos="l" depth="1" NCoef="0" IVar="3" Cut="1.0000000000000000e+00" cType="1" res="1.6976611223071814e-03" rms="2.5308001041412354e-01" purity="5.1680099964141846e-01" nType="0">
          <Node pos="l" depth="2" NCoef="0" IVar="4" Cut="1.4285714626312256e+00" cType="1" res="-1.7333353171125054e-03" rms="4.2301264405250549e-01" purity="5.4398608207702637e-01" nType="0">
            <Node pos="l" depth="3" NCoef="0" IVar="-1" Cut="0.0000000000000000e+00" cType="1" res="-4.8508150503039360e-03" rms="4.2936480045318604e-01" purity="4.2313161492347717e-01" nType="-99"/>
            <Node pos="r" depth="3" NCoef="0" IVar="-1" Cut="0.0000000000000000e+00" cType="1" res="3.1726430170238018e-03" rms="4.1432219743728638e-01" purity="7.0339965820312500e-01" nType="-99"/>
          </Node>
          <Node pos="r" depth="2" NCoef="0" IVar="5" Cut="2.3002169799804688e+02" cType="1" res="7.7983825467526913e-03" rms="4.2447343468666077e-01" purity="4.9798288941383362e-01" nType="0">
            <Node pos="l" depth="3" NCoef="0" IVar="5" Cut="8.5481422424316406e+01" cType="1" res="4.0187309496104717e-03" rms="4.2804855108261108e-01" purity="4.8350894451141357e-01" nType="0">
              <Node pos="l" depth="4" NCoef="0" IVar="-1" Cut="0.0000000000000000e+00" cType="1" res="-7.4532036669552326e-03" rms="3.8885268568992615e-01" purity="2.8899884223937988e-01" nType="-99"/>
              <Node pos="r" depth="4" NCoef="0" IVar="6" Cut="7.5543312072753906e+01" cType="1" res="9.4121312722563744e-03" rms="4.4268205761909485e-01" purity="5.6153035163879395e-01" nType="0">
                <Node pos="l" depth="5" NCoef="0" IVar="-1" Cut="0.0000000000000000e+00" cType="1" res="-2.4840368423610926e-03" rms="4.3636596202850342e-01" purity="5.5931913852691650e-01" nType="-99"/>
                <Node pos="r" depth="5" NCoef="0" IVar="-1" Cut="0.0000000000000000e+00" cType="1" res="1.0933266952633858e-02" rms="4.4866526126861572e-01" purity="5.6382662057876587e-01" nType="-99"/>
              </Node>
            </Node>
            <Node pos="r" depth="3" NCoef="0" IVar="-1" Cut="0.0000000000000000e+00" cType="1" res="1.0643910616636276e-02" rms="4.1245019435882568e-01" purity="5.4483819007873535e-01" nType="-99"/>
          </Node>
        </Node>
        <Node pos="r" depth="1" NCoef="0" IVar="-1" Cut="0.0000000000000000e+00" cType="1" res="-4.4651557691395283e-03" rms="4.2563563585281372e-01" purity="3.8520032167434692e-01" nType="-99"/>
      </Node>
    </BinaryTree>
    <BinaryTree type="DecisionTree" boostWeight="1.0000000000000000e+00" itree="43">
      <Node pos="s" depth="0" NCoef="0" IVar="2" Cut="1.3094892501831055e+00" cType="1" res="2.2827065549790859e-03" rms="4.2407721281051636e-01" purity="5.0000000000000000e-01" nType="0">
        <Node pos="l" depth="1" NCoef="0" IVar="7" Cut="1.2642032623291016e+02" cType="1" res="5.1043913699686527e-03" rms="4.1928112506866455e-01" purity="5.7867580652236938e-01" nType="0">
          <Node pos="l" depth="2" NCoef="0" IVar="3" Cut="1.0000000000000000e+00" cType="1" res="2.7373374905437231e-04" rms="4.1912254691123962e-01" purity="5.4700636863708496e-01" nType="0">
            <Node pos="l" depth="3" NCoef="0" IVar="-1" Cut="0.0000000000000000e+00" cType="1" res="-4.5065023005008698e-03" rms="4.3310025334358215e-01" purity="5.5489706993103027e-01" nType="-99"/>
            <Node pos="r" depth="3" NCoef="0" IVar="7" Cut="6.6263320922851562e+01" cType="1" res="9.1936560347676277e-03" rms="4.2157822847366333e-01" purity="5.4242354631423950e-01" nType="0">
              <Node pos="l" depth="4" NCoef="0" IVar="-1" Cut="0.0000000000000000e+00" cType="1" res="7.2135902009904385e-03" rms="4.4684872031211853e-01" purity="6.1696946620941162e-01" nType="-99"/>
              <Node pos="r" depth="4" NCoef="0" IVar="-1" Cut="0.0000000000000000e+00" cType="1" res="1.7456122441217303e-03" rms="3.9846500754356384e-01" purity="4.7831603884696960e-01" nType="-99"/>
            </Node>
          </Node>
          <Node pos="r" depth="2" NCoef="0" IVar="-1" Cut="0.0000000000000000e+00" cType="1" res="6.7064180038869381e-03" rms="3.9341187477111816e-01" purity="6.9632989168167114e-01" nType="-99"/>
        </Node>
        <Node pos="r" depth="1" NCoef="0" IVar="2" Cut="2.3695521354675293e+00" cType="1" res="-2.6178944390267134e-03" rms="4.3223667144775391e-01" purity="3.6335864663124084e-01" nType="0">
          <Node pos="l" depth="2" NCoef="0" IVar="2" Cut="1.7638016939163208e+00" cType="1" res="-6.9965207949280739e-03" rms="4.5943167805671692e-01" purity="4.5677280426025391e-01" nType="0">
            <Node pos="l" depth="3" NCoef="0" IVar="-1" Cut="0.0000000000000000e+00" cType="1" res="7.9250283306464553e-04" rms="4.5723444223403931e-01" purity="5.1029622554779053e-01" nType="-99"/>
            <Node pos="r" depth="3" NCoef="0" IVar="-1" Cut="0.0000000000000000e+00" cType="1" res="-1.0213687084615231e-02" rms="4.6192508935928345e-01" purity="3.9014822244644165e-01" nType="-99"/>
          </Node>
          <Node pos="r" depth="2" NCoef="0" IVar="-1" Cut="0.0000000000000000e+00" cType="1" res="1.1293835006654263e-02" rms="3.6883631348609924e-01" purity="1.6818377375602722e-01" nType="-99"/>
        </Node>
      </Node>
    </BinaryTree>
    <BinaryTree type="DecisionTree" boostWeight="1.0000000000000000e+00" itree="44">
      <Node pos="s" depth="0" NCoef="0" IVar="2" Cut="3.2737231254577637e-01" cType="1" res="1.8435720121487975e-03" rms="4.2401975393295288e-01" purity="5.0000000000000000e-01" nType="0">
        <Node pos="l" depth="1" NCoef="0" IVar="-1" Cut="0.0000000000000000e+00" cType="1" res="4.5646261423826218e-03" rms="4.0831562876701355e-01" purity="6.0448759794235229e-01" nType="-99"/>
        <Node pos="r" depth="1" NCoef="0" IVar="0" Cut="2.3188085556030273e+00" cType="1" res="2.5391747476533055e-04" rms="4.2727220058441162e-01" purity="4.7775182127952576e-01" nType="0">
          <Node pos="l" depth="2" NCoef="0" IVar="1" Cut="1.4920861721038818e+00" cType="1" res="-1.5497021377086639e-03" rms="4.2949801683425903e-01" purity="4.7764030098915100e-01" nType="0">
            <Node pos="l" depth="3" NCoef="0" IVar="4" Cut="1.2380952835083008e+00" cType="1" res="3.5865146201103926e-03" rms="4.2171064019203186e-01" purity="4.7322005033493042e-01" nType="0">
              <Node pos="l" depth="4" NCoef="0" IVar="2" Cut="1.1770459413528442e+00" cType="1" res="-5.3958562202751637e-03" rms="4.1078656911849976e-01" purity="3.8227328658103943e-01" nType="0">
                <Node pos="l" depth="5" NCoef="0" IVar="-1" Cut="0.0000000000000000e+00" cType="1" res="1.1124493321403861e-03" rms="4.0737837553024292e-01" purity="4.5944884419441223e-01" nType="-99"/>
                <Node pos="r" depth="5" NCoef="0" IVar="-1" Cut="0.0000000000000000e+00" cType="1" res="-1.1792830191552639e-02" rms="4.1476646065711975e-01" purity="2.8717565536499023e-01" nType="-99"/>
              </Node>
              <Node pos="r" depth="4" NCoef="0" IVar="-1" Cut="0.0000000000000000e+00" cType="1" res="7.9429177567362785e-03" rms="4.3701317906379700e-01" purity="6.0758578777313232e-01" nType="-99"/>
            </Node>
            <Node pos="r" depth="3" NCoef="0" IVar="5" Cut="1.7243095397949219e+02" cType="1" res="-9.7513170912861824e-03" rms="4.4152459502220154e-01" purity="4.8469865322113037e-01" nType="0">
              <Node pos="l" depth="4" NCoef="0" IVar="-1" Cut="0.0000000000000000e+00" cType="1" res="-1.5564086847007275e-02" rms="4.4113224744796753e-01" purity="4.5413905382156372e-01" nType="-99"/>
              <Node pos="r" depth="4" NCoef="0" IVar="-1" Cut="0.0000000000000000e+00" cType="1" res="5.4590874351561069e-03" rms="4.4107249379158020e-01" purity="5.1926273107528687e-01" nType="-99"/>
            </Node>
          </Node>
          <Node pos="r" depth="2" NCoef="0" IVar="-1" Cut="0.0000000000000000e+00" cType="1" res="6.9865686818957329e-03" rms="4.1234943270683289e-01" purity="4.7847527265548706e-01" nType="-99"/>
        </Node>
      </Node>
    </BinaryTree>
    <BinaryTree type="DecisionTree" boostWeight="1.0000000000000000e+00" itree="45">
      <Node pos="s" depth="0" NCoef="0" IVar="3" Cut="3.0000000000000000e+00" cType="1" res="2.9999585822224617e-03" rms="4.1985583305358887e-01" purity="5.0000000000000000e-01" nType="0">
        <Node pos="l" depth="1" NCoef="0" IVar="4" Cut="7.1428573131561279e-01" cType="1" res="3.1702900305390358e-03" rms="4.2363500595092773e-01" purity="5.1680099964141846e-01" nType="0">
          <Node pos="l" depth="2" NCoef="0" IVar="2" Cut="8.4027081727981567e-01" cType="1" res="-4.3303384445607662e-03" rms="4.2222595214843750e-01" purity="4.3706303834915161e-01" nType="0">
            <Node pos="l" depth="3" NCoef="0" IVar="-1" Cut="0.0000000000000000e+00" cType="1" res="1.7083564307540655e-03" rms="4.2447498440742493e-01" purity="5.3056800365447998e-01" nType="-99"/>
            <Node pos="r" depth="3" NCoef="0" IVar="-1" Cut="0.0000000000000000e+00" cType="1" res="-8.7847299873828888e-03" rms="4.1969397664070129e-01" purity="3.3882600069046021e-01" nType="-99"/>
          </Node>
          <Node pos="r" depth="2" NCoef="0" IVar="5" Cut="1.5381935119628906e+02" cType="1" res="6.2493192963302135e-03" rms="4.2417365312576294e-01" purity="5.4953360557556152e-01" nType="0">
            <Node pos="l" depth="3" NCoef="0" IVar="5" Cut="9.3558631896972656e+01" cType="1" res="1.1923498474061489e-02" rms="4.2160493135452271e-01" purity="5.6616288423538208e-01" nType="0">
              <Node pos="l" depth="4" NCoef="0" IVar="-1" Cut="0.0000000000000000e+00" cType="1" res="-5.0293477252125740e-03" rms="4.1329294443130493e-01" purity="3.8705977797508240e-01" nType="-99"/>
              <Node pos="r" depth="4" NCoef="0" IVar="5" Cut="1.1938448333740234e+02" cType="1" res="2.2650999948382378e-02" rms="4.2566040158271790e-01" purity="6.6329026222229004e-01" nType="0">
                <Node pos="l" depth="5" NCoef="0" IVar="-1" Cut="0.0000000000000000e+00" cType="1" res="1.7731485888361931e-02" rms="4.1604062914848328e-01" purity="7.0090258121490479e-01" nType="-99"/>
                <Node pos="r" depth="5" NCoef="0" IVar="-1" Cut="0.0000000000000000e+00" cType="1" res="-3.4452893305569887e-04" rms="4.3648365139961243e-01" purity="6.1540561914443970e-01" nType="-99"/>
              </Node>
            </Node>
            <Node pos="r" depth="3" NCoef="0" IVar="-1" Cut="0.0000000000000000e+00" cType="1" res="-5.0323512405157089e-03" rms="4.3060320615768433e-01" purity="5.0504451990127563e-01" nType="-99"/>
          </Node>
        </Node>
        <Node pos="r" depth="1" NCoef="0" IVar="-1" Cut="0.0000000000000000e+00" cType="1" res="-4.9121310003101826e-03" rms="4.2567893862724304e-01" purity="3.8520032167434692e-01" nType="-99"/>
      </Node>
    </BinaryTree>
    <BinaryTree type="DecisionTree" boostWeight="1.0000000000000000e+00" itree="46">
      <Node pos="s" depth="0" NCoef="0" IVar="4" Cut="1.4285714626312256e+00" cType="1" res="1.8756755162030458e-03" rms="4.2379876971244812e-01" purity="5.0000000000000000e-01" nType="0">
        <Node pos="l" depth="1" NCoef="0" IVar="5" Cut="2.3178877258300781e+02" cType="1" res="4.9008419737219810e-03" rms="4.1881045699119568e-01" purity="4.4327625632286072e-01" nType="0">
          <Node pos="l" depth="2" NCoef="0" IVar="5" Cut="1.6986843872070312e+02" cType="1" res="-1.9952415022999048e-03" rms="4.2033588886260986e-01" purity="4.0434482693672180e-01" nType="0">
            <Node pos="l" depth="3" NCoef="0" IVar="4" Cut="4.7619048506021500e-02" cType="1" res="-1.2881455942988396e-02" rms="4.0859487652778625e-01" purity="3.4588462114334106e-01" nType="0">
              <Node pos="l" depth="4" NCoef="0" IVar="-1" Cut="0.0000000000000000e+00" cType="1" res="-3.2045528292655945e-02" rms="4.0274283289909363e-01" purity="2.5660434365272522e-01" nType="-99"/>
              <Node pos="r" depth="4" NCoef="0" IVar="-1" Cut="0.0000000000000000e+00" cType="1" res="1.1221223976463079e-03" rms="4.1134560108184814e-01" purity="3.9916819334030151e-01" nType="-99"/>
            </Node>
            <Node pos="r" depth="3" NCoef="0" IVar="-1" Cut="0.0000000000000000e+00" cType="1" res="1.0882185772061348e-02" rms="4.4544947147369385e-01" purity="5.4046559333801270e-01" nType="-99"/>
          </Node>
          <Node pos="r" depth="2" NCoef="0" IVar="-1" Cut="0.0000000000000000e+00" cType="1" res="1.2735194526612759e-02" rms="4.1378152370452881e-01" purity="5.5464625358581543e-01" nType="-99"/>
        </Node>
        <Node pos="r" depth="1" NCoef="0" IVar="5" Cut="1.4288714599609375e+02" cType="1" res="-2.2119230125099421e-03" rms="4.3041342496871948e-01" purity="5.7664501667022705e-01" nType="0">
          <Node pos="l" depth="2" NCoef="0" IVar="1" Cut="1.1810239553451538e+00" cType="1" res="1.8689269199967384e-02" rms="4.2917951941490173e-01" purity="6.4934921264648438e-01" nType="0">
            <Node pos="l" depth="3" NCoef="0" IVar="-1" Cut="0.0000000000000000e+00" cType="1" res="1.2981849722564220e-02" rms="4.2084991931915283e-01" purity="6.5870547294616699e-01" nType="-99"/>
            <Node pos="r" depth="3" NCoef="0" IVar="-1" Cut="0.0000000000000000e+00" cType="1" res="4.9690091982483864e-03" rms="4.3554010987281799e-01" purity="6.4190602302551270e-01" nType="-99"/>
          </Node>
          <Node pos="r" depth="2" NCoef="0" IVar="-1" Cut="0.0000000000000000e+00" cType="1" res="-3.8865078240633011e-02" rms="4.2904868721961975e-01" purity="3.9478981494903564e-01" nType="-99"/>
        </Node>
      </Node>
    </BinaryTree>
    <BinaryTree type="DecisionTree" boostWeight="1.0000000000000000e+00" itree="47">
      <Node pos="s" depth="0" NCoef="0" IVar="0" Cut="2.3188085556030273e+00" cType="1" res="2.5312099605798721e-03" rms="4.2339819669723511e-01" purity="5.0000000000000000e-01" nType="0">
        <Node pos="l" depth="1" NCoef="0" IVar="1" Cut="2.2381279468536377e+00" cType="1" res="1.2853152584284544e-03" rms="4.2488086223602295e-01" purity="5.0221854448318481e-01" nType="0">
          <Node pos="l" depth="2" NCoef="0" IVar="4" Cut="2.1428570747375488e+00" cType="1" res="3.3734967000782490e-03" rms="4.2063757777214050e-01" purity="4.9431180953979492e-01" nType="0">
            <Node pos="l" depth="3" NCoef="0" IVar="5" Cut="2.2955096435546875e+02" cType="1" res="8.5733446758240461e-04" rms="4.1894614696502686e-01" purity="4.6503022313117981e-01" nType="0">
              <Node pos="l" depth="4" NCoef="0" IVar="5" Cut="9.5320877075195312e+01" cType="1" res="-1.3355100527405739e-03" rms="4.2086303234100342e-01" purity="4.5028036832809448e-01" nType="0">
                <Node pos="l" depth="5" NCoef="0" IVar="-1" Cut="0.0000000000000000e+00" cType="1" res="-2.2656641900539398e-02" rms="3.6911281943321228e-01" purity="2.5870156288146973e-01" nType="-99"/>
                <Node pos="r" depth="5" NCoef="0" IVar="2" Cut="8.1471973657608032e-01" cType="1" res="7.0984866470098495e-03" rms="4.3784004449844360e-01" purity="5.1984822750091553e-01" nType="0">
                  <Node pos="l" depth="6" NCoef="0" IVar="-1" Cut="0.0000000000000000e+00" cType="1" res="8.7475934997200966e-03" rms="4.3244653940200806e-01" purity="6.4667403697967529e-01" nType="-99"/>
                  <Node pos="r" depth="6" NCoef="0" IVar="2" Cut="1.4742466211318970e+00" cType="1" res="-3.3412287011742592e-03" rms="4.4190481305122375e-01" purity="4.1666480898857117e-01" nType="0">
                    <Node pos="l" depth="7" NCoef="0" IVar="-1" Cut="0.0000000000000000e+00" cType="1" res="1.2533037806861103e-04" rms="4.5537793636322021e-01" purity="5.2425920963287354e-01" nType="-99"/>
                    <Node pos="r" depth="7" NCoef="0" IVar="-1" Cut="0.0000000000000000e+00" cType="1" res="-5.6298063136637211e-03" rms="4.2715141177177429e-01" purity="3.0280426144599915e-01" nType="-99"/>
                  </Node>
                </Node>
              </Node>
              <Node pos="r" depth="4" NCoef="0" IVar="-1" Cut="0.0000000000000000e+00" cType="1" res="5.5167572572827339e-03" rms="4.1053083539009094e-01" purity="5.2799493074417114e-01" nType="-99"/>
            </Node>
            <Node pos="r" depth="3" NCoef="0" IVar="-1" Cut="0.0000000000000000e+00" cType="1" res="7.3792529292404652e-03" rms="4.2863541841506958e-01" purity="6.3815653324127197e-01" nType="-99"/>
          </Node>
          <Node pos="r" depth="2" NCoef="0" IVar="-1" Cut="0.0000000000000000e+00" cType="1" res="-5.2754026837646961e-03" rms="4.4835644960403442e-01" purity="5.4777008295059204e-01" nType="-99"/>
        </Node>
        <Node pos="r" depth="1" NCoef="0" IVar="-1" Cut="0.0000000000000000e+00" cType="1" res="7.2663119062781334e-03" rms="4.1141414642333984e-01" purity="4.8254388570785522e-01" nType="-99"/>
      </Node>
    </BinaryTree>
    <BinaryTree type="DecisionTree" boostWeight="1.0000000000000000e+00" itree="48">
      <Node pos="s" depth="0" NCoef="0" IVar="1" Cut="2.7312343120574951e+00" cType="1" res="2.5125606916844845e-03" rms="4.2331165075302124e-01" purity="5.0000000000000000e-01" nType="0">
        <Node pos="l" depth="1" NCoef="0" IVar="4" Cut="7.1428573131561279e-01" cType="1" res="3.6371517926454544e-03" rms="4.2154532670974731e-01" purity="4.9702125787734985e-01" nType="0">
          <Node pos="l" depth="2" NCoef="0" IVar="6" Cut="1.1854922485351562e+02" cType="1" res="-2.8756922110915184e-03" rms="4.1990777850151062e-01" purity="4.2506828904151917e-01" nType="0">
            <Node pos="l" depth="3" NCoef="0" IVar="-1" Cut="0.0000000000000000e+00" cType="1" res="4.0631671436131001e-03" rms="3.9950284361839294e-01" purity="3.0653893947601318e-01" nType="-99"/>
            <Node pos="r" depth="3" NCoef="0" IVar="-1" Cut="0.0000000000000000e+00" cType="1" res="-6.3052559271454811e-03" rms="4.4552558660507202e-01" purity="5.8372950553894043e-01" nType="-99"/>
          </Node>
          <Node pos="r" depth="2" NCoef="0" IVar="3" Cut="1.0000000000000000e+00" cType="1" res="6.4145936630666256e-03" rms="4.2097732424736023e-01" purity="5.2667188644409180e-01" nType="0">
            <Node pos="l" depth="3" NCoef="0" IVar="-1" Cut="0.0000000000000000e+00" cType="1" res="6.0934666544198990e-03" rms="4.2007768154144287e-01" purity="6.2717109918594360e-01" nType="-99"/>
            <Node pos="r" depth="3" NCoef="0" IVar="3" Cut="2.0000000000000000e+00" cType="1" res="2.2667357698082924e-03" rms="4.2030319571495056e-01" purity="4.6192285418510437e-01" nType="0">
              <Node pos="l" depth="4" NCoef="0" IVar="-1" Cut="0.0000000000000000e+00" cType="1" res="-1.8134354613721371e-03" rms="4.1523545980453491e-01" purity="5.0285911560058594e-01" nType="-99"/>
              <Node pos="r" depth="4" NCoef="0" IVar="-1" Cut="0.0000000000000000e+00" cType="1" res="4.7260895371437073e-03" rms="4.3180200457572937e-01" purity="4.1953539848327637e-01" nType="-99"/>
            </Node>
          </Node>
        </Node>
        <Node pos="r" depth="1" NCoef="0" IVar="-1" Cut="0.0000000000000000e+00" cType="1" res="-3.4573066513985395e-03" rms="4.3726265430450439e-01" purity="5.2415120601654053e-01" nType="-99"/>
      </Node>
    </BinaryTree>
    <BinaryTree type="DecisionTree" boostWeight="1.0000000000000000e+00" itree="49">
      <Node pos="s" depth="0" NCoef="0" IVar="4" Cut="1.4285714626312256e+00" cType="1" res="1.9705118611454964e-03" rms="4.2327243089675903e-01" purity="5.0000000000000000e-01" nType="0">
        <Node pos="l" depth="1" NCoef="0" IVar="5" Cut="2.3178877258300781e+02" cType="1" res="4.6554827131330967e-03" rms="4.1831654310226440e-01" purity="4.4327625632286072e-01" nType="0">
          <Node pos="l" depth="2" NCoef="0" IVar="5" Cut="1.6986843872070312e+02" cType="1" res="-6.3725624931976199e-04" rms="4.1978538036346436e-01" purity="4.0434482693672180e-01" nType="0">
            <Node pos="l" depth="3" NCoef="0" IVar="5" Cut="1.0352505493164062e+02" cType="1" res="-8.8999895378947258e-03" rms="4.0809395909309387e-01" purity="3.4588462114334106e-01" nType="0">
              <Node pos="l" depth="4" NCoef="0" IVar="-1" Cut="0.0000000000000000e+00" cType="1" res="-4.0379256010055542e-02" rms="3.3202606439590454e-01" purity="1.7485706508159637e-01" nType="-99"/>
              <Node pos="r" depth="4" NCoef="0" IVar="-1" Cut="0.0000000000000000e+00" cType="1" res="1.8084283219650388e-03" rms="4.4504332542419434e-01" purity="4.4289776682853699e-01" nType="-99"/>
            </Node>
            <Node pos="r" depth="3" NCoef="0" IVar="-1" Cut="0.0000000000000000e+00" cType="1" res="8.7240627035498619e-03" rms="4.4522774219512939e-01" purity="5.4046559333801270e-01" nType="-99"/>
          </Node>
          <Node pos="r" depth="2" NCoef="0" IVar="-1" Cut="0.0000000000000000e+00" cType="1" res="1.0300138033926487e-02" rms="4.1371223330497742e-01" purity="5.5464625358581543e-01" nType="-99"/>
        </Node>
        <Node pos="r" depth="1" NCoef="0" IVar="5" Cut="1.4288714599609375e+02" cType="1" res="-1.6574149485677481e-03" rms="4.2985141277313232e-01" purity="5.7664501667022705e-01" nType="0">
          <Node pos="l" depth="2" NCoef="0" IVar="2" Cut="8.2705825567245483e-01" cType="1" res="1.4825484715402126e-02" rms="4.2912003397941589e-01" purity="6.4934921264648438e-01" nType="0">
            <Node pos="l" depth="3" NCoef="0" IVar="-1" Cut="0.0000000000000000e+00" cType="1" res="3.1565143726766109e-03" rms="4.0926504135131836e-01" purity="6.6879588365554810e-01" nType="-99"/>
            <Node pos="r" depth="3" NCoef="0" IVar="-1" Cut="0.0000000000000000e+00" cType="1" res="9.5774699002504349e-03" rms="4.4530266523361206e-01" purity="6.3268756866455078e-01" nType="-99"/>
          </Node>
          <Node pos="r" depth="2" NCoef="0" IVar="-1" Cut="0.0000000000000000e+00" cType="1" res="-3.0295960605144501e-02" rms="4.2891055345535278e-01" purity="3.9478981494903564e-01" nType="-99"/>
        </Node>
      </Node>
    </BinaryTree>
    <BinaryTree type="DecisionTree" boostWeight="1.0000000000000000e+00" itree="50">
      <Node pos="s" depth="0" NCoef="0" IVar="2" Cut="2.2916061878204346e+00" cType="1" res="2.5049056857824326e-03" rms="4.2303660511970520e-01" purity="5.0000000000000000e-01" nType="0">
        <Node pos="l" depth="1" NCoef="0" IVar="2" Cut="1.5277339220046997e+00" cType="1" res="1.1460636742413044e-03" rms="4.2968502640724182e-01" purity="5.4748231172561646e-01" nType="0">
          <Node pos="l" depth="2" NCoef="0" IVar="7" Cut="1.2642032623291016e+02" cType="1" res="4.8238206654787064e-03" rms="4.2194297909736633e-01" purity="5.7347232103347778e-01" nType="0">
            <Node pos="l" depth="3" NCoef="0" IVar="3" Cut="1.0000000000000000e+00" cType="1" res="1.4933616621419787e-03" rms="4.2228123545646667e-01" purity="5.4222434759140015e-01" nType="0">
              <Node pos="l" depth="4" NCoef="0" IVar="-1" Cut="0.0000000000000000e+00" cType="1" res="-3.8788479287177324e-03" rms="4.3252882361412048e-01" purity="5.4394376277923584e-01" nType="-99"/>
              <Node pos="r" depth="4" NCoef="0" IVar="4" Cut="5.7142859697341919e-01" cType="1" res="8.4828007966279984e-03" rms="4.2591500282287598e-01" purity="5.4121959209442139e-01" nType="0">
                <Node pos="l" depth="5" NCoef="0" IVar="-1" Cut="0.0000000000000000e+00" cType="1" res="6.6017652861773968e-03" rms="4.2936080694198608e-01" purity="6.0426801443099976e-01" nType="-99"/>
                <Node pos="r" depth="5" NCoef="0" IVar="2" Cut="7.2748917341232300e-01" cType="1" res="5.2205268293619156e-03" rms="4.2406445741653442e-01" purity="5.0823271274566650e-01" nType="0">
                  <Node pos="l" depth="6" NCoef="0" IVar="-1" Cut="0.0000000000000000e+00" cType="1" res="-1.9426412472967058e-04" rms="4.0708309412002563e-01" purity="4.8636564612388611e-01" nType="-99"/>
                  <Node pos="r" depth="6" NCoef="0" IVar="-1" Cut="0.0000000000000000e+00" cType="1" res="5.7145911268889904e-03" rms="4.4242265820503235e-01" purity="5.3299331665039062e-01" nType="-99"/>
                </Node>
              </Node>
            </Node>
            <Node pos="r" depth="3" NCoef="0" IVar="-1" Cut="0.0000000000000000e+00" cType="1" res="6.1427447944879532e-03" rms="3.9629817008972168e-01" purity="6.9169265031814575e-01" nType="-99"/>
          </Node>
          <Node pos="r" depth="2" NCoef="0" IVar="-1" Cut="0.0000000000000000e+00" cType="1" res="-7.7748866751790047e-03" rms="4.6114674210548401e-01" purity="4.3578970432281494e-01" nType="-99"/>
        </Node>
        <Node pos="r" depth="1" NCoef="0" IVar="-1" Cut="0.0000000000000000e+00" cType="1" res="1.8730197101831436e-02" rms="3.7482774257659912e-01" purity="1.7866016924381256e-01" nType="-99"/>
      </Node>
    </BinaryTree>
    <BinaryTree type="DecisionTree" boostWeight="1.0000000000000000e+00" itree="51">
      <Node pos="s" depth="0" NCoef="0" IVar="3" Cut="3.0000000000000000e+00" cType="1" res="2.8859644662588835e-03" rms="4.1894298791885376e-01" purity="5.0000000000000000e-01" nType="0">
        <Node pos="l" depth="1" NCoef="0" IVar="4" Cut="7.1428573131561279e-01" cType="1" res="3.1405291520059109e-03" rms="4.2266762256622314e-01" purity="5.1680099964141846e-01" nType="0">
          <Node pos="l" depth="2" NCoef="0" IVar="0" Cut="8.2504945993423462e-01" cType="1" res="-3.4409479703754187e-03" rms="4.2121884226799011e-01" purity="4.3706303834915161e-01" nType="0">
            <Node pos="l" depth="3" NCoef="0" IVar="-1" Cut="0.0000000000000000e+00" cType="1" res="2.1406405139714479e-03" rms="4.2577710747718811e-01" purity="4.6191319823265076e-01" nType="-99"/>
            <Node pos="r" depth="3" NCoef="0" IVar="-1" Cut="0.0000000000000000e+00" cType="1" res="-7.0220767520368099e-03" rms="4.1608473658561707e-01" purity="4.1016608476638794e-01" nType="-99"/>
          </Node>
          <Node pos="r" depth="2" NCoef="0" IVar="5" Cut="1.5381935119628906e+02" cType="1" res="5.8422442525625229e-03" rms="4.2323127388954163e-01" purity="5.4953360557556152e-01" nType="0">
            <Node pos="l" depth="3" NCoef="0" IVar="7" Cut="9.2861343383789062e+01" cType="1" res="9.0871891006827354e-03" rms="4.2092159390449524e-01" purity="5.6616288423538208e-01" nType="0">
              <Node pos="l" depth="4" NCoef="0" IVar="7" Cut="5.3103145599365234e+01" cType="1" res="-2.3608519695699215e-03" rms="4.4699975848197937e-01" purity="5.2890509366989136e-01" nType="0">
                <Node pos="l" depth="5" NCoef="0" IVar="-1" Cut="0.0000000000000000e+00" cType="1" res="-1.3753793202340603e-02" rms="4.6721959114074707e-01" purity="5.2666324377059937e-01" nType="-99"/>
                <Node pos="r" depth="5" NCoef="0" IVar="-1" Cut="0.0000000000000000e+00" cType="1" res="8.8209658861160278e-03" rms="4.2998263239860535e-01" purity="5.3060978651046753e-01" nType="-99"/>
              </Node>
              <Node pos="r" depth="4" NCoef="0" IVar="-1" Cut="0.0000000000000000e+00" cType="1" res="1.3650978915393353e-02" rms="3.7611365318298340e-01" purity="6.2409430742263794e-01" nType="-99"/>
            </Node>
            <Node pos="r" depth="3" NCoef="0" IVar="-1" Cut="0.0000000000000000e+00" cType="1" res="-1.5919500729069114e-03" rms="4.2922881245613098e-01" purity="5.0504451990127563e-01" nType="-99"/>
          </Node>
        </Node>
        <Node pos="r" depth="1" NCoef="0" IVar="-1" Cut="0.0000000000000000e+00" cType="1" res="-4.5736124739050865e-03" rms="4.2492112517356873e-01" purity="3.8520032167434692e-01" nType="-99"/>
      </Node>
    </BinaryTree>
    <BinaryTree type="DecisionTree" boostWeight="1.0000000000000000e+00" itree="52">
      <Node pos="s" depth="0" NCoef="0" IVar="0" Cut="2.3188085556030273e+00" cType="1" res="1.7159596318379045e-03" rms="4.2284190654754639e-01" purity="5.0000000000000000e-01" nType="0">
        <Node pos="l" depth="1" NCoef="0" IVar="3" Cut="1.0000000000000000e+00" cType="1" res="1.9407509826123714e-03" rms="3.8807493448257446e-01" purity="5.0221854448318481e-01" nType="0">
          <Node pos="l" depth="2" NCoef="0" IVar="1" Cut="1.4920998811721802e+00" cType="1" res="-4.8440354876220226e-03" rms="4.2267826199531555e-01" purity="5.2965295314788818e-01" nType="0">
            <Node pos="l" depth="3" NCoef="0" IVar="-1" Cut="0.0000000000000000e+00" cType="1" res="1.0114570613950491e-03" rms="4.1517779231071472e-01" purity="5.4636180400848389e-01" nType="-99"/>
            <Node pos="r" depth="3" NCoef="0" IVar="-1" Cut="0.0000000000000000e+00" cType="1" res="-9.0019181370735168e-03" rms="4.3542954325675964e-01" purity="4.9996683001518250e-01" nType="-99"/>
          </Node>
          <Node pos="r" depth="2" NCoef="0" IVar="7" Cut="8.5238883972167969e+01" cType="1" res="3.7900700699537992e-03" rms="4.2525872588157654e-01" purity="4.8641192913055420e-01" nType="0">
            <Node pos="l" depth="3" NCoef="0" IVar="4" Cut="1.0476191043853760e+00" cType="1" res="9.5076151192188263e-03" rms="4.4158953428268433e-01" purity="5.0443780422210693e-01" nType="0">
              <Node pos="l" depth="4" NCoef="0" IVar="-1" Cut="0.0000000000000000e+00" cType="1" res="9.8434295505285263e-03" rms="4.2954504489898682e-01" purity="5.0350767374038696e-01" nType="-99"/>
              <Node pos="r" depth="4" NCoef="0" IVar="-1" Cut="0.0000000000000000e+00" cType="1" res="-1.4763565268367529e-03" rms="4.5726415514945984e-01" purity="5.0571018457412720e-01" nType="-99"/>
            </Node>
            <Node pos="r" depth="3" NCoef="0" IVar="3" Cut="2.0000000000000000e+00" cType="1" res="6.6831236472353339e-04" rms="3.5970604419708252e-01" purity="4.6412873268127441e-01" nType="0">
              <Node pos="l" depth="4" NCoef="0" IVar="-1" Cut="0.0000000000000000e+00" cType="1" res="-5.6941858492791653e-03" rms="3.9447650313377380e-01" purity="4.7367760539054871e-01" nType="-99"/>
              <Node pos="r" depth="4" NCoef="0" IVar="-1" Cut="0.0000000000000000e+00" cType="1" res="1.6171829774975777e-03" rms="4.1295942664146423e-01" purity="4.5493963360786438e-01" nType="-99"/>
            </Node>
          </Node>
        </Node>
        <Node pos="r" depth="1" NCoef="0" IVar="-1" Cut="0.0000000000000000e+00" cType="1" res="6.0783000662922859e-03" rms="4.1078379750251770e-01" purity="4.8254388570785522e-01" nType="-99"/>
      </Node>
    </BinaryTree>
    <BinaryTree type="DecisionTree" boostWeight="1.0000000000000000e+00" itree="53">
      <Node pos="s" depth="0" NCoef="0" IVar="3" Cut="3.0000000000000000e+00" cType="1" res="2.4552345275878906e-03" rms="4.1875708103179932e-01" purity="5.0000000000000000e-01" nType="0">
        <Node pos="l" depth="1" NCoef="0" IVar="4" Cut="7.1428573131561279e-01" cType="1" res="2.5352397933602333e-03" rms="4.2245596647262573e-01" purity="5.1680099964141846e-01" nType="0">
          <Node pos="l" depth="2" NCoef="0" IVar="2" Cut="8.4027081727981567e-01" cType="1" res="-3.5017486661672592e-03" rms="4.2106130719184875e-01" purity="4.3706303834915161e-01" nType="0">
            <Node pos="l" depth="3" NCoef="0" IVar="-1" Cut="0.0000000000000000e+00" cType="1" res="2.0263008773326874e-03" rms="4.2290142178535461e-01" purity="5.3056800365447998e-01" nType="-99"/>
            <Node pos="r" depth="3" NCoef="0" IVar="-1" Cut="0.0000000000000000e+00" cType="1" res="-8.0816587433218956e-03" rms="4.1897356510162354e-01" purity="3.3882600069046021e-01" nType="-99"/>
          </Node>
          <Node pos="r" depth="2" NCoef="0" IVar="3" Cut="2.0000000000000000e+00" cType="1" res="7.7075447188690305e-04" rms="2.4419668316841125e-01" purity="5.4953360557556152e-01" nType="0">
            <Node pos="l" depth="3" NCoef="0" IVar="4" Cut="1.6666666269302368e+00" cType="1" res="2.5749444030225277e-03" rms="4.1997882723808289e-01" purity="5.7352828979492188e-01" nType="0">
              <Node pos="l" depth="4" NCoef="0" IVar="0" Cut="8.4023475646972656e-01" cType="1" res="1.0092059150338173e-02" rms="4.1582161188125610e-01" purity="4.5975306630134583e-01" nType="0">
                <Node pos="l" depth="5" NCoef="0" IVar="-1" Cut="0.0000000000000000e+00" cType="1" res="5.3006671369075775e-03" rms="4.1642853617668152e-01" purity="4.7765865921974182e-01" nType="-99"/>
                <Node pos="r" depth="5" NCoef="0" IVar="-1" Cut="0.0000000000000000e+00" cType="1" res="6.2367911450564861e-03" rms="4.1518983244895935e-01" purity="4.4116157293319702e-01" nType="-99"/>
              </Node>
              <Node pos="r" depth="4" NCoef="0" IVar="-1" Cut="0.0000000000000000e+00" cType="1" res="-1.5728488797321916e-03" rms="4.2312821745872498e-01" purity="6.6307789087295532e-01" nType="-99"/>
            </Node>
            <Node pos="r" depth="3" NCoef="0" IVar="-1" Cut="0.0000000000000000e+00" cType="1" res="8.1041343510150909e-03" rms="4.3392914533615112e-01" purity="4.6039727330207825e-01" nType="-99"/>
          </Node>
        </Node>
        <Node pos="r" depth="1" NCoef="0" IVar="-1" Cut="0.0000000000000000e+00" cType="1" res="-4.2085214518010616e-03" rms="4.2495608329772949e-01" purity="3.8520032167434692e-01" nType="-99"/>
      </Node>
    </BinaryTree>
    <BinaryTree type="DecisionTree" boostWeight="1.0000000000000000e+00" itree="54">
      <Node pos="s" depth="0" NCoef="0" IVar="2" Cut="3.2737231254577637e-01" cType="1" res="1.1541714193299413e-03" rms="4.2274489998817444e-01" purity="5.0000000000000000e-01" nType="0">
        <Node pos="l" depth="1" NCoef="0" IVar="-1" Cut="0.0000000000000000e+00" cType="1" res="3.3209181856364012e-03" rms="4.0718171000480652e-01" purity="6.0448759794235229e-01" nType="-99"/>
        <Node pos="r" depth="1" NCoef="0" IVar="0" Cut="2.3188085556030273e+00" cType="1" res="-1.1129814993182663e-05" rms="4.2597618699073792e-01" purity="4.7775182127952576e-01" nType="0">
          <Node pos="l" depth="2" NCoef="0" IVar="1" Cut="1.8651070594787598e+00" cType="1" res="-1.3312214286997914e-03" rms="4.2831125855445862e-01" purity="4.7764030098915100e-01" nType="0">
            <Node pos="l" depth="3" NCoef="0" IVar="4" Cut="1.2380952835083008e+00" cType="1" res="1.1630955850705504e-03" rms="4.2237710952758789e-01" purity="4.7116988897323608e-01" nType="0">
              <Node pos="l" depth="4" NCoef="0" IVar="2" Cut="1.1770459413528442e+00" cType="1" res="-5.0900890491902828e-03" rms="4.1217234730720520e-01" purity="3.8589966297149658e-01" nType="0">
                <Node pos="l" depth="5" NCoef="0" IVar="-1" Cut="0.0000000000000000e+00" cType="1" res="9.2892360407859087e-04" rms="4.0996271371841431e-01" purity="4.6735405921936035e-01" nType="-99"/>
                <Node pos="r" depth="5" NCoef="0" IVar="-1" Cut="0.0000000000000000e+00" cType="1" res="-1.0730904527008533e-02" rms="4.1466584801673889e-01" purity="2.8805485367774963e-01" nType="-99"/>
              </Node>
              <Node pos="r" depth="4" NCoef="0" IVar="-1" Cut="0.0000000000000000e+00" cType="1" res="5.1132095977663994e-03" rms="4.3717569112777710e-01" purity="6.0001629590988159e-01" nType="-99"/>
            </Node>
            <Node pos="r" depth="3" NCoef="0" IVar="-1" Cut="0.0000000000000000e+00" cType="1" res="-4.6875975094735622e-03" rms="4.4586181640625000e-01" purity="4.9740400910377502e-01" nType="-99"/>
          </Node>
          <Node pos="r" depth="2" NCoef="0" IVar="-1" Cut="0.0000000000000000e+00" cType="1" res="5.1176082342863083e-03" rms="4.1040235757827759e-01" purity="4.7847527265548706e-01" nType="-99"/>
        </Node>
      </Node>
    </BinaryTree>
    <BinaryTree type="DecisionTree" boostWeight="1.0000000000000000e+00" itree="55">
      <Node pos="s" depth="0" NCoef="0" IVar="4" Cut="1.4285714626312256e+00" cType="1" res="1.1547091417014599e-03" rms="4.2270773649215698e-01" purity="5.0000000000000000e-01" nType="0">
        <Node pos="l" depth="1" NCoef="0" IVar="1" Cut="2.0901508331298828e+00" cType="1" res="3.9594853296875954e-03" rms="4.1790804266929626e-01" purity="4.4327625632286072e-01" nType="0">
          <Node pos="l" depth="2" NCoef="0" IVar="2" Cut="9.1545522212982178e-01" cType="1" res="-6.2007759697735310e-04" rms="4.1047888994216919e-01" purity="4.1700193285942078e-01" nType="0">
            <Node pos="l" depth="3" NCoef="0" IVar="1" Cut="1.0948501825332642e+00" cType="1" res="6.0669058002531528e-03" rms="4.0154522657394409e-01" purity="5.0079804658889771e-01" nType="0">
              <Node pos="l" depth="4" NCoef="0" IVar="-1" Cut="0.0000000000000000e+00" cType="1" res="7.4735510861501098e-04" rms="3.9037945866584778e-01" purity="4.7415980696678162e-01" nType="-99"/>
              <Node pos="r" depth="4" NCoef="0" IVar="-1" Cut="0.0000000000000000e+00" cType="1" res="6.0249655507504940e-03" rms="4.1471689939498901e-01" purity="5.3337299823760986e-01" nType="-99"/>
            </Node>
            <Node pos="r" depth="3" NCoef="0" IVar="0" Cut="7.9049664735794067e-01" cType="1" res="-7.9079298302531242e-03" rms="4.1987770795822144e-01" purity="3.2567620277404785e-01" nType="0">
              <Node pos="l" depth="4" NCoef="0" IVar="-1" Cut="0.0000000000000000e+00" cType="1" res="-1.0465279920026660e-03" rms="4.3401226401329041e-01" purity="3.6925229430198669e-01" nType="-99"/>
              <Node pos="r" depth="4" NCoef="0" IVar="-1" Cut="0.0000000000000000e+00" cType="1" res="-1.1371795088052750e-02" rms="4.0663850307464600e-01" purity="2.8641366958618164e-01" nType="-99"/>
            </Node>
          </Node>
          <Node pos="r" depth="2" NCoef="0" IVar="-1" Cut="0.0000000000000000e+00" cType="1" res="9.7532151266932487e-03" rms="4.4196298718452454e-01" purity="5.3293192386627197e-01" nType="-99"/>
        </Node>
        <Node pos="r" depth="1" NCoef="0" IVar="5" Cut="1.4288714599609375e+02" cType="1" res="-2.6350980624556541e-03" rms="4.2907866835594177e-01" purity="5.7664501667022705e-01" nType="0">
          <Node pos="l" depth="2" NCoef="0" IVar="2" Cut="9.9246990680694580e-01" cType="1" res="1.0553844273090363e-02" rms="4.2861261963844299e-01" purity="6.4934921264648438e-01" nType="0">
            <Node pos="l" depth="3" NCoef="0" IVar="-1" Cut="0.0000000000000000e+00" cType="1" res="2.3238065186887980e-03" rms="4.1143497824668884e-01" purity="6.7061358690261841e-01" nType="-99"/>
            <Node pos="r" depth="3" NCoef="0" IVar="-1" Cut="0.0000000000000000e+00" cType="1" res="7.6760696247220039e-03" rms="4.4862034916877747e-01" purity="6.2335026264190674e-01" nType="-99"/>
          </Node>
          <Node pos="r" depth="2" NCoef="0" IVar="-1" Cut="0.0000000000000000e+00" cType="1" res="-2.4854855611920357e-02" rms="4.2846810817718506e-01" purity="3.9478981494903564e-01" nType="-99"/>
        </Node>
      </Node>
    </BinaryTree>
    <BinaryTree type="DecisionTree" boostWeight="1.0000000000000000e+00" itree="56">
      <Node pos="s" depth="0" NCoef="0" IVar="2" Cut="1.9642339944839478e+00" cType="1" res="1.3639787212014198e-03" rms="4.2256319522857666e-01" purity="5.0000000000000000e-01" nType="0">
        <Node pos="l" depth="1" NCoef="0" IVar="2" Cut="1.4965569972991943e+00" cType="1" res="-2.6169818011112511e-04" rms="4.2708966135978699e-01" purity="5.5938524007797241e-01" nType="0">
          <Node pos="l" depth="2" NCoef="0" IVar="7" Cut="1.2642032623291016e+02" cType="1" res="2.4193814024329185e-03" rms="4.2100653052330017e-01" purity="5.7430452108383179e-01" nType="0">
            <Node pos="l" depth="3" NCoef="0" IVar="7" Cut="9.6341758728027344e+01" cType="1" res="5.0630379701033235e-04" rms="4.2757242918014526e-01" purity="5.4290103912353516e-01" nType="0">
              <Node pos="l" depth="4" NCoef="0" IVar="3" Cut="1.0000000000000000e+00" cType="1" res="-3.6379338707774878e-03" rms="4.2367357015609741e-01" purity="5.5075716972351074e-01" nType="0">
                <Node pos="l" depth="5" NCoef="0" IVar="-1" Cut="0.0000000000000000e+00" cType="1" res="-7.7990549616515636e-03" rms="4.3938267230987549e-01" purity="5.2409958839416504e-01" nType="-99"/>
                <Node pos="r" depth="5" NCoef="0" IVar="4" Cut="1.1428571939468384e+00" cType="1" res="3.5125149879604578e-03" rms="4.3563649058341980e-01" purity="5.6594711542129517e-01" nType="0">
                  <Node pos="l" depth="6" NCoef="0" IVar="-1" Cut="0.0000000000000000e+00" cType="1" res="4.4660428538918495e-03" rms="4.2318472266197205e-01" purity="5.5721122026443481e-01" nType="-99"/>
                  <Node pos="r" depth="6" NCoef="0" IVar="-1" Cut="0.0000000000000000e+00" cType="1" res="-1.8326998688280582e-03" rms="4.5143130421638489e-01" purity="5.7747060060501099e-01" nType="-99"/>
                </Node>
              </Node>
              <Node pos="r" depth="4" NCoef="0" IVar="-1" Cut="0.0000000000000000e+00" cType="1" res="7.5462553650140762e-03" rms="3.9180186390876770e-01" purity="5.1513326168060303e-01" nType="-99"/>
            </Node>
            <Node pos="r" depth="3" NCoef="0" IVar="-1" Cut="0.0000000000000000e+00" cType="1" res="4.4770222157239914e-03" rms="3.9518874883651733e-01" purity="6.9270271062850952e-01" nType="-99"/>
          </Node>
          <Node pos="r" depth="2" NCoef="0" IVar="-1" Cut="0.0000000000000000e+00" cType="1" res="-8.0691110342741013e-03" rms="4.6089124679565430e-01" purity="4.7174611687660217e-01" nType="-99"/>
        </Node>
        <Node pos="r" depth="1" NCoef="0" IVar="-1" Cut="0.0000000000000000e+00" cType="1" res="9.0636843815445900e-03" rms="4.0182274580001831e-01" purity="2.3696684837341309e-01" nType="-99"/>
      </Node>
    </BinaryTree>
    <BinaryTree type="DecisionTree" boostWeight="1.0000000000000000e+00" itree="57">
      <Node pos="s" depth="0" NCoef="0" IVar="1" Cut="2.7312343120574951e+00" cType="1" res="1.0030323173850775e-03" rms="4.2249536514282227e-01" purity="5.0000000000000000e-01" nType="0">
        <Node pos="l" depth="1" NCoef="0" IVar="4" Cut="7.1428573131561279e-01" cType="1" res="1.9890356343239546e-03" rms="4.2078411579132080e-01" purity="4.9702125787734985e-01" nType="0">
          <Node pos="l" depth="2" NCoef="0" IVar="6" Cut="1.1854922485351562e+02" cType="1" res="-4.0054535493254662e-03" rms="4.1921862959861755e-01" purity="4.2506828904151917e-01" nType="0">
            <Node pos="l" depth="3" NCoef="0" IVar="-1" Cut="0.0000000000000000e+00" cType="1" res="3.3415840007364750e-03" rms="3.9869257807731628e-01" purity="3.0653893947601318e-01" nType="-99"/>
            <Node pos="r" depth="3" NCoef="0" IVar="-1" Cut="0.0000000000000000e+00" cType="1" res="-6.9973636418581009e-03" rms="4.4497066736221313e-01" purity="5.8372950553894043e-01" nType="-99"/>
          </Node>
          <Node pos="r" depth="2" NCoef="0" IVar="0" Cut="1.0540049076080322e+00" cType="1" res="4.4592712074518204e-03" rms="4.2140272259712219e-01" purity="5.2667188644409180e-01" nType="0">
            <Node pos="l" depth="3" NCoef="0" IVar="4" Cut="1.6666666269302368e+00" cType="1" res="4.8878695815801620e-04" rms="4.2416599392890930e-01" purity="5.5359983444213867e-01" nType="0">
              <Node pos="l" depth="4" NCoef="0" IVar="-1" Cut="0.0000000000000000e+00" cType="1" res="2.8048600070178509e-03" rms="4.1097211837768555e-01" purity="4.6145677566528320e-01" nType="-99"/>
              <Node pos="r" depth="4" NCoef="0" IVar="-1" Cut="0.0000000000000000e+00" cType="1" res="-1.5885956818237901e-03" rms="4.3539741635322571e-01" purity="6.3459312915802002e-01" nType="-99"/>
            </Node>
            <Node pos="r" depth="3" NCoef="0" IVar="7" Cut="8.4221817016601562e+01" cType="1" res="9.4232950359582901e-03" rms="4.1786924004554749e-01" purity="4.9300584197044373e-01" nType="0">
              <Node pos="l" depth="4" NCoef="0" IVar="-1" Cut="0.0000000000000000e+00" cType="1" res="2.2201533429324627e-03" rms="4.3267357349395752e-01" purity="4.3272465467453003e-01" nType="-99"/>
              <Node pos="r" depth="4" NCoef="0" IVar="-1" Cut="0.0000000000000000e+00" cType="1" res="8.0547258257865906e-03" rms="4.0360984206199646e-01" purity="5.4880380630493164e-01" nType="-99"/>
            </Node>
          </Node>
        </Node>
        <Node pos="r" depth="1" NCoef="0" IVar="-1" Cut="0.0000000000000000e+00" cType="1" res="-3.6811279132962227e-03" rms="4.3603968620300293e-01" purity="5.2415120601654053e-01" nType="-99"/>
      </Node>
    </BinaryTree>
    <BinaryTree type="DecisionTree" boostWeight="1.0000000000000000e+00" itree="58">
      <Node pos="s" depth="0" NCoef="0" IVar="2" Cut="2.2916061878204346e+00" cType="1" res="7.2551710763946176e-04" rms="4.2245486378669739e-01" purity="5.0000000000000000e-01" nType="0">
        <Node pos="l" depth="1" NCoef="0" IVar="2" Cut="1.7459816932678223e+00" cType="1" res="-2.3256025451701134e-04" rms="4.2908924818038940e-01" purity="5.4748231172561646e-01" nType="0">
          <Node pos="l" depth="2" NCoef="0" IVar="7" Cut="1.2642032623291016e+02" cType="1" res="1.5323508996516466e-03" rms="4.2451542615890503e-01" purity="5.6724691390991211e-01" nType="0">
            <Node pos="l" depth="3" NCoef="0" IVar="7" Cut="9.6341758728027344e+01" cType="1" res="2.9774621361866593e-04" rms="4.3056467175483704e-01" purity="5.3695201873779297e-01" nType="0">
              <Node pos="l" depth="4" NCoef="0" IVar="4" Cut="1.1428571939468384e+00" cType="1" res="-2.8865281492471695e-03" rms="4.3974974751472473e-01" purity="5.4298007488250732e-01" nType="0">
                <Node pos="l" depth="5" NCoef="0" IVar="4" Cut="4.7619048506021500e-02" cType="1" res="4.1637108661234379e-03" rms="4.3377876281738281e-01" purity="4.9130663275718689e-01" nType="0">
                  <Node pos="l" depth="6" NCoef="0" IVar="-1" Cut="0.0000000000000000e+00" cType="1" res="-2.2467239759862423e-03" rms="4.3457156419754028e-01" purity="5.0353646278381348e-01" nType="-99"/>
                  <Node pos="r" depth="6" NCoef="0" IVar="-1" Cut="0.0000000000000000e+00" cType="1" res="8.3009032532572746e-03" rms="4.3242809176445007e-01" purity="4.7463232278823853e-01" nType="-99"/>
                </Node>
                <Node pos="r" depth="5" NCoef="0" IVar="-1" Cut="0.0000000000000000e+00" cType="1" res="-6.0676201246678829e-03" rms="4.4808837771415710e-01" purity="6.1808192729949951e-01" nType="-99"/>
              </Node>
              <Node pos="r" depth="4" NCoef="0" IVar="-1" Cut="0.0000000000000000e+00" cType="1" res="6.3405856490135193e-03" rms="3.9631113409996033e-01" purity="5.1571553945541382e-01" nType="-99"/>
            </Node>
            <Node pos="r" depth="3" NCoef="0" IVar="-1" Cut="0.0000000000000000e+00" cType="1" res="2.9354181606322527e-03" rms="4.0017396211624146e-01" purity="6.8464869260787964e-01" nType="-99"/>
          </Node>
          <Node pos="r" depth="2" NCoef="0" IVar="-1" Cut="0.0000000000000000e+00" cType="1" res="-7.4454057030379772e-03" rms="4.6124553680419922e-01" purity="4.0157175064086914e-01" nType="-99"/>
        </Node>
        <Node pos="r" depth="1" NCoef="0" IVar="-1" Cut="0.0000000000000000e+00" cType="1" res="1.1306660249829292e-02" rms="3.7441524863243103e-01" purity="1.7866016924381256e-01" nType="-99"/>
      </Node>
    </BinaryTree>
    <BinaryTree type="DecisionTree" boostWeight="1.0000000000000000e+00" itree="59">
      <Node pos="s" depth="0" NCoef="0" IVar="1" Cut="2.7312343120574951e+00" cType="1" res="4.2292298167012632e-04" rms="4.2239049077033997e-01" purity="5.0000000000000000e-01" nType="0">
        <Node pos="l" depth="1" NCoef="0" IVar="4" Cut="7.1428573131561279e-01" cType="1" res="1.1603446910157800e-03" rms="4.2068266868591309e-01" purity="4.9702125787734985e-01" nType="0">
          <Node pos="l" depth="2" NCoef="0" IVar="6" Cut="1.1854922485351562e+02" cType="1" res="-3.4495624713599682e-03" rms="4.1914001107215881e-01" purity="4.2506828904151917e-01" nType="0">
            <Node pos="l" depth="3" NCoef="0" IVar="-1" Cut="0.0000000000000000e+00" cType="1" res="2.6724385097622871e-03" rms="3.9867064356803894e-01" purity="3.0653893947601318e-01" nType="-99"/>
            <Node pos="r" depth="3" NCoef="0" IVar="-1" Cut="0.0000000000000000e+00" cType="1" res="-5.8399173431098461e-03" rms="4.4490021467208862e-01" purity="5.8372950553894043e-01" nType="-99"/>
          </Node>
          <Node pos="r" depth="2" NCoef="0" IVar="3" Cut="1.0000000000000000e+00" cType="1" res="3.1705899164080620e-03" rms="4.2009055614471436e-01" purity="5.2667188644409180e-01" nType="0">
            <Node pos="l" depth="3" NCoef="0" IVar="-1" Cut="0.0000000000000000e+00" cType="1" res="3.9777504280209541e-03" rms="4.1915449500083923e-01" purity="6.2717109918594360e-01" nType="-99"/>
            <Node pos="r" depth="3" NCoef="0" IVar="2" Cut="9.7440475225448608e-01" cType="1" res="-2.7971365489065647e-04" rms="4.2264622449874878e-01" purity="4.6192285418510437e-01" nType="0">
              <Node pos="l" depth="4" NCoef="0" IVar="-1" Cut="0.0000000000000000e+00" cType="1" res="-3.1231855973601341e-03" rms="4.0455284714698792e-01" purity="5.1084804534912109e-01" nType="-99"/>
              <Node pos="r" depth="4" NCoef="0" IVar="-1" Cut="0.0000000000000000e+00" cType="1" res="2.7069807983934879e-03" rms="4.3838307261466980e-01" purity="4.1747587919235229e-01" nType="-99"/>
            </Node>
          </Node>
        </Node>
        <Node pos="r" depth="1" NCoef="0" IVar="-1" Cut="0.0000000000000000e+00" cType="1" res="-2.9139863327145576e-03" rms="4.3594413995742798e-01" purity="5.2415120601654053e-01" nType="-99"/>
      </Node>
    </BinaryTree>
    <BinaryTree type="DecisionTree" boostWeight="1.0000000000000000e+00" itree="60">
      <Node pos="s" depth="0" NCoef="0" IVar="3" Cut="1.0000000000000000e+00" cType="1" res="1.3808979419991374e-03" rms="4.1835018992424011e-01" purity="5.0000000000000000e-01" nType="0">
        <Node pos="l" depth="1" NCoef="0" IVar="2" Cut="1.2384393215179443e+00" cType="1" res="-2.8419713489711285e-03" rms="4.2099529504776001e-01" purity="5.4398608207702637e-01" nType="0">
          <Node pos="l" depth="2" NCoef="0" IVar="-1" Cut="0.0000000000000000e+00" cType="1" res="6.4502812165301293e-05" rms="4.1790199279785156e-01" purity="6.1179018020629883e-01" nType="-99"/>
          <Node pos="r" depth="2" NCoef="0" IVar="-1" Cut="0.0000000000000000e+00" cType="1" res="-5.3771529346704483e-03" rms="4.2696988582611084e-01" purity="4.1025695204734802e-01" nType="-99"/>
        </Node>
        <Node pos="r" depth="1" NCoef="0" IVar="0" Cut="1.6864067316055298e+00" cType="1" res="2.0476386416703463e-03" rms="4.2311999201774597e-01" purity="4.7559583187103271e-01" nType="0">
          <Node pos="l" depth="2" NCoef="0" IVar="5" Cut="2.2955096435546875e+02" cType="1" res="4.8387912102043629e-03" rms="4.2617258429527283e-01" purity="5.0567138195037842e-01" nType="0">
            <Node pos="l" depth="3" NCoef="0" IVar="6" Cut="7.9349334716796875e+01" cType="1" res="1.0757620912045240e-03" rms="4.2804816365242004e-01" purity="4.7187492251396179e-01" nType="0">
              <Node pos="l" depth="4" NCoef="0" IVar="2" Cut="7.8722113370895386e-01" cType="1" res="-4.7719711437821388e-03" rms="4.2290711402893066e-01" purity="4.4007596373558044e-01" nType="0">
                <Node pos="l" depth="5" NCoef="0" IVar="-1" Cut="0.0000000000000000e+00" cType="1" res="-7.9667912796139717e-03" rms="3.9995184540748596e-01" purity="4.3519932031631470e-01" nType="-99"/>
                <Node pos="r" depth="5" NCoef="0" IVar="-1" Cut="0.0000000000000000e+00" cType="1" res="1.5423133736476302e-03" rms="4.4366899132728577e-01" purity="4.4475039839744568e-01" nType="-99"/>
              </Node>
              <Node pos="r" depth="4" NCoef="0" IVar="-1" Cut="0.0000000000000000e+00" cType="1" res="4.8847678117454052e-03" rms="4.3549647927284241e-01" purity="5.1955848932266235e-01" nType="-99"/>
            </Node>
            <Node pos="r" depth="3" NCoef="0" IVar="-1" Cut="0.0000000000000000e+00" cType="1" res="7.7170096337795258e-03" rms="4.2044189572334290e-01" purity="6.0458230972290039e-01" nType="-99"/>
          </Node>
          <Node pos="r" depth="2" NCoef="0" IVar="-1" Cut="0.0000000000000000e+00" cType="1" res="-3.6193756386637688e-03" rms="4.1477558016777039e-01" purity="3.9537048339843750e-01" nType="-99"/>
        </Node>
      </Node>
    </BinaryTree>
    <BinaryTree type="DecisionTree" boostWeight="1.0000000000000000e+00" itree="61">
      <Node pos="s" depth="0" NCoef="0" IVar="0" Cut="2.3188085556030273e+00" cType="1" res="3.8345967186614871e-04" rms="4.2234122753143311e-01" purity="5.0000000000000000e-01" nType="0">
        <Node pos="l" depth="1" NCoef="0" IVar="4" Cut="2.1428570747375488e+00" cType="1" res="-4.2089723865501583e-04" rms="4.2387872934341431e-01" purity="5.0221854448318481e-01" nType="0">
          <Node pos="l" depth="2" NCoef="0" IVar="0" Cut="1.6562850475311279e+00" cType="1" res="-2.0098332315683365e-03" rms="4.2257872223854065e-01" purity="4.7749820351600647e-01" nType="0">
            <Node pos="l" depth="3" NCoef="0" IVar="5" Cut="2.2955096435546875e+02" cType="1" res="4.1443865484325215e-05" rms="4.2398899793624878e-01" purity="4.9282652139663696e-01" nType="0">
              <Node pos="l" depth="4" NCoef="0" IVar="5" Cut="1.6759793090820312e+02" cType="1" res="-2.6950312312692404e-03" rms="4.2523506283760071e-01" purity="4.6404698491096497e-01" nType="0">
                <Node pos="l" depth="5" NCoef="0" IVar="5" Cut="1.2334638214111328e+02" cType="1" res="-8.2406913861632347e-03" rms="4.1755604743957520e-01" purity="4.3279498815536499e-01" nType="0">
                  <Node pos="l" depth="6" NCoef="0" IVar="5" Cut="9.1738166809082031e+01" cType="1" res="-3.9165858179330826e-03" rms="3.9848425984382629e-01" purity="4.1148644685745239e-01" nType="0">
                    <Node pos="l" depth="7" NCoef="0" IVar="-1" Cut="0.0000000000000000e+00" cType="1" res="-1.6803782433271408e-02" rms="3.6622816324234009e-01" purity="2.4393945932388306e-01" nType="-99"/>
                    <Node pos="r" depth="7" NCoef="0" IVar="-1" Cut="0.0000000000000000e+00" cType="1" res="3.9789229631423950e-03" rms="4.2393469810485840e-01" purity="5.5563360452651978e-01" nType="-99"/>
                  </Node>
                  <Node pos="r" depth="6" NCoef="0" IVar="-1" Cut="0.0000000000000000e+00" cType="1" res="-8.9128809049725533e-03" rms="4.5132464170455933e-01" purity="4.7310695052146912e-01" nType="-99"/>
                </Node>
                <Node pos="r" depth="5" NCoef="0" IVar="-1" Cut="0.0000000000000000e+00" cType="1" res="6.5486952662467957e-03" rms="4.4718435406684875e-01" purity="5.5831587314605713e-01" nType="-99"/>
              </Node>
              <Node pos="r" depth="4" NCoef="0" IVar="-1" Cut="0.0000000000000000e+00" cType="1" res="5.3113522008061409e-03" rms="4.1883280873298645e-01" purity="6.0700523853302002e-01" nType="-99"/>
            </Node>
            <Node pos="r" depth="3" NCoef="0" IVar="-1" Cut="0.0000000000000000e+00" cType="1" res="-8.0973301082849503e-03" rms="4.1519144177436829e-01" purity="3.9970517158508301e-01" nType="-99"/>
          </Node>
          <Node pos="r" depth="2" NCoef="0" IVar="-1" Cut="0.0000000000000000e+00" cType="1" res="3.7496902514249086e-03" rms="4.3051072955131531e-01" purity="6.3135808706283569e-01" nType="-99"/>
        </Node>
        <Node pos="r" depth="1" NCoef="0" IVar="-1" Cut="0.0000000000000000e+00" cType="1" res="4.0012351237237453e-03" rms="4.0998756885528564e-01" purity="4.8254388570785522e-01" nType="-99"/>
      </Node>
    </BinaryTree>
    <BinaryTree type="DecisionTree" boostWeight="1.0000000000000000e+00" itree="62">
      <Node pos="s" depth="0" NCoef="0" IVar="3" Cut="3.0000000000000000e+00" cType="1" res="1.7365043750032783e-03" rms="4.1826722025871277e-01" purity="5.0000000000000000e-01" nType="0">
        <Node pos="l" depth="1" NCoef="0" IVar="4" Cut="7.1428573131561279e-01" cType="1" res="1.5337500954046845e-03" rms="4.2193302512168884e-01" purity="5.1680099964141846e-01" nType="0">
          <Node pos="l" depth="2" NCoef="0" IVar="0" Cut="8.2504945993423462e-01" cType="1" res="-2.7866701129823923e-03" rms="4.2058414220809937e-01" purity="4.3706303834915161e-01" nType="0">
            <Node pos="l" depth="3" NCoef="0" IVar="-1" Cut="0.0000000000000000e+00" cType="1" res="9.9787407089024782e-04" rms="4.2517262697219849e-01" purity="4.6191319823265076e-01" nType="-99"/>
            <Node pos="r" depth="3" NCoef="0" IVar="-1" Cut="0.0000000000000000e+00" cType="1" res="-4.8187444917857647e-03" rms="4.1550409793853760e-01" purity="4.1016608476638794e-01" nType="-99"/>
          </Node>
          <Node pos="r" depth="2" NCoef="0" IVar="5" Cut="1.5381935119628906e+02" cType="1" res="3.3072950318455696e-03" rms="4.2247271537780762e-01" purity="5.4953360557556152e-01" nType="0">
            <Node pos="l" depth="3" NCoef="0" IVar="7" Cut="9.2861343383789062e+01" cType="1" res="6.1913733370602131e-03" rms="4.2012065649032593e-01" purity="5.6616288423538208e-01" nType="0">
              <Node pos="l" depth="4" NCoef="0" IVar="7" Cut="5.3103145599365234e+01" cType="1" res="-1.5120429452508688e-03" rms="4.4630497694015503e-01" purity="5.2890509366989136e-01" nType="0">
                <Node pos="l" depth="5" NCoef="0" IVar="-1" Cut="0.0000000000000000e+00" cType="1" res="-1.0005476884543896e-02" rms="4.6681395173072815e-01" purity="5.2666324377059937e-01" nType="-99"/>
                <Node pos="r" depth="5" NCoef="0" IVar="-1" Cut="0.0000000000000000e+00" cType="1" res="6.6924872808158398e-03" rms="4.2949914932250977e-01" purity="5.3060978651046753e-01" nType="-99"/>
              </Node>
              <Node pos="r" depth="4" NCoef="0" IVar="-1" Cut="0.0000000000000000e+00" cType="1" res="9.4689866527915001e-03" rms="3.7548688054084778e-01" purity="6.2409430742263794e-01" nType="-99"/>
            </Node>
            <Node pos="r" depth="3" NCoef="0" IVar="-1" Cut="0.0000000000000000e+00" cType="1" res="-2.4825327564030886e-03" rms="4.2860639095306396e-01" purity="5.0504451990127563e-01" nType="-99"/>
          </Node>
        </Node>
        <Node pos="r" depth="1" NCoef="0" IVar="-1" Cut="0.0000000000000000e+00" cType="1" res="-3.4864740446209908e-03" rms="4.2465931177139282e-01" purity="3.8520032167434692e-01" nType="-99"/>
      </Node>
    </BinaryTree>
    <BinaryTree type="DecisionTree" boostWeight="1.0000000000000000e+00" itree="63">
      <Node pos="s" depth="0" NCoef="0" IVar="3" Cut="1.0000000000000000e+00" cType="1" res="1.7492705956101418e-03" rms="4.1820305585861206e-01" purity="5.0000000000000000e-01" nType="0">
        <Node pos="l" depth="1" NCoef="0" IVar="0" Cut="1.0502488613128662e+00" cType="1" res="-2.1662518847733736e-03" rms="4.2081245779991150e-01" purity="5.4398608207702637e-01" nType="0">
          <Node pos="l" depth="2" NCoef="0" IVar="-1" Cut="0.0000000000000000e+00" cType="1" res="-3.0354682821780443e-03" rms="4.2386212944984436e-01" purity="5.3331935405731201e-01" nType="-99"/>
          <Node pos="r" depth="2" NCoef="0" IVar="-1" Cut="0.0000000000000000e+00" cType="1" res="1.3708396581932902e-03" rms="4.1648337244987488e-01" purity="5.5883204936981201e-01" nType="-99"/>
        </Node>
        <Node pos="r" depth="1" NCoef="0" IVar="4" Cut="2.6666667461395264e+00" cType="1" res="2.2711101919412613e-03" rms="4.2299428582191467e-01" purity="4.7559583187103271e-01" nType="0">
          <Node pos="l" depth="2" NCoef="0" IVar="1" Cut="2.1659195423126221e+00" cType="1" res="4.0185404941439629e-03" rms="4.1994005441665649e-01" purity="4.6467611193656921e-01" nType="0">
            <Node pos="l" depth="3" NCoef="0" IVar="7" Cut="8.6229248046875000e+01" cType="1" res="5.3421274060383439e-04" rms="4.1408342123031616e-01" purity="4.4136458635330200e-01" nType="0">
              <Node pos="l" depth="4" NCoef="0" IVar="-1" Cut="0.0000000000000000e+00" cType="1" res="4.3782219290733337e-03" rms="4.3302640318870544e-01" purity="4.5834392309188843e-01" nType="-99"/>
              <Node pos="r" depth="4" NCoef="0" IVar="3" Cut="2.0000000000000000e+00" cType="1" res="-5.9992969036102295e-03" rms="3.9515304565429688e-01" purity="4.2611506581306458e-01" nType="0">
                <Node pos="l" depth="5" NCoef="0" IVar="-1" Cut="0.0000000000000000e+00" cType="1" res="-8.5263466462492943e-03" rms="3.8957452774047852e-01" purity="4.2404305934906006e-01" nType="-99"/>
                <Node pos="r" depth="5" NCoef="0" IVar="-1" Cut="0.0000000000000000e+00" cType="1" res="7.9751142766326666e-04" rms="4.0231457352638245e-01" purity="4.2810499668121338e-01" nType="-99"/>
              </Node>
            </Node>
            <Node pos="r" depth="3" NCoef="0" IVar="-1" Cut="0.0000000000000000e+00" cType="1" res="7.5247352942824364e-03" rms="4.3731281161308289e-01" purity="5.3647994995117188e-01" nType="-99"/>
          </Node>
          <Node pos="r" depth="2" NCoef="0" IVar="-1" Cut="0.0000000000000000e+00" cType="1" res="-2.4914529640227556e-03" rms="4.3484893441200256e-01" purity="5.1898533105850220e-01" nType="-99"/>
        </Node>
      </Node>
    </BinaryTree>
    <BinaryTree type="DecisionTree" boostWeight="1.0000000000000000e+00" itree="64">
      <Node pos="s" depth="0" NCoef="0" IVar="2" Cut="3.2737231254577637e-01" cType="1" res="5.7020172243937850e-04" rms="4.2219260334968567e-01" purity="5.0000000000000000e-01" nType="0">
        <Node pos="l" depth="1" NCoef="0" IVar="-1" Cut="0.0000000000000000e+00" cType="1" res="2.4913554079830647e-03" rms="4.0677574276924133e-01" purity="6.0448759794235229e-01" nType="-99"/>
        <Node pos="r" depth="1" NCoef="0" IVar="2" Cut="2.5098550319671631e+00" cType="1" res="-3.5821305937133729e-04" rms="4.2539736628532410e-01" purity="4.7775182127952576e-01" nType="0">
          <Node pos="l" depth="2" NCoef="0" IVar="0" Cut="1.4703356027603149e+00" cType="1" res="1.0173874907195568e-03" rms="4.3456101417541504e-01" purity="5.2372926473617554e-01" nType="0">
            <Node pos="l" depth="3" NCoef="0" IVar="3" Cut="1.0000000000000000e+00" cType="1" res="-1.2178368633612990e-03" rms="3.8559234142303467e-01" purity="5.1330059766769409e-01" nType="0">
              <Node pos="l" depth="4" NCoef="0" IVar="-1" Cut="0.0000000000000000e+00" cType="1" res="-2.9737085569649935e-03" rms="4.2794746160507202e-01" purity="5.1325315237045288e-01" nType="-99"/>
              <Node pos="r" depth="4" NCoef="0" IVar="4" Cut="6.1904764175415039e-01" cType="1" res="1.7557165119796991e-03" rms="4.3754860758781433e-01" purity="5.1333010196685791e-01" nType="0">
                <Node pos="l" depth="5" NCoef="0" IVar="-1" Cut="0.0000000000000000e+00" cType="1" res="3.8000929635018110e-03" rms="4.4056716561317444e-01" purity="5.2920126914978027e-01" nType="-99"/>
                <Node pos="r" depth="5" NCoef="0" IVar="-1" Cut="0.0000000000000000e+00" cType="1" res="-9.5250399317592382e-04" rms="4.3572092056274414e-01" purity="5.0397694110870361e-01" nType="-99"/>
              </Node>
            </Node>
            <Node pos="r" depth="3" NCoef="0" IVar="-1" Cut="0.0000000000000000e+00" cType="1" res="3.1033980194479227e-03" rms="4.3620008230209351e-01" purity="5.5060392618179321e-01" nType="-99"/>
          </Node>
          <Node pos="r" depth="2" NCoef="0" IVar="-1" Cut="0.0000000000000000e+00" cType="1" res="-1.9284501671791077e-02" rms="3.5304132103919983e-01" purity="1.4976938068866730e-01" nType="-99"/>
        </Node>
      </Node>
    </BinaryTree>
    <BinaryTree type="DecisionTree" boostWeight="1.0000000000000000e+00" itree="65">
      <Node pos="s" depth="0" NCoef="0" IVar="2" Cut="2.2916061878204346e+00" cType="1" res="7.9870980698615313e-04" rms="4.2217218875885010e-01" purity="5.0000000000000000e-01" nType="0">
        <Node pos="l" depth="1" NCoef="0" IVar="2" Cut="1.7459816932678223e+00" cType="1" res="-2.3831937869545072e-04" rms="4.2880564928054810e-01" purity="5.4748231172561646e-01" nType="0">
          <Node pos="l" depth="2" NCoef="0" IVar="4" Cut="7.1428573131561279e-01" cType="1" res="1.2481083394959569e-03" rms="4.2424356937408447e-01" purity="5.6724691390991211e-01" nType="0">
            <Node pos="l" depth="3" NCoef="0" IVar="2" Cut="6.6513681411743164e-01" cType="1" res="-2.1188764367252588e-03" rms="4.3020600080490112e-01" purity="4.9705061316490173e-01" nType="0">
              <Node pos="l" depth="4" NCoef="0" IVar="-1" Cut="0.0000000000000000e+00" cType="1" res="1.0712619405239820e-03" rms="4.2030581831932068e-01" purity="5.5053234100341797e-01" nType="-99"/>
              <Node pos="r" depth="4" NCoef="0" IVar="-1" Cut="0.0000000000000000e+00" cType="1" res="-3.5550859756767750e-03" rms="4.3990442156791687e-01" purity="4.4321638345718384e-01" nType="-99"/>
            </Node>
            <Node pos="r" depth="3" NCoef="0" IVar="0" Cut="1.3959091901779175e+00" cType="1" res="2.7637071907520294e-03" rms="4.2152336239814758e-01" purity="5.9884476661682129e-01" nType="0">
              <Node pos="l" depth="4" NCoef="0" IVar="2" Cut="4.9885371327400208e-01" cType="1" res="5.8934476692229509e-04" rms="4.2170339822769165e-01" purity="5.8507680892944336e-01" nType="0">
                <Node pos="l" depth="5" NCoef="0" IVar="-1" Cut="0.0000000000000000e+00" cType="1" res="2.6878190692514181e-03" rms="3.9689007401466370e-01" purity="6.1703491210937500e-01" nType="-99"/>
                <Node pos="r" depth="5" NCoef="0" IVar="0" Cut="6.6471290588378906e-01" cType="1" res="-2.0188970956951380e-03" rms="4.3514293432235718e-01" purity="5.6692910194396973e-01" nType="0">
                  <Node pos="l" depth="6" NCoef="0" IVar="-1" Cut="0.0000000000000000e+00" cType="1" res="6.1274343170225620e-04" rms="4.3497154116630554e-01" purity="5.7084703445434570e-01" nType="-99"/>
                  <Node pos="r" depth="6" NCoef="0" IVar="-1" Cut="0.0000000000000000e+00" cType="1" res="-2.9138894751667976e-03" rms="4.3531441688537598e-01" purity="5.6227463483810425e-01" nType="-99"/>
                </Node>
              </Node>
              <Node pos="r" depth="4" NCoef="0" IVar="-1" Cut="0.0000000000000000e+00" cType="1" res="3.9917640388011932e-03" rms="4.2099416255950928e-01" purity="6.3516366481781006e-01" nType="-99"/>
            </Node>
          </Node>
          <Node pos="r" depth="2" NCoef="0" IVar="-1" Cut="0.0000000000000000e+00" cType="1" res="-6.3040335662662983e-03" rms="4.6094208955764771e-01" purity="4.0157175064086914e-01" nType="-99"/>
        </Node>
        <Node pos="r" depth="1" NCoef="0" IVar="-1" Cut="0.0000000000000000e+00" cType="1" res="1.2277296744287014e-02" rms="3.7412604689598083e-01" purity="1.7866016924381256e-01" nType="-99"/>
      </Node>
    </BinaryTree>
    <BinaryTree type="DecisionTree" boostWeight="1.0000000000000000e+00" itree="66">
      <Node pos="s" depth="0" NCoef="0" IVar="2" Cut="1.9642339944839478e+00" cType="1" res="5.1460263784974813e-04" rms="4.2214608192443848e-01" purity="5.0000000000000000e-01" nType="0">
        <Node pos="l" depth="1" NCoef="0" IVar="2" Cut="1.4965569972991943e+00" cType="1" res="-4.0937622543424368e-04" rms="4.2666718363761902e-01" purity="5.5938524007797241e-01" nType="0">
          <Node pos="l" depth="2" NCoef="0" IVar="4" Cut="7.1428573131561279e-01" cType="1" res="1.5179517213255167e-03" rms="4.2063570022583008e-01" purity="5.7430452108383179e-01" nType="0">
            <Node pos="l" depth="3" NCoef="0" IVar="2" Cut="6.4138185977935791e-01" cType="1" res="-2.1726521663367748e-03" rms="4.2876428365707397e-01" purity="5.0854015350341797e-01" nType="0">
              <Node pos="l" depth="4" NCoef="0" IVar="-1" Cut="0.0000000000000000e+00" cType="1" res="9.8203716333955526e-04" rms="4.2058891057968140e-01" purity="5.5124890804290771e-01" nType="-99"/>
              <Node pos="r" depth="4" NCoef="0" IVar="-1" Cut="0.0000000000000000e+00" cType="1" res="-3.6908879410475492e-03" rms="4.3767288327217102e-01" purity="4.6081349253654480e-01" nType="-99"/>
            </Node>
            <Node pos="r" depth="3" NCoef="0" IVar="3" Cut="1.0000000000000000e+00" cType="1" res="1.8346661236137152e-03" rms="4.0919589996337891e-01" purity="6.0444557666778564e-01" nType="0">
              <Node pos="l" depth="4" NCoef="0" IVar="-1" Cut="0.0000000000000000e+00" cType="1" res="3.0375090427696705e-03" rms="4.1269561648368835e-01" purity="6.9840657711029053e-01" nType="-99"/>
              <Node pos="r" depth="4" NCoef="0" IVar="3" Cut="2.0000000000000000e+00" cType="1" res="-1.5602174680680037e-03" rms="4.0755140781402588e-01" purity="5.3677684068679810e-01" nType="0">
                <Node pos="l" depth="5" NCoef="0" IVar="-1" Cut="0.0000000000000000e+00" cType="1" res="-1.5036002732813358e-03" rms="4.0694460272789001e-01" purity="5.6491857767105103e-01" nType="-99"/>
                <Node pos="r" depth="5" NCoef="0" IVar="-1" Cut="0.0000000000000000e+00" cType="1" res="2.7058897539973259e-03" rms="4.3493813276290894e-01" purity="5.0238740444183350e-01" nType="-99"/>
              </Node>
            </Node>
          </Node>
          <Node pos="r" depth="2" NCoef="0" IVar="-1" Cut="0.0000000000000000e+00" cType="1" res="-5.9170904569327831e-03" rms="4.6034219861030579e-01" purity="4.7174611687660217e-01" nType="-99"/>
        </Node>
        <Node pos="r" depth="1" NCoef="0" IVar="-1" Cut="0.0000000000000000e+00" cType="1" res="4.8214080743491650e-03" rms="4.0148365497589111e-01" purity="2.3696684837341309e-01" nType="-99"/>
      </Node>
    </BinaryTree>
    <BinaryTree type="DecisionTree" boostWeight="1.0000000000000000e+00" itree="67">
      <Node pos="s" depth="0" NCoef="0" IVar="3" Cut="3.0000000000000000e+00" cType="1" res="1.4472070615738630e-03" rms="4.1810825467109680e-01" purity="5.0000000000000000e-01" nType="0">
        <Node pos="l" depth="1" NCoef="0" IVar="3" Cut="1.0000000000000000e+00" cType="1" res="3.9758207276463509e-04" rms="2.5192195177078247e-01" purity="5.1680099964141846e-01" nType="0">
          <Node pos="l" depth="2" NCoef="0" IVar="1" Cut="1.6721335649490356e+00" cType="1" res="-1.8847008468583226e-03" rms="4.2072156071662903e-01" purity="5.4398608207702637e-01" nType="0">
            <Node pos="l" depth="3" NCoef="0" IVar="2" Cut="9.7312647104263306e-01" cType="1" res="8.4304914344102144e-04" rms="4.1529557108879089e-01" purity="5.4360496997833252e-01" nType="0">
              <Node pos="l" depth="4" NCoef="0" IVar="-1" Cut="0.0000000000000000e+00" cType="1" res="1.8651327118277550e-03" rms="4.0740153193473816e-01" purity="6.3081860542297363e-01" nType="-99"/>
              <Node pos="r" depth="4" NCoef="0" IVar="-1" Cut="0.0000000000000000e+00" cType="1" res="-1.6836479771882296e-03" rms="4.2507106065750122e-01" purity="4.3297007679939270e-01" nType="-99"/>
            </Node>
            <Node pos="r" depth="3" NCoef="0" IVar="-1" Cut="0.0000000000000000e+00" cType="1" res="-3.5966522991657257e-03" rms="4.3058773875236511e-01" purity="5.4469484090805054e-01" nType="-99"/>
          </Node>
          <Node pos="r" depth="2" NCoef="0" IVar="7" Cut="8.5169967651367188e+01" cType="1" res="3.2403410878032446e-03" rms="4.2245480418205261e-01" purity="4.9798288941383362e-01" nType="0">
            <Node pos="l" depth="3" NCoef="0" IVar="4" Cut="1.1428571939468384e+00" cType="1" res="7.6158191077411175e-03" rms="4.3763804435729980e-01" purity="5.1317507028579712e-01" nType="0">
              <Node pos="l" depth="4" NCoef="0" IVar="-1" Cut="0.0000000000000000e+00" cType="1" res="8.7077682837843895e-03" rms="4.2790922522544861e-01" purity="5.0757229328155518e-01" nType="-99"/>
              <Node pos="r" depth="4" NCoef="0" IVar="-1" Cut="0.0000000000000000e+00" cType="1" res="-1.5563268680125475e-03" rms="4.4908142089843750e-01" purity="5.2006310224533081e-01" nType="-99"/>
            </Node>
            <Node pos="r" depth="3" NCoef="0" IVar="1" Cut="1.0868514776229858e+00" cType="1" res="-2.7940056752413511e-03" rms="4.0049371123313904e-01" purity="4.7703087329864502e-01" nType="0">
              <Node pos="l" depth="4" NCoef="0" IVar="-1" Cut="0.0000000000000000e+00" cType="1" res="-2.9559752438217402e-03" rms="3.8802129030227661e-01" purity="4.5157670974731445e-01" nType="-99"/>
              <Node pos="r" depth="4" NCoef="0" IVar="-1" Cut="0.0000000000000000e+00" cType="1" res="-3.5373281571082771e-04" rms="4.1377058625221252e-01" purity="5.0503462553024292e-01" nType="-99"/>
            </Node>
          </Node>
        </Node>
        <Node pos="r" depth="1" NCoef="0" IVar="-1" Cut="0.0000000000000000e+00" cType="1" res="-3.2392805442214012e-03" rms="4.2462962865829468e-01" purity="3.8520032167434692e-01" nType="-99"/>
      </Node>
    </BinaryTree>
    <BinaryTree type="DecisionTree" boostWeight="1.0000000000000000e+00" itree="68">
      <Node pos="s" depth="0" NCoef="0" IVar="4" Cut="7.1428573131561279e-01" cType="1" res="3.4461397444829345e-04" rms="4.2209920287132263e-01" purity="5.0000000000000000e-01" nType="0">
        <Node pos="l" depth="1" NCoef="0" IVar="6" Cut="1.1854922485351562e+02" cType="1" res="-2.7330806478857994e-03" rms="4.2195516824722290e-01" purity="4.4392177462577820e-01" nType="0">
          <Node pos="l" depth="2" NCoef="0" IVar="-1" Cut="0.0000000000000000e+00" cType="1" res="3.1144488602876663e-03" rms="4.0432718396186829e-01" purity="3.2457759976387024e-01" nType="-99"/>
          <Node pos="r" depth="2" NCoef="0" IVar="-1" Cut="0.0000000000000000e+00" cType="1" res="-5.4513756185770035e-03" rms="4.4364985823631287e-01" purity="5.9898626804351807e-01" nType="-99"/>
        </Node>
        <Node pos="r" depth="1" NCoef="0" IVar="4" Cut="1.6666666269302368e+00" cType="1" res="1.6180021921172738e-03" rms="4.2215219140052795e-01" purity="5.2320218086242676e-01" nType="0">
          <Node pos="l" depth="2" NCoef="0" IVar="7" Cut="8.5441802978515625e+01" cType="1" res="4.8753358423709869e-03" rms="4.1252341866493225e-01" purity="4.4260635972023010e-01" nType="0">
            <Node pos="l" depth="3" NCoef="0" IVar="-1" Cut="0.0000000000000000e+00" cType="1" res="9.3512348830699921e-03" rms="4.3555498123168945e-01" purity="4.3385073542594910e-01" nType="-99"/>
            <Node pos="r" depth="3" NCoef="0" IVar="-1" Cut="0.0000000000000000e+00" cType="1" res="-2.4901097640395164e-03" rms="3.9296135306358337e-01" purity="4.4958949089050293e-01" nType="-99"/>
          </Node>
          <Node pos="r" depth="2" NCoef="0" IVar="5" Cut="1.4288714599609375e+02" cType="1" res="-5.4192298557609320e-04" rms="4.2840403318405151e-01" purity="5.7664501667022705e-01" nType="0">
            <Node pos="l" depth="3" NCoef="0" IVar="1" Cut="1.1810239553451538e+00" cType="1" res="1.0940722189843655e-02" rms="4.2808189988136292e-01" purity="6.4934921264648438e-01" nType="0">
              <Node pos="l" depth="4" NCoef="0" IVar="-1" Cut="0.0000000000000000e+00" cType="1" res="8.2750990986824036e-03" rms="4.1997632384300232e-01" purity="6.5870547294616699e-01" nType="-99"/>
              <Node pos="r" depth="4" NCoef="0" IVar="-1" Cut="0.0000000000000000e+00" cType="1" res="2.6497610379010439e-03" rms="4.3435266613960266e-01" purity="6.4190602302551270e-01" nType="-99"/>
            </Node>
            <Node pos="r" depth="3" NCoef="0" IVar="-1" Cut="0.0000000000000000e+00" cType="1" res="-2.0207904279232025e-02" rms="4.2786142230033875e-01" purity="3.9478981494903564e-01" nType="-99"/>
          </Node>
        </Node>
      </Node>
    </BinaryTree>
    <BinaryTree type="DecisionTree" boostWeight="1.0000000000000000e+00" itree="69">
      <Node pos="s" depth="0" NCoef="0" IVar="7" Cut="1.2635140228271484e+02" cType="1" res="4.1699831490404904e-04" rms="4.2199268937110901e-01" purity="5.0000000000000000e-01" nType="0">
        <Node pos="l" depth="1" NCoef="0" IVar="7" Cut="3.6114437103271484e+01" cType="1" res="-7.2759477188810706e-04" rms="4.2520558834075928e-01" purity="4.7062867879867554e-01" nType="0">
          <Node pos="l" depth="2" NCoef="0" IVar="-1" Cut="0.0000000000000000e+00" cType="1" res="-1.2822294607758522e-02" rms="4.4683718681335449e-01" purity="4.7871860861778259e-01" nType="-99"/>
          <Node pos="r" depth="2" NCoef="0" IVar="4" Cut="6.1904764175415039e-01" cType="1" res="3.3677655737847090e-03" rms="4.2112490534782410e-01" purity="4.6919530630111694e-01" nType="0">
            <Node pos="l" depth="3" NCoef="0" IVar="0" Cut="8.3281892538070679e-01" cType="1" res="-9.2690130695700645e-03" rms="4.1926929354667664e-01" purity="4.1550502181053162e-01" nType="0">
              <Node pos="l" depth="4" NCoef="0" IVar="-1" Cut="0.0000000000000000e+00" cType="1" res="-3.1791806686669588e-03" rms="4.2658859491348267e-01" purity="4.4267445802688599e-01" nType="-99"/>
              <Node pos="r" depth="4" NCoef="0" IVar="-1" Cut="0.0000000000000000e+00" cType="1" res="-8.9058512821793556e-03" rms="4.1127133369445801e-01" purity="3.8649722933769226e-01" nType="-99"/>
            </Node>
            <Node pos="r" depth="3" NCoef="0" IVar="2" Cut="9.8211699724197388e-01" cType="1" res="9.1841034591197968e-03" rms="4.2184904217720032e-01" purity="4.9390736222267151e-01" nType="0">
              <Node pos="l" depth="4" NCoef="0" IVar="-1" Cut="0.0000000000000000e+00" cType="1" res="1.7185719916597009e-03" rms="4.0434589982032776e-01" purity="5.6553256511688232e-01" nType="-99"/>
              <Node pos="r" depth="4" NCoef="0" IVar="5" Cut="1.4344009399414062e+02" cType="1" res="1.4299282804131508e-02" rms="4.3631502985954285e-01" purity="4.3214011192321777e-01" nType="0">
                <Node pos="l" depth="5" NCoef="0" IVar="-1" Cut="0.0000000000000000e+00" cType="1" res="1.0874634608626366e-02" rms="4.4438827037811279e-01" purity="5.2630549669265747e-01" nType="-99"/>
                <Node pos="r" depth="5" NCoef="0" IVar="-1" Cut="0.0000000000000000e+00" cType="1" res="3.9287866093218327e-03" rms="4.2619854211807251e-01" purity="3.1863966584205627e-01" nType="-99"/>
              </Node>
            </Node>
          </Node>
        </Node>
        <Node pos="r" depth="1" NCoef="0" IVar="-1" Cut="0.0000000000000000e+00" cType="1" res="2.6347653474658728e-03" rms="4.0792843699455261e-01" purity="6.2562984228134155e-01" nType="-99"/>
      </Node>
    </BinaryTree>
    <BinaryTree type="DecisionTree" boostWeight="1.0000000000000000e+00" itree="70">
      <Node pos="s" depth="0" NCoef="0" IVar="2" Cut="1.9642339944839478e+00" cType="1" res="4.3387699406594038e-04" rms="4.2191803455352783e-01" purity="5.0000000000000000e-01" nType="0">
        <Node pos="l" depth="1" NCoef="0" IVar="2" Cut="1.4965569972991943e+00" cType="1" res="-5.7793041924014688e-04" rms="4.2644801735877991e-01" purity="5.5938524007797241e-01" nType="0">
          <Node pos="l" depth="2" NCoef="0" IVar="7" Cut="1.2642032623291016e+02" cType="1" res="9.8692567553371191e-04" rms="4.2045137286186218e-01" purity="5.7430452108383179e-01" nType="0">
            <Node pos="l" depth="3" NCoef="0" IVar="5" Cut="1.5919714355468750e+02" cType="1" res="-3.6187397199682891e-04" rms="4.2694985866546631e-01" purity="5.4290103912353516e-01" nType="0">
              <Node pos="l" depth="4" NCoef="0" IVar="6" Cut="5.1172084808349609e+01" cType="1" res="-3.6692963913083076e-03" rms="4.1980624198913574e-01" purity="4.7898033261299133e-01" nType="0">
                <Node pos="l" depth="5" NCoef="0" IVar="-1" Cut="0.0000000000000000e+00" cType="1" res="6.0797627083957195e-03" rms="4.2796224355697632e-01" purity="6.1083590984344482e-01" nType="-99"/>
                <Node pos="r" depth="5" NCoef="0" IVar="0" Cut="9.3049031496047974e-01" cType="1" res="-1.3124535791575909e-02" rms="4.1464358568191528e-01" purity="4.0143179893493652e-01" nType="0">
                  <Node pos="l" depth="6" NCoef="0" IVar="-1" Cut="0.0000000000000000e+00" cType="1" res="-1.2671209871768951e-02" rms="4.1452825069427490e-01" purity="3.8512811064720154e-01" nType="-99"/>
                  <Node pos="r" depth="6" NCoef="0" IVar="-1" Cut="0.0000000000000000e+00" cType="1" res="-2.8600557707250118e-03" rms="4.1465562582015991e-01" purity="4.2406946420669556e-01" nType="-99"/>
                </Node>
              </Node>
              <Node pos="r" depth="4" NCoef="0" IVar="-1" Cut="0.0000000000000000e+00" cType="1" res="3.0008191242814064e-03" rms="4.4311287999153137e-01" purity="6.9241046905517578e-01" nType="-99"/>
            </Node>
            <Node pos="r" depth="3" NCoef="0" IVar="-1" Cut="0.0000000000000000e+00" cType="1" res="2.8692013584077358e-03" rms="3.9494907855987549e-01" purity="6.9270271062850952e-01" nType="-99"/>
          </Node>
          <Node pos="r" depth="2" NCoef="0" IVar="-1" Cut="0.0000000000000000e+00" cType="1" res="-4.9281534738838673e-03" rms="4.5999068021774292e-01" purity="4.7174611687660217e-01" nType="-99"/>
        </Node>
        <Node pos="r" depth="1" NCoef="0" IVar="-1" Cut="0.0000000000000000e+00" cType="1" res="5.1534958183765411e-03" rms="4.0120828151702881e-01" purity="2.3696684837341309e-01" nType="-99"/>
      </Node>
    </BinaryTree>
    <BinaryTree type="DecisionTree" boostWeight="1.0000000000000000e+00" itree="71">
      <Node pos="s" depth="0" NCoef="0" IVar="6" Cut="1.1814180755615234e+02" cType="1" res="4.5111469808034599e-04" rms="4.2187729477882385e-01" purity="5.0000000000000000e-01" nType="0">
        <Node pos="l" depth="1" NCoef="0" IVar="6" Cut="9.1529441833496094e+01" cType="1" res="-3.6704691592603922e-04" rms="4.1998359560966492e-01" purity="4.7068229317665100e-01" nType="0">
          <Node pos="l" depth="2" NCoef="0" IVar="6" Cut="5.0344539642333984e+01" cType="1" res="-5.6660361588001251e-03" rms="4.1770067811012268e-01" purity="4.6658635139465332e-01" nType="0">
            <Node pos="l" depth="3" NCoef="0" IVar="6" Cut="3.2241218566894531e+01" cType="1" res="6.1826854944229126e-03" rms="4.2473447322845459e-01" purity="5.3624969720840454e-01" nType="0">
              <Node pos="l" depth="4" NCoef="0" IVar="-1" Cut="0.0000000000000000e+00" cType="1" res="-8.6796628311276436e-03" rms="4.2903682589530945e-01" purity="4.8607632517814636e-01" nType="-99"/>
              <Node pos="r" depth="4" NCoef="0" IVar="-1" Cut="0.0000000000000000e+00" cType="1" res="1.1570255272090435e-02" rms="4.2066624760627747e-01" purity="5.7491451501846313e-01" nType="-99"/>
            </Node>
            <Node pos="r" depth="3" NCoef="0" IVar="1" Cut="1.7327347993850708e+00" cType="1" res="-1.3973010703921318e-02" rms="4.1249501705169678e-01" purity="4.1774633526802063e-01" nType="0">
              <Node pos="l" depth="4" NCoef="0" IVar="3" Cut="1.0000000000000000e+00" cType="1" res="-2.0507866516709328e-02" rms="4.0264239907264709e-01" purity="3.9385253190994263e-01" nType="0">
                <Node pos="l" depth="5" NCoef="0" IVar="-1" Cut="0.0000000000000000e+00" cType="1" res="-8.9251995086669922e-03" rms="4.1991937160491943e-01" purity="4.7620892524719238e-01" nType="-99"/>
                <Node pos="r" depth="5" NCoef="0" IVar="-1" Cut="0.0000000000000000e+00" cType="1" res="-1.9047841429710388e-02" rms="3.8983085751533508e-01" purity="3.3188128471374512e-01" nType="-99"/>
              </Node>
              <Node pos="r" depth="4" NCoef="0" IVar="-1" Cut="0.0000000000000000e+00" cType="1" res="-3.8340192986652255e-04" rms="4.3096423149108887e-01" purity="4.6688845753669739e-01" nType="-99"/>
            </Node>
          </Node>
          <Node pos="r" depth="2" NCoef="0" IVar="-1" Cut="0.0000000000000000e+00" cType="1" res="1.1839835904538631e-02" rms="4.2878350615501404e-01" purity="4.8801064491271973e-01" nType="-99"/>
        </Node>
        <Node pos="r" depth="1" NCoef="0" IVar="-1" Cut="0.0000000000000000e+00" cType="1" res="2.0146234892308712e-03" rms="4.3093797564506531e-01" purity="6.4245134592056274e-01" nType="-99"/>
      </Node>
    </BinaryTree>
    <BinaryTree type="DecisionTree" boostWeight="1.0000000000000000e+00" itree="72">
      <Node pos="s" depth="0" NCoef="0" IVar="0" Cut="1.6864067316055298e+00" cType="1" res="6.4977892907336354e-04" rms="4.2173910140991211e-01" purity="5.0000000000000000e-01" nType="0">
        <Node pos="l" depth="1" NCoef="0" IVar="3" Cut="1.0000000000000000e+00" cType="1" res="1.5226092655211687e-03" rms="3.8361448049545288e-01" purity="5.1642769575119019e-01" nType="0">
          <Node pos="l" depth="2" NCoef="0" IVar="2" Cut="7.8952080011367798e-01" cType="1" res="-2.6620286516845226e-03" rms="4.2217692732810974e-01" purity="5.3442704677581787e-01" nType="0">
            <Node pos="l" depth="3" NCoef="0" IVar="-1" Cut="0.0000000000000000e+00" cType="1" res="1.3376065762713552e-03" rms="4.1495287418365479e-01" purity="6.2809032201766968e-01" nType="-99"/>
            <Node pos="r" depth="3" NCoef="0" IVar="-1" Cut="0.0000000000000000e+00" cType="1" res="-4.6779783442616463e-03" rms="4.2899063229560852e-01" purity="4.4375503063201904e-01" nType="-99"/>
          </Node>
          <Node pos="r" depth="2" NCoef="0" IVar="5" Cut="2.2955096435546875e+02" cType="1" res="4.3596397154033184e-03" rms="4.2557314038276672e-01" purity="5.0567138195037842e-01" nType="0">
            <Node pos="l" depth="3" NCoef="0" IVar="5" Cut="1.2629664611816406e+02" cType="1" res="1.8190474947914481e-03" rms="4.2742908000946045e-01" purity="4.7187492251396179e-01" nType="0">
              <Node pos="l" depth="4" NCoef="0" IVar="-1" Cut="0.0000000000000000e+00" cType="1" res="4.0770419873297215e-03" rms="4.0610516071319580e-01" purity="4.3202641606330872e-01" nType="-99"/>
              <Node pos="r" depth="4" NCoef="0" IVar="-1" Cut="0.0000000000000000e+00" cType="1" res="-2.3978459648787975e-03" rms="4.5577850937843323e-01" purity="5.2818369865417480e-01" nType="-99"/>
            </Node>
            <Node pos="r" depth="3" NCoef="0" IVar="-1" Cut="0.0000000000000000e+00" cType="1" res="5.7984469458460808e-03" rms="4.2000600695610046e-01" purity="6.0458230972290039e-01" nType="-99"/>
          </Node>
        </Node>
        <Node pos="r" depth="1" NCoef="0" IVar="7" Cut="7.5651176452636719e+01" cType="1" res="-2.5546860415488482e-03" rms="4.1399556398391724e-01" purity="4.5140731334686279e-01" nType="0">
          <Node pos="l" depth="2" NCoef="0" IVar="-1" Cut="0.0000000000000000e+00" cType="1" res="-7.3537495918571949e-03" rms="4.2093694210052490e-01" purity="4.1339474916458130e-01" nType="-99"/>
          <Node pos="r" depth="2" NCoef="0" IVar="-1" Cut="0.0000000000000000e+00" cType="1" res="4.2191194370388985e-03" rms="4.0624055266380310e-01" purity="4.9195283651351929e-01" nType="-99"/>
        </Node>
      </Node>
    </BinaryTree>
    <BinaryTree type="DecisionTree" boostWeight="1.0000000000000000e+00" itree="73">
      <Node pos="s" depth="0" NCoef="0" IVar="3" Cut="3.0000000000000000e+00" cType="1" res="1.6096575418487191e-03" rms="4.1770118474960327e-01" purity="5.0000000000000000e-01" nType="0">
        <Node pos="l" depth="1" NCoef="0" IVar="4" Cut="7.1428573131561279e-01" cType="1" res="1.2532296823337674e-03" rms="4.2131829261779785e-01" purity="5.1680099964141846e-01" nType="0">
          <Node pos="l" depth="2" NCoef="0" IVar="0" Cut="8.2504945993423462e-01" cType="1" res="-2.3090438917279243e-03" rms="4.2015936970710754e-01" purity="4.3706303834915161e-01" nType="0">
            <Node pos="l" depth="3" NCoef="0" IVar="-1" Cut="0.0000000000000000e+00" cType="1" res="7.7627383871003985e-04" rms="4.2474094033241272e-01" purity="4.6191319823265076e-01" nType="-99"/>
            <Node pos="r" depth="3" NCoef="0" IVar="-1" Cut="0.0000000000000000e+00" cType="1" res="-3.9392891339957714e-03" rms="4.1510662436485291e-01" purity="4.1016608476638794e-01" nType="-99"/>
          </Node>
          <Node pos="r" depth="2" NCoef="0" IVar="3" Cut="2.0000000000000000e+00" cType="1" res="4.9001374281942844e-04" rms="2.4357502162456512e-01" purity="5.4953360557556152e-01" nType="0">
            <Node pos="l" depth="3" NCoef="0" IVar="3" Cut="1.0000000000000000e+00" cType="1" res="3.5491400922182947e-05" rms="2.0226463675498962e-01" purity="5.7352828979492188e-01" nType="0">
              <Node pos="l" depth="4" NCoef="0" IVar="4" Cut="1.6666666269302368e+00" cType="1" res="4.6637640334665775e-03" rms="4.2072141170501709e-01" purity="6.2480080127716064e-01" nType="0">
                <Node pos="l" depth="5" NCoef="0" IVar="-1" Cut="0.0000000000000000e+00" cType="1" res="5.9950072318315506e-03" rms="4.3314293026924133e-01" purity="5.2127516269683838e-01" nType="-99"/>
                <Node pos="r" depth="5" NCoef="0" IVar="-1" Cut="0.0000000000000000e+00" cType="1" res="-3.6810457822866738e-04" rms="4.1095665097236633e-01" purity="7.0339965820312500e-01" nType="-99"/>
              </Node>
              <Node pos="r" depth="4" NCoef="0" IVar="-1" Cut="0.0000000000000000e+00" cType="1" res="-2.3060950916260481e-03" rms="4.1620388627052307e-01" purity="5.0944751501083374e-01" nType="-99"/>
            </Node>
            <Node pos="r" depth="3" NCoef="0" IVar="-1" Cut="0.0000000000000000e+00" cType="1" res="5.8101629838347435e-03" rms="4.3281990289688110e-01" purity="4.6039727330207825e-01" nType="-99"/>
          </Node>
        </Node>
        <Node pos="r" depth="1" NCoef="0" IVar="-1" Cut="0.0000000000000000e+00" cType="1" res="-2.5218944065272808e-03" rms="4.2430996894836426e-01" purity="3.8520032167434692e-01" nType="-99"/>
      </Node>
    </BinaryTree>
    <BinaryTree type="DecisionTree" boostWeight="1.0000000000000000e+00" itree="74">
      <Node pos="s" depth="0" NCoef="0" IVar="2" Cut="2.2916061878204346e+00" cType="1" res="4.9490813398733735e-04" rms="4.2168688774108887e-01" purity="5.0000000000000000e-01" nType="0">
        <Node pos="l" depth="1" NCoef="0" IVar="2" Cut="1.7459816932678223e+00" cType="1" res="-1.4511136396322399e-04" rms="4.2831847071647644e-01" purity="5.4748231172561646e-01" nType="0">
          <Node pos="l" depth="2" NCoef="0" IVar="2" Cut="1.3302615880966187e+00" cType="1" res="8.8909920305013657e-04" rms="4.2380610108375549e-01" purity="5.6724691390991211e-01" nType="0">
            <Node pos="l" depth="3" NCoef="0" IVar="2" Cut="5.7011187076568604e-01" cType="1" res="1.5754278138047084e-05" rms="4.1746401786804199e-01" purity="5.7814222574234009e-01" nType="0">
              <Node pos="l" depth="4" NCoef="0" IVar="1" Cut="1.4920998811721802e+00" cType="1" res="2.3254072293639183e-03" rms="4.0542832016944885e-01" purity="5.9264940023422241e-01" nType="0">
                <Node pos="l" depth="5" NCoef="0" IVar="-1" Cut="0.0000000000000000e+00" cType="1" res="-1.4916174404788762e-04" rms="3.9389964938163757e-01" purity="5.6440210342407227e-01" nType="-99"/>
                <Node pos="r" depth="5" NCoef="0" IVar="-1" Cut="0.0000000000000000e+00" cType="1" res="2.8434703126549721e-03" rms="4.2123305797576904e-01" purity="6.3276916742324829e-01" nType="-99"/>
              </Node>
              <Node pos="r" depth="4" NCoef="0" IVar="1" Cut="1.4332456588745117e+00" cType="1" res="-2.0932329352945089e-03" rms="4.2814773321151733e-01" purity="5.6489545106887817e-01" nType="0">
                <Node pos="l" depth="5" NCoef="0" IVar="-1" Cut="0.0000000000000000e+00" cType="1" res="1.1366169201210141e-03" rms="4.1980350017547607e-01" purity="5.4236483573913574e-01" nType="-99"/>
                <Node pos="r" depth="5" NCoef="0" IVar="-1" Cut="0.0000000000000000e+00" cType="1" res="-3.5202030558139086e-03" rms="4.3828028440475464e-01" purity="5.9301298856735229e-01" nType="-99"/>
              </Node>
            </Node>
            <Node pos="r" depth="3" NCoef="0" IVar="-1" Cut="0.0000000000000000e+00" cType="1" res="2.5886329822242260e-03" rms="4.5481979846954346e-01" purity="5.1155292987823486e-01" nType="-99"/>
          </Node>
          <Node pos="r" depth="2" NCoef="0" IVar="-1" Cut="0.0000000000000000e+00" cType="1" res="-4.3769925832748413e-03" rms="4.6019193530082703e-01" purity="4.0157175064086914e-01" nType="-99"/>
        </Node>
        <Node pos="r" depth="1" NCoef="0" IVar="-1" Cut="0.0000000000000000e+00" cType="1" res="7.4755498208105564e-03" rms="3.7369820475578308e-01" purity="1.7866016924381256e-01" nType="-99"/>
      </Node>
    </BinaryTree>
    <BinaryTree type="DecisionTree" boostWeight="1.0000000000000000e+00" itree="75">
      <Node pos="s" depth="0" NCoef="0" IVar="3" Cut="1.0000000000000000e+00" cType="1" res="1.3289274647831917e-03" rms="4.1766709089279175e-01" purity="5.0000000000000000e-01" nType="0">
        <Node pos="l" depth="1" NCoef="0" IVar="1" Cut="1.6721335649490356e+00" cType="1" res="-1.7896507633849978e-03" rms="4.2029061913490295e-01" purity="5.4398608207702637e-01" nType="0">
          <Node pos="l" depth="2" NCoef="0" IVar="2" Cut="9.7312647104263306e-01" cType="1" res="5.7230616221204400e-04" rms="4.1495439410209656e-01" purity="5.4360496997833252e-01" nType="0">
            <Node pos="l" depth="3" NCoef="0" IVar="-1" Cut="0.0000000000000000e+00" cType="1" res="1.4950025361031294e-03" rms="4.0705507993698120e-01" purity="6.3081860542297363e-01" nType="-99"/>
            <Node pos="r" depth="3" NCoef="0" IVar="-1" Cut="0.0000000000000000e+00" cType="1" res="-1.4811859000474215e-03" rms="4.2474469542503357e-01" purity="4.3297007679939270e-01" nType="-99"/>
          </Node>
          <Node pos="r" depth="2" NCoef="0" IVar="-1" Cut="0.0000000000000000e+00" cType="1" res="-3.2059801742434502e-03" rms="4.3000698089599609e-01" purity="5.4469484090805054e-01" nType="-99"/>
        </Node>
        <Node pos="r" depth="1" NCoef="0" IVar="0" Cut="1.6864067316055298e+00" cType="1" res="1.4418830396607518e-03" rms="4.2243027687072754e-01" purity="4.7559583187103271e-01" nType="0">
          <Node pos="l" depth="2" NCoef="0" IVar="5" Cut="2.2955096435546875e+02" cType="1" res="3.5056462511420250e-03" rms="4.2550161480903625e-01" purity="5.0567138195037842e-01" nType="0">
            <Node pos="l" depth="3" NCoef="0" IVar="6" Cut="7.9349334716796875e+01" cType="1" res="1.3728349003940821e-03" rms="4.2734849452972412e-01" purity="4.7187492251396179e-01" nType="0">
              <Node pos="l" depth="4" NCoef="0" IVar="2" Cut="7.8722113370895386e-01" cType="1" res="-2.6439221110194921e-03" rms="4.2214995622634888e-01" purity="4.4007596373558044e-01" nType="0">
                <Node pos="l" depth="5" NCoef="0" IVar="-1" Cut="0.0000000000000000e+00" cType="1" res="-5.8755762875080109e-03" rms="3.9950063824653625e-01" purity="4.3519932031631470e-01" nType="-99"/>
                <Node pos="r" depth="5" NCoef="0" IVar="-1" Cut="0.0000000000000000e+00" cType="1" res="2.1201076451689005e-03" rms="4.4268113374710083e-01" purity="4.4475039839744568e-01" nType="-99"/>
              </Node>
              <Node pos="r" depth="4" NCoef="0" IVar="-1" Cut="0.0000000000000000e+00" cType="1" res="3.6972276866436005e-03" rms="4.3495792150497437e-01" purity="5.1955848932266235e-01" nType="-99"/>
            </Node>
            <Node pos="r" depth="3" NCoef="0" IVar="-1" Cut="0.0000000000000000e+00" cType="1" res="4.8067718744277954e-03" rms="4.1998749971389771e-01" purity="6.0458230972290039e-01" nType="-99"/>
          </Node>
          <Node pos="r" depth="2" NCoef="0" IVar="-1" Cut="0.0000000000000000e+00" cType="1" res="-2.7318827342242002e-03" rms="4.1407588124275208e-01" purity="3.9537048339843750e-01" nType="-99"/>
        </Node>
      </Node>
    </BinaryTree>
    <BinaryTree type="DecisionTree" boostWeight="1.0000000000000000e+00" itree="76">
      <Node pos="s" depth="0" NCoef="0" IVar="0" Cut="2.3188085556030273e+00" cType="1" res="3.0968748615123332e-04" rms="4.2165729403495789e-01" purity="5.0000000000000000e-01" nType="0">
        <Node pos="l" depth="1" NCoef="0" IVar="0" Cut="1.7667039632797241e+00" cType="1" res="-3.3773868926800787e-04" rms="4.2325833439826965e-01" purity="5.0221854448318481e-01" nType="0">
          <Node pos="l" depth="2" NCoef="0" IVar="2" Cut="4.0483391284942627e-01" cType="1" res="7.9919508425518870e-04" rms="4.2410001158714294e-01" purity="5.1434463262557983e-01" nType="0">
            <Node pos="l" depth="3" NCoef="0" IVar="-1" Cut="0.0000000000000000e+00" cType="1" res="2.8822063468396664e-03" rms="4.0445038676261902e-01" purity="6.0505831241607666e-01" nType="-99"/>
            <Node pos="r" depth="3" NCoef="0" IVar="1" Cut="1.8651070594787598e+00" cType="1" res="-8.3820906002074480e-04" rms="4.3049645423889160e-01" purity="4.8382744193077087e-01" nType="0">
              <Node pos="l" depth="4" NCoef="0" IVar="4" Cut="1.2380952835083008e+00" cType="1" res="1.0929502313956618e-03" rms="4.2494821548461914e-01" purity="4.7435685992240906e-01" nType="0">
                <Node pos="l" depth="5" NCoef="0" IVar="7" Cut="8.7058685302734375e+01" cType="1" res="-2.7394706849008799e-03" rms="4.1630196571350098e-01" purity="3.9081645011901855e-01" nType="0">
                  <Node pos="l" depth="6" NCoef="0" IVar="-1" Cut="0.0000000000000000e+00" cType="1" res="1.4796281466260552e-03" rms="4.2716538906097412e-01" purity="3.8330557942390442e-01" nType="-99"/>
                  <Node pos="r" depth="6" NCoef="0" IVar="-1" Cut="0.0000000000000000e+00" cType="1" res="-4.3844883330166340e-03" rms="4.0724664926528931e-01" purity="3.9689913392066956e-01" nType="-99"/>
                </Node>
                <Node pos="r" depth="5" NCoef="0" IVar="-1" Cut="0.0000000000000000e+00" cType="1" res="3.4596822224557400e-03" rms="4.3843370676040649e-01" purity="6.0879057645797729e-01" nType="-99"/>
              </Node>
              <Node pos="r" depth="4" NCoef="0" IVar="-1" Cut="0.0000000000000000e+00" cType="1" res="-4.5494870282709599e-03" rms="4.5347008109092712e-01" purity="5.2451902627944946e-01" nType="-99"/>
            </Node>
          </Node>
          <Node pos="r" depth="2" NCoef="0" IVar="-1" Cut="0.0000000000000000e+00" cType="1" res="-4.9459640868008137e-03" rms="4.1759219765663147e-01" purity="4.2231017351150513e-01" nType="-99"/>
        </Node>
        <Node pos="r" depth="1" NCoef="0" IVar="-1" Cut="0.0000000000000000e+00" cType="1" res="3.2488363794982433e-03" rms="4.0880522131919861e-01" purity="4.8254388570785522e-01" nType="-99"/>
      </Node>
    </BinaryTree>
    <BinaryTree type="DecisionTree" boostWeight="1.0000000000000000e+00" itree="77">
      <Node pos="s" depth="0" NCoef="0" IVar="3" Cut="3.0000000000000000e+00" cType="1" res="1.3729373458772898e-03" rms="4.1763561964035034e-01" purity="5.0000000000000000e-01" nType="0">
        <Node pos="l" depth="1" NCoef="0" IVar="0" Cut="2.1080079078674316e+00" cType="1" res="9.0467114932835102e-04" rms="4.2125058174133301e-01" purity="5.1680099964141846e-01" nType="0">
          <Node pos="l" depth="2" NCoef="0" IVar="2" Cut="8.7582427263259888e-01" cType="1" res="1.3025823864154518e-04" rms="4.2181721329689026e-01" purity="5.1504015922546387e-01" nType="0">
            <Node pos="l" depth="3" NCoef="0" IVar="3" Cut="1.0000000000000000e+00" cType="1" res="5.5856531253084540e-04" rms="1.8756781518459320e-01" purity="5.9126120805740356e-01" nType="0">
              <Node pos="l" depth="4" NCoef="0" IVar="-1" Cut="0.0000000000000000e+00" cType="1" res="-1.0750532237580046e-04" rms="4.1627973318099976e-01" purity="6.2113201618194580e-01" nType="-99"/>
              <Node pos="r" depth="4" NCoef="0" IVar="-1" Cut="0.0000000000000000e+00" cType="1" res="2.4722472298890352e-03" rms="4.0144857764244080e-01" purity="5.6903713941574097e-01" nType="-99"/>
            </Node>
            <Node pos="r" depth="3" NCoef="0" IVar="1" Cut="1.4142099618911743e+00" cType="1" res="-2.5178065989166498e-03" rms="4.3612271547317505e-01" purity="4.3422871828079224e-01" nType="0">
              <Node pos="l" depth="4" NCoef="0" IVar="0" Cut="8.0303812026977539e-01" cType="1" res="1.0922853834927082e-03" rms="4.2977285385131836e-01" purity="4.3867349624633789e-01" nType="0">
                <Node pos="l" depth="5" NCoef="0" IVar="-1" Cut="0.0000000000000000e+00" cType="1" res="-2.2789028007537127e-03" rms="4.3360203504562378e-01" purity="4.5377266407012939e-01" nType="-99"/>
                <Node pos="r" depth="5" NCoef="0" IVar="-1" Cut="0.0000000000000000e+00" cType="1" res="3.9514601230621338e-03" rms="4.2567306756973267e-01" purity="4.2290595173835754e-01" nType="-99"/>
              </Node>
              <Node pos="r" depth="4" NCoef="0" IVar="-1" Cut="0.0000000000000000e+00" cType="1" res="-4.7681378200650215e-03" rms="4.4604447484016418e-01" purity="4.2710942029953003e-01" nType="-99"/>
            </Node>
          </Node>
          <Node pos="r" depth="2" NCoef="0" IVar="-1" Cut="0.0000000000000000e+00" cType="1" res="3.2329352106899023e-03" rms="4.1753712296485901e-01" purity="5.2817499637603760e-01" nType="-99"/>
        </Node>
        <Node pos="r" depth="1" NCoef="0" IVar="-1" Cut="0.0000000000000000e+00" cType="1" res="-2.3601157590746880e-03" rms="4.2427146434783936e-01" purity="3.8520032167434692e-01" nType="-99"/>
      </Node>
    </BinaryTree>
    <BinaryTree type="DecisionTree" boostWeight="1.0000000000000000e+00" itree="78">
      <Node pos="s" depth="0" NCoef="0" IVar="4" Cut="2.1428570747375488e+00" cType="1" res="3.2314527197740972e-04" rms="4.2162540555000305e-01" purity="5.0000000000000000e-01" nType="0">
        <Node pos="l" depth="1" NCoef="0" IVar="1" Cut="1.7327367067337036e+00" cType="1" res="1.0486432584002614e-03" rms="4.2135703563690186e-01" purity="4.7926604747772217e-01" nType="0">
          <Node pos="l" depth="2" NCoef="0" IVar="4" Cut="1.0476191043853760e+00" cType="1" res="-9.5591775607317686e-04" rms="4.1421255469322205e-01" purity="4.5900678634643555e-01" nType="0">
            <Node pos="l" depth="3" NCoef="0" IVar="2" Cut="1.4683090448379517e+00" cType="1" res="-3.2619414851069450e-03" rms="4.0764102339744568e-01" purity="4.1024601459503174e-01" nType="0">
              <Node pos="l" depth="4" NCoef="0" IVar="1" Cut="8.2512289285659790e-01" cType="1" res="-2.9600138077512383e-05" rms="4.0945607423782349e-01" purity="4.7083985805511475e-01" nType="0">
                <Node pos="l" depth="5" NCoef="0" IVar="-1" Cut="0.0000000000000000e+00" cType="1" res="-2.1397916134446859e-03" rms="3.9973536133766174e-01" purity="4.5397612452507019e-01" nType="-99"/>
                <Node pos="r" depth="5" NCoef="0" IVar="-1" Cut="0.0000000000000000e+00" cType="1" res="1.7680899472907186e-03" rms="4.1805726289749146e-01" purity="4.8614755272865295e-01" nType="-99"/>
              </Node>
              <Node pos="r" depth="4" NCoef="0" IVar="-1" Cut="0.0000000000000000e+00" cType="1" res="-1.1935577727854252e-02" rms="4.0242716670036316e-01" purity="2.4215111136436462e-01" nType="-99"/>
            </Node>
            <Node pos="r" depth="3" NCoef="0" IVar="-1" Cut="0.0000000000000000e+00" cType="1" res="2.6611199136823416e-03" rms="4.3138352036476135e-01" purity="5.9057551622390747e-01" nType="-99"/>
          </Node>
          <Node pos="r" depth="2" NCoef="0" IVar="5" Cut="1.7219523620605469e+02" cType="1" res="4.6114707365632057e-03" rms="4.3374216556549072e-01" purity="5.1527410745620728e-01" nType="0">
            <Node pos="l" depth="3" NCoef="0" IVar="-1" Cut="0.0000000000000000e+00" cType="1" res="-1.3612485490739346e-03" rms="4.3448457121849060e-01" purity="4.9634999036788940e-01" nType="-99"/>
            <Node pos="r" depth="3" NCoef="0" IVar="-1" Cut="0.0000000000000000e+00" cType="1" res="6.1399051919579506e-03" rms="4.3288472294807434e-01" purity="5.3410202264785767e-01" nType="-99"/>
          </Node>
        </Node>
        <Node pos="r" depth="1" NCoef="0" IVar="-1" Cut="0.0000000000000000e+00" cType="1" res="-1.4227202627807856e-03" rms="4.2274990677833557e-01" purity="5.8810079097747803e-01" nType="-99"/>
      </Node>
    </BinaryTree>
    <BinaryTree type="DecisionTree" boostWeight="1.0000000000000000e+00" itree="79">
      <Node pos="s" depth="0" NCoef="0" IVar="2" Cut="1.9642339944839478e+00" cType="1" res="4.3577220640145242e-04" rms="4.2160287499427795e-01" purity="5.0000000000000000e-01" nType="0">
        <Node pos="l" depth="1" NCoef="0" IVar="4" Cut="1.4285714626312256e+00" cType="1" res="-3.1105568632483482e-04" rms="4.2613342404365540e-01" purity="5.5938524007797241e-01" nType="0">
          <Node pos="l" depth="2" NCoef="0" IVar="6" Cut="1.1814366912841797e+02" cType="1" res="1.6320795984938741e-03" rms="4.2341226339340210e-01" purity="4.8857933282852173e-01" nType="0">
            <Node pos="l" depth="3" NCoef="0" IVar="5" Cut="1.5170109558105469e+02" cType="1" res="4.7562988474965096e-03" rms="4.1845598816871643e-01" purity="4.1187536716461182e-01" nType="0">
              <Node pos="l" depth="4" NCoef="0" IVar="5" Cut="1.0615593719482422e+02" cType="1" res="-9.9814580753445625e-03" rms="3.9494234323501587e-01" purity="2.9880923032760620e-01" nType="0">
                <Node pos="l" depth="5" NCoef="0" IVar="-1" Cut="0.0000000000000000e+00" cType="1" res="-2.3346617817878723e-02" rms="3.3247679471969604e-01" purity="1.6906985640525818e-01" nType="-99"/>
                <Node pos="r" depth="5" NCoef="0" IVar="-1" Cut="0.0000000000000000e+00" cType="1" res="-1.6406051581725478e-03" rms="4.4840216636657715e-01" purity="4.2782214283943176e-01" nType="-99"/>
              </Node>
              <Node pos="r" depth="4" NCoef="0" IVar="-1" Cut="0.0000000000000000e+00" cType="1" res="1.2804521247744560e-02" rms="4.5492598414421082e-01" purity="6.0617303848266602e-01" nType="-99"/>
            </Node>
            <Node pos="r" depth="3" NCoef="0" IVar="-1" Cut="0.0000000000000000e+00" cType="1" res="-2.5139444041997194e-03" rms="4.3483328819274902e-01" purity="6.7020297050476074e-01" nType="-99"/>
          </Node>
          <Node pos="r" depth="2" NCoef="0" IVar="5" Cut="8.8306938171386719e+01" cType="1" res="-3.1876815482974052e-03" rms="4.3011415004730225e-01" purity="6.6420656442642212e-01" nType="0">
            <Node pos="l" depth="3" NCoef="0" IVar="-1" Cut="0.0000000000000000e+00" cType="1" res="5.2094846032559872e-03" rms="4.6706497669219971e-01" purity="4.7212493419647217e-01" nType="-99"/>
            <Node pos="r" depth="3" NCoef="0" IVar="-1" Cut="0.0000000000000000e+00" cType="1" res="-4.2477636598050594e-03" rms="4.1169089078903198e-01" purity="7.5333160161972046e-01" nType="-99"/>
          </Node>
        </Node>
        <Node pos="r" depth="1" NCoef="0" IVar="-1" Cut="0.0000000000000000e+00" cType="1" res="3.9106593467295170e-03" rms="4.0090402960777283e-01" purity="2.3696684837341309e-01" nType="-99"/>
      </Node>
    </BinaryTree>
    <BinaryTree type="DecisionTree" boostWeight="1.0000000000000000e+00" itree="80">
      <Node pos="s" depth="0" NCoef="0" IVar="4" Cut="7.1428573131561279e-01" cType="1" res="4.7823699424043298e-04" rms="4.2153716087341309e-01" purity="5.0000000000000000e-01" nType="0">
        <Node pos="l" depth="1" NCoef="0" IVar="6" Cut="1.1854922485351562e+02" cType="1" res="-2.2610239684581757e-03" rms="4.2143601179122925e-01" purity="4.4392177462577820e-01" nType="0">
          <Node pos="l" depth="2" NCoef="0" IVar="-1" Cut="0.0000000000000000e+00" cType="1" res="2.4824552237987518e-03" rms="4.0369036793708801e-01" purity="3.2457759976387024e-01" nType="-99"/>
          <Node pos="r" depth="2" NCoef="0" IVar="-1" Cut="0.0000000000000000e+00" cType="1" res="-4.4194115325808525e-03" rms="4.4332677125930786e-01" purity="5.9898626804351807e-01" nType="-99"/>
        </Node>
        <Node pos="r" depth="1" NCoef="0" IVar="4" Cut="1.6666666269302368e+00" cType="1" res="1.6115992330014706e-03" rms="4.2157381772994995e-01" purity="5.2320218086242676e-01" nType="0">
          <Node pos="l" depth="2" NCoef="0" IVar="7" Cut="8.5441802978515625e+01" cType="1" res="6.0182968154549599e-03" rms="4.1221126914024353e-01" purity="4.4260635972023010e-01" nType="0">
            <Node pos="l" depth="3" NCoef="0" IVar="-1" Cut="0.0000000000000000e+00" cType="1" res="9.2576248571276665e-03" rms="4.3550959229469299e-01" purity="4.3385073542594910e-01" nType="-99"/>
            <Node pos="r" depth="3" NCoef="0" IVar="-1" Cut="0.0000000000000000e+00" cType="1" res="-1.0736320400610566e-03" rms="3.9246788620948792e-01" purity="4.4958949089050293e-01" nType="-99"/>
          </Node>
          <Node pos="r" depth="2" NCoef="0" IVar="5" Cut="1.4288714599609375e+02" cType="1" res="-1.3104646932333708e-03" rms="4.2764401435852051e-01" purity="5.7664501667022705e-01" nType="0">
            <Node pos="l" depth="3" NCoef="0" IVar="2" Cut="9.9246990680694580e-01" cType="1" res="7.7847917564213276e-03" rms="4.2743253707885742e-01" purity="6.4934921264648438e-01" nType="0">
              <Node pos="l" depth="4" NCoef="0" IVar="-1" Cut="0.0000000000000000e+00" cType="1" res="1.7883182736113667e-03" rms="4.1084226965904236e-01" purity="6.7061358690261841e-01" nType="-99"/>
              <Node pos="r" depth="4" NCoef="0" IVar="-1" Cut="0.0000000000000000e+00" cType="1" res="5.6530199944972992e-03" rms="4.4682782888412476e-01" purity="6.2335026264190674e-01" nType="-99"/>
            </Node>
            <Node pos="r" depth="3" NCoef="0" IVar="-1" Cut="0.0000000000000000e+00" cType="1" res="-1.6467215493321419e-02" rms="4.2732566595077515e-01" purity="3.9478981494903564e-01" nType="-99"/>
          </Node>
        </Node>
      </Node>
    </BinaryTree>
    <BinaryTree type="DecisionTree" boostWeight="1.0000000000000000e+00" itree="81">
      <Node pos="s" depth="0" NCoef="0" IVar="7" Cut="1.2635140228271484e+02" cType="1" res="4.7228197217918932e-04" rms="4.2146414518356323e-01" purity="5.0000000000000000e-01" nType="0">
        <Node pos="l" depth="1" NCoef="0" IVar="7" Cut="3.6114437103271484e+01" cType="1" res="-5.5925938067957759e-04" rms="4.2466622591018677e-01" purity="4.7062867879867554e-01" nType="0">
          <Node pos="l" depth="2" NCoef="0" IVar="-1" Cut="0.0000000000000000e+00" cType="1" res="-1.0875883512198925e-02" rms="4.4626948237419128e-01" purity="4.7871860861778259e-01" nType="-99"/>
          <Node pos="r" depth="2" NCoef="0" IVar="4" Cut="6.1904764175415039e-01" cType="1" res="2.9267901554703712e-03" rms="4.2062702775001526e-01" purity="4.6919530630111694e-01" nType="0">
            <Node pos="l" depth="3" NCoef="0" IVar="0" Cut="8.3281892538070679e-01" cType="1" res="-8.5810385644435883e-03" rms="4.1867202520370483e-01" purity="4.1550502181053162e-01" nType="0">
              <Node pos="l" depth="4" NCoef="0" IVar="-1" Cut="0.0000000000000000e+00" cType="1" res="-3.5813983995467424e-03" rms="4.2599117755889893e-01" purity="4.4267445802688599e-01" nType="-99"/>
              <Node pos="r" depth="4" NCoef="0" IVar="-1" Cut="0.0000000000000000e+00" cType="1" res="-7.5301965698599815e-03" rms="4.1069665551185608e-01" purity="3.8649722933769226e-01" nType="-99"/>
            </Node>
            <Node pos="r" depth="3" NCoef="0" IVar="4" Cut="2.1428570747375488e+00" cType="1" res="8.2235056906938553e-03" rms="4.2141821980476379e-01" purity="4.9390736222267151e-01" nType="0">
              <Node pos="l" depth="4" NCoef="0" IVar="6" Cut="6.0351997375488281e+01" cType="1" res="1.1709219776093960e-02" rms="4.1940361261367798e-01" purity="4.6764951944351196e-01" nType="0">
                <Node pos="l" depth="5" NCoef="0" IVar="-1" Cut="0.0000000000000000e+00" cType="1" res="1.1942370794713497e-02" rms="4.1331782937049866e-01" purity="4.6118244528770447e-01" nType="-99"/>
                <Node pos="r" depth="5" NCoef="0" IVar="-1" Cut="0.0000000000000000e+00" cType="1" res="3.0775722116231918e-03" rms="4.2395108938217163e-01" purity="4.7265848517417908e-01" nType="-99"/>
              </Node>
              <Node pos="r" depth="4" NCoef="0" IVar="-1" Cut="0.0000000000000000e+00" cType="1" res="-8.9892884716391563e-04" rms="4.2696636915206909e-01" purity="5.6894814968109131e-01" nType="-99"/>
            </Node>
          </Node>
        </Node>
        <Node pos="r" depth="1" NCoef="0" IVar="-1" Cut="0.0000000000000000e+00" cType="1" res="2.4339745286852121e-03" rms="4.0745455026626587e-01" purity="6.2562984228134155e-01" nType="-99"/>
      </Node>
    </BinaryTree>
    <BinaryTree type="DecisionTree" boostWeight="1.0000000000000000e+00" itree="82">
      <Node pos="s" depth="0" NCoef="0" IVar="6" Cut="1.1814180755615234e+02" cType="1" res="4.3918631854467094e-04" rms="4.2139223217964172e-01" purity="5.0000000000000000e-01" nType="0">
        <Node pos="l" depth="1" NCoef="0" IVar="6" Cut="8.7094146728515625e+01" cType="1" res="-6.5945065580308437e-04" rms="4.1945445537567139e-01" purity="4.7068229317665100e-01" nType="0">
          <Node pos="l" depth="2" NCoef="0" IVar="6" Cut="5.1611671447753906e+01" cType="1" res="-5.1303608343005180e-03" rms="4.1711381077766418e-01" purity="4.6844959259033203e-01" nType="0">
            <Node pos="l" depth="3" NCoef="0" IVar="6" Cut="3.1336103439331055e+01" cType="1" res="3.1426446512341499e-03" rms="4.2370918393135071e-01" purity="5.3261953592300415e-01" nType="0">
              <Node pos="l" depth="4" NCoef="0" IVar="-1" Cut="0.0000000000000000e+00" cType="1" res="-8.7776659056544304e-03" rms="4.2915740609169006e-01" purity="4.8146098852157593e-01" nType="-99"/>
              <Node pos="r" depth="4" NCoef="0" IVar="-1" Cut="0.0000000000000000e+00" cType="1" res="7.4524180963635445e-03" rms="4.1999036073684692e-01" purity="5.6362146139144897e-01" nType="-99"/>
            </Node>
            <Node pos="r" depth="3" NCoef="0" IVar="1" Cut="1.7327347993850708e+00" cType="1" res="-1.2019640766084194e-02" rms="4.1141399741172791e-01" purity="4.1501253843307495e-01" nType="0">
              <Node pos="l" depth="4" NCoef="0" IVar="1" Cut="9.0762418508529663e-01" cType="1" res="-1.7222322523593903e-02" rms="4.0229931473731995e-01" purity="3.9149039983749390e-01" nType="0">
                <Node pos="l" depth="5" NCoef="0" IVar="-1" Cut="0.0000000000000000e+00" cType="1" res="-1.4692679978907108e-02" rms="3.9640146493911743e-01" purity="3.8585132360458374e-01" nType="-99"/>
                <Node pos="r" depth="5" NCoef="0" IVar="-1" Cut="0.0000000000000000e+00" cType="1" res="-8.8132368400692940e-03" rms="4.0893042087554932e-01" purity="3.9796650409698486e-01" nType="-99"/>
              </Node>
              <Node pos="r" depth="4" NCoef="0" IVar="-1" Cut="0.0000000000000000e+00" cType="1" res="-6.8394618574529886e-04" rms="4.2954123020172119e-01" purity="4.6390894055366516e-01" nType="-99"/>
            </Node>
          </Node>
          <Node pos="r" depth="2" NCoef="0" IVar="-1" Cut="0.0000000000000000e+00" cType="1" res="7.8188721090555191e-03" rms="4.2676457762718201e-01" purity="4.7805991768836975e-01" nType="-99"/>
        </Node>
        <Node pos="r" depth="1" NCoef="0" IVar="-1" Cut="0.0000000000000000e+00" cType="1" res="2.6338198222219944e-03" rms="4.3064358830451965e-01" purity="6.4245134592056274e-01" nType="-99"/>
      </Node>
    </BinaryTree>
    <BinaryTree type="DecisionTree" boostWeight="1.0000000000000000e+00" itree="83">
      <Node pos="s" depth="0" NCoef="0" IVar="6" Cut="1.1814180755615234e+02" cType="1" res="5.3751311497762799e-04" rms="4.2131054401397705e-01" purity="5.0000000000000000e-01" nType="0">
        <Node pos="l" depth="1" NCoef="0" IVar="6" Cut="9.1529441833496094e+01" cType="1" res="-3.3408694434911013e-04" rms="4.1935607790946960e-01" purity="4.7068229317665100e-01" nType="0">
          <Node pos="l" depth="2" NCoef="0" IVar="6" Cut="5.0344539642333984e+01" cType="1" res="-3.4992534201592207e-03" rms="4.1710054874420166e-01" purity="4.6658635139465332e-01" nType="0">
            <Node pos="l" depth="3" NCoef="0" IVar="1" Cut="1.6387506723403931e+00" cType="1" res="3.6735876929014921e-03" rms="4.2408522963523865e-01" purity="5.3624969720840454e-01" nType="0">
              <Node pos="l" depth="4" NCoef="0" IVar="-1" Cut="0.0000000000000000e+00" cType="1" res="8.2961581647396088e-03" rms="4.2362517118453979e-01" purity="5.7308095693588257e-01" nType="-99"/>
              <Node pos="r" depth="4" NCoef="0" IVar="-1" Cut="0.0000000000000000e+00" cType="1" res="-6.1441874131560326e-03" rms="4.2417263984680176e-01" purity="4.9316376447677612e-01" nType="-99"/>
            </Node>
            <Node pos="r" depth="3" NCoef="0" IVar="5" Cut="1.4812944030761719e+02" cType="1" res="-8.5280332714319229e-03" rms="4.1205865144729614e-01" purity="4.1774633526802063e-01" nType="0">
              <Node pos="l" depth="4" NCoef="0" IVar="5" Cut="9.7995742797851562e+01" cType="1" res="-1.4152289368212223e-02" rms="4.0000036358833313e-01" purity="4.1466230154037476e-01" nType="0">
                <Node pos="l" depth="5" NCoef="0" IVar="-1" Cut="0.0000000000000000e+00" cType="1" res="-2.7745572850108147e-02" rms="3.5154899954795837e-01" purity="2.4642837047576904e-01" nType="-99"/>
                <Node pos="r" depth="5" NCoef="0" IVar="-1" Cut="0.0000000000000000e+00" cType="1" res="-2.4423152208328247e-03" rms="4.3162211775779724e-01" purity="5.3713601827621460e-01" nType="-99"/>
              </Node>
              <Node pos="r" depth="4" NCoef="0" IVar="-1" Cut="0.0000000000000000e+00" cType="1" res="6.4799725078046322e-04" rms="4.3165585398674011e-01" purity="4.2299979925155640e-01" nType="-99"/>
            </Node>
          </Node>
          <Node pos="r" depth="2" NCoef="0" IVar="-1" Cut="0.0000000000000000e+00" cType="1" res="7.1042035706341267e-03" rms="4.2850840091705322e-01" purity="4.8801064491271973e-01" nType="-99"/>
        </Node>
        <Node pos="r" depth="1" NCoef="0" IVar="-1" Cut="0.0000000000000000e+00" cType="1" res="2.1796734072268009e-03" rms="4.3065583705902100e-01" purity="6.4245134592056274e-01" nType="-99"/>
      </Node>
    </BinaryTree>
    <BinaryTree type="DecisionTree" boostWeight="1.0000000000000000e+00" itree="84">
      <Node pos="s" depth="0" NCoef="0" IVar="4" Cut="7.1428573131561279e-01" cType="1" res="7.1557308547198772e-04" rms="4.2123752832412720e-01" purity="5.0000000000000000e-01" nType="0">
        <Node pos="l" depth="1" NCoef="0" IVar="6" Cut="1.1854922485351562e+02" cType="1" res="-2.7360257226973772e-03" rms="4.2127767205238342e-01" purity="4.4392177462577820e-01" nType="0">
          <Node pos="l" depth="2" NCoef="0" IVar="-1" Cut="0.0000000000000000e+00" cType="1" res="1.1829112190753222e-03" rms="4.0354046225547791e-01" purity="3.2457759976387024e-01" nType="-99"/>
          <Node pos="r" depth="2" NCoef="0" IVar="-1" Cut="0.0000000000000000e+00" cType="1" res="-3.8560009561479092e-03" rms="4.4320139288902283e-01" purity="5.9898626804351807e-01" nType="-99"/>
        </Node>
        <Node pos="r" depth="1" NCoef="0" IVar="4" Cut="1.6666666269302368e+00" cType="1" res="2.1436633542180061e-03" rms="4.2121264338493347e-01" purity="5.2320218086242676e-01" nType="0">
          <Node pos="l" depth="2" NCoef="0" IVar="7" Cut="8.5441802978515625e+01" cType="1" res="5.6151403114199638e-03" rms="4.1197258234024048e-01" purity="4.4260635972023010e-01" nType="0">
            <Node pos="l" depth="3" NCoef="0" IVar="-1" Cut="0.0000000000000000e+00" cType="1" res="8.1763332709670067e-03" rms="4.3554192781448364e-01" purity="4.3385073542594910e-01" nType="-99"/>
            <Node pos="r" depth="3" NCoef="0" IVar="-1" Cut="0.0000000000000000e+00" cType="1" res="-5.7918846141546965e-04" rms="3.9203768968582153e-01" purity="4.4958949089050293e-01" nType="-99"/>
          </Node>
          <Node pos="r" depth="2" NCoef="0" IVar="5" Cut="1.4288714599609375e+02" cType="1" res="-1.5825970331206918e-04" rms="4.2721393704414368e-01" purity="5.7664501667022705e-01" nType="0">
            <Node pos="l" depth="3" NCoef="0" IVar="2" Cut="8.2705825567245483e-01" cType="1" res="7.2577465325593948e-03" rms="4.2703062295913696e-01" purity="6.4934921264648438e-01" nType="0">
              <Node pos="l" depth="4" NCoef="0" IVar="-1" Cut="0.0000000000000000e+00" cType="1" res="1.7569507472217083e-03" rms="4.0827742218971252e-01" purity="6.6879588365554810e-01" nType="-99"/>
              <Node pos="r" depth="4" NCoef="0" IVar="-1" Cut="0.0000000000000000e+00" cType="1" res="4.6623446978628635e-03" rms="4.4244116544723511e-01" purity="6.3268756866455078e-01" nType="-99"/>
            </Node>
            <Node pos="r" depth="3" NCoef="0" IVar="-1" Cut="0.0000000000000000e+00" cType="1" res="-1.2774765491485596e-02" rms="4.2710867524147034e-01" purity="3.9478981494903564e-01" nType="-99"/>
          </Node>
        </Node>
      </Node>
    </BinaryTree>
    <BinaryTree type="DecisionTree" boostWeight="1.0000000000000000e+00" itree="85">
      <Node pos="s" depth="0" NCoef="0" IVar="6" Cut="1.1814180755615234e+02" cType="1" res="6.5056059975177050e-04" rms="4.2118880152702332e-01" purity="5.0000000000000000e-01" nType="0">
        <Node pos="l" depth="1" NCoef="0" IVar="6" Cut="9.1529441833496094e+01" cType="1" res="-2.8967126854695380e-04" rms="4.1920897364616394e-01" purity="4.7068229317665100e-01" nType="0">
          <Node pos="l" depth="2" NCoef="0" IVar="6" Cut="5.0344539642333984e+01" cType="1" res="-2.7136234566569328e-03" rms="4.1694915294647217e-01" purity="4.6658635139465332e-01" nType="0">
            <Node pos="l" depth="3" NCoef="0" IVar="6" Cut="3.1034351348876953e+01" cType="1" res="2.8859197627753019e-03" rms="4.2394760251045227e-01" purity="5.3624969720840454e-01" nType="0">
              <Node pos="l" depth="4" NCoef="0" IVar="-1" Cut="0.0000000000000000e+00" cType="1" res="-7.7555906027555466e-03" rms="4.2946425080299377e-01" purity="4.7963955998420715e-01" nType="-99"/>
              <Node pos="r" depth="4" NCoef="0" IVar="-1" Cut="0.0000000000000000e+00" cType="1" res="6.7121819593012333e-03" rms="4.2021715641021729e-01" purity="5.7101136445999146e-01" nType="-99"/>
            </Node>
            <Node pos="r" depth="3" NCoef="0" IVar="5" Cut="1.4812944030761719e+02" cType="1" res="-6.6393851302564144e-03" rms="4.1192635893821716e-01" purity="4.1774633526802063e-01" nType="0">
              <Node pos="l" depth="4" NCoef="0" IVar="1" Cut="1.1190654039382935e+00" cType="1" res="-1.1438063345849514e-02" rms="3.9990615844726562e-01" purity="4.1466230154037476e-01" nType="0">
                <Node pos="l" depth="5" NCoef="0" IVar="-1" Cut="0.0000000000000000e+00" cType="1" res="-1.4367047697305679e-02" rms="3.8588467240333557e-01" purity="3.7101399898529053e-01" nType="-99"/>
                <Node pos="r" depth="5" NCoef="0" IVar="-1" Cut="0.0000000000000000e+00" cType="1" res="-2.1112298127263784e-03" rms="4.1311970353126526e-01" purity="4.5771196484565735e-01" nType="-99"/>
              </Node>
              <Node pos="r" depth="4" NCoef="0" IVar="-1" Cut="0.0000000000000000e+00" cType="1" res="9.4420165987685323e-04" rms="4.3150907754898071e-01" purity="4.2299979925155640e-01" nType="-99"/>
            </Node>
          </Node>
          <Node pos="r" depth="2" NCoef="0" IVar="-1" Cut="0.0000000000000000e+00" cType="1" res="5.4362551309168339e-03" rms="4.2848578095436096e-01" purity="4.8801064491271973e-01" nType="-99"/>
        </Node>
        <Node pos="r" depth="1" NCoef="0" IVar="-1" Cut="0.0000000000000000e+00" cType="1" res="2.3823520168662071e-03" rms="4.3064978718757629e-01" purity="6.4245134592056274e-01" nType="-99"/>
      </Node>
    </BinaryTree>
    <BinaryTree type="DecisionTree" boostWeight="1.0000000000000000e+00" itree="86">
      <Node pos="s" depth="0" NCoef="0" IVar="4" Cut="7.1428573131561279e-01" cType="1" res="6.6262832842767239e-04" rms="4.2113804817199707e-01" purity="5.0000000000000000e-01" nType="0">
        <Node pos="l" depth="1" NCoef="0" IVar="0" Cut="1.0416620969772339e+00" cType="1" res="-3.2669384963810444e-03" rms="4.2122679948806763e-01" purity="4.4392177462577820e-01" nType="0">
          <Node pos="l" depth="2" NCoef="0" IVar="-1" Cut="0.0000000000000000e+00" cType="1" res="2.0185693574603647e-04" rms="4.2539972066879272e-01" purity="4.7049841284751892e-01" nType="-99"/>
          <Node pos="r" depth="2" NCoef="0" IVar="-1" Cut="0.0000000000000000e+00" cType="1" res="-6.0200337320566177e-03" rms="4.1399952769279480e-01" purity="3.9896386861801147e-01" nType="-99"/>
        </Node>
        <Node pos="r" depth="1" NCoef="0" IVar="2" Cut="1.9642339944839478e+00" cType="1" res="2.2884765639901161e-03" rms="4.2109060287475586e-01" purity="5.2320218086242676e-01" nType="0">
          <Node pos="l" depth="2" NCoef="0" IVar="5" Cut="1.5334861755371094e+02" cType="1" res="8.8070909259840846e-04" rms="4.2369246482849121e-01" purity="5.9118366241455078e-01" nType="0">
            <Node pos="l" depth="3" NCoef="0" IVar="5" Cut="7.9684913635253906e+01" cType="1" res="4.1936775669455528e-03" rms="4.1762021183967590e-01" purity="5.6828635931015015e-01" nType="0">
              <Node pos="l" depth="4" NCoef="0" IVar="-1" Cut="0.0000000000000000e+00" cType="1" res="-1.5338381752371788e-02" rms="3.9855527877807617e-01" purity="2.6717489957809448e-01" nType="-99"/>
              <Node pos="r" depth="4" NCoef="0" IVar="2" Cut="8.4181779623031616e-01" cType="1" res="1.2444226071238518e-02" rms="4.2416059970855713e-01" purity="6.7970299720764160e-01" nType="0">
                <Node pos="l" depth="5" NCoef="0" IVar="-1" Cut="0.0000000000000000e+00" cType="1" res="9.6452077850699425e-03" rms="4.0962600708007812e-01" purity="7.3912733793258667e-01" nType="-99"/>
                <Node pos="r" depth="5" NCoef="0" IVar="-1" Cut="0.0000000000000000e+00" cType="1" res="1.6477187164127827e-03" rms="4.3755784630775452e-01" purity="6.2231379747390747e-01" nType="-99"/>
              </Node>
            </Node>
            <Node pos="r" depth="3" NCoef="0" IVar="-1" Cut="0.0000000000000000e+00" cType="1" res="-5.1336735486984253e-03" rms="4.4627958536148071e-01" purity="6.8019145727157593e-01" nType="-99"/>
          </Node>
          <Node pos="r" depth="2" NCoef="0" IVar="-1" Cut="0.0000000000000000e+00" cType="1" res="7.5728041119873524e-03" rms="4.1062402725219727e-01" purity="2.5515639781951904e-01" nType="-99"/>
        </Node>
      </Node>
    </BinaryTree>
    <BinaryTree type="DecisionTree" boostWeight="1.0000000000000000e+00" itree="87">
      <Node pos="s" depth="0" NCoef="0" IVar="4" Cut="7.1428573131561279e-01" cType="1" res="7.3485384928062558e-04" rms="4.2107942700386047e-01" purity="5.0000000000000000e-01" nType="0">
        <Node pos="l" depth="1" NCoef="0" IVar="6" Cut="1.1854922485351562e+02" cType="1" res="-2.5108794216066599e-03" rms="4.2122283577919006e-01" purity="4.4392177462577820e-01" nType="0">
          <Node pos="l" depth="2" NCoef="0" IVar="-1" Cut="0.0000000000000000e+00" cType="1" res="6.9333671126514673e-04" rms="4.0347114205360413e-01" purity="3.2457759976387024e-01" nType="-99"/>
          <Node pos="r" depth="2" NCoef="0" IVar="-1" Cut="0.0000000000000000e+00" cType="1" res="-3.2144980505108833e-03" rms="4.4318684935569763e-01" purity="5.9898626804351807e-01" nType="-99"/>
        </Node>
        <Node pos="r" depth="1" NCoef="0" IVar="1" Cut="1.6387418508529663e+00" cType="1" res="2.0777676254510880e-03" rms="4.2101275920867920e-01" purity="5.2320218086242676e-01" nType="0">
          <Node pos="l" depth="2" NCoef="0" IVar="4" Cut="1.6666666269302368e+00" cType="1" res="4.2853895574808121e-03" rms="4.1553038358688354e-01" purity="5.2510631084442139e-01" nType="0">
            <Node pos="l" depth="3" NCoef="0" IVar="-1" Cut="0.0000000000000000e+00" cType="1" res="1.0261214338243008e-03" rms="4.0172114968299866e-01" purity="4.1913378238677979e-01" nType="-99"/>
            <Node pos="r" depth="3" NCoef="0" IVar="1" Cut="7.8035467863082886e-01" cType="1" res="6.4223669469356537e-03" rms="4.2609056830406189e-01" purity="6.0865896940231323e-01" nType="0">
              <Node pos="l" depth="4" NCoef="0" IVar="-1" Cut="0.0000000000000000e+00" cType="1" res="4.7530764713883400e-03" rms="4.2417836189270020e-01" purity="6.2544322013854980e-01" nType="-99"/>
              <Node pos="r" depth="4" NCoef="0" IVar="-1" Cut="0.0000000000000000e+00" cType="1" res="1.7768422840163112e-03" rms="4.2782342433929443e-01" purity="5.9320253133773804e-01" nType="-99"/>
            </Node>
          </Node>
          <Node pos="r" depth="2" NCoef="0" IVar="5" Cut="1.4497055053710938e+02" cType="1" res="-1.4139572158455849e-03" rms="4.2951804399490356e-01" purity="5.2019059658050537e-01" nType="0">
            <Node pos="l" depth="3" NCoef="0" IVar="-1" Cut="0.0000000000000000e+00" cType="1" res="2.0811494905501604e-03" rms="4.3353292346000671e-01" purity="5.9032005071640015e-01" nType="-99"/>
            <Node pos="r" depth="3" NCoef="0" IVar="-1" Cut="0.0000000000000000e+00" cType="1" res="-6.5254406072199345e-03" rms="4.2334088683128357e-01" purity="4.1601300239562988e-01" nType="-99"/>
          </Node>
        </Node>
      </Node>
    </BinaryTree>
    <BinaryTree type="DecisionTree" boostWeight="1.0000000000000000e+00" itree="88">
      <Node pos="s" depth="0" NCoef="0" IVar="6" Cut="1.1814180755615234e+02" cType="1" res="6.3124508596956730e-04" rms="4.2106503248214722e-01" purity="5.0000000000000000e-01" nType="0">
        <Node pos="l" depth="1" NCoef="0" IVar="6" Cut="8.7094146728515625e+01" cType="1" res="-4.4825946679338813e-04" rms="4.1907617449760437e-01" purity="4.7068229317665100e-01" nType="0">
          <Node pos="l" depth="2" NCoef="0" IVar="6" Cut="5.4568523406982422e+01" cType="1" res="-2.8382148593664169e-03" rms="4.1674408316612244e-01" purity="4.6844959259033203e-01" nType="0">
            <Node pos="l" depth="3" NCoef="0" IVar="7" Cut="7.5651176452636719e+01" cType="1" res="9.9839712493121624e-04" rms="4.2217934131622314e-01" purity="5.2461206912994385e-01" nType="0">
              <Node pos="l" depth="4" NCoef="0" IVar="-1" Cut="0.0000000000000000e+00" cType="1" res="-4.4826846569776535e-03" rms="4.3663758039474487e-01" purity="4.6626949310302734e-01" nType="-99"/>
              <Node pos="r" depth="4" NCoef="0" IVar="-1" Cut="0.0000000000000000e+00" cType="1" res="7.0841219276189804e-03" rms="4.0102508664131165e-01" purity="6.0523271560668945e-01" nType="-99"/>
            </Node>
            <Node pos="r" depth="3" NCoef="0" IVar="5" Cut="1.4812944030761719e+02" cType="1" res="-6.7209862172603607e-03" rms="4.1113385558128357e-01" purity="4.1161140799522400e-01" nType="0">
              <Node pos="l" depth="4" NCoef="0" IVar="-1" Cut="0.0000000000000000e+00" cType="1" res="-7.4336244724690914e-03" rms="3.9931562542915344e-01" purity="4.0553557872772217e-01" nType="-99"/>
              <Node pos="r" depth="4" NCoef="0" IVar="-1" Cut="0.0000000000000000e+00" cType="1" res="5.1600311417132616e-04" rms="4.3047508597373962e-01" purity="4.2199459671974182e-01" nType="-99"/>
            </Node>
          </Node>
          <Node pos="r" depth="2" NCoef="0" IVar="-1" Cut="0.0000000000000000e+00" cType="1" res="4.1507552377879620e-03" rms="4.2659637331962585e-01" purity="4.7805991768836975e-01" nType="-99"/>
        </Node>
        <Node pos="r" depth="1" NCoef="0" IVar="-1" Cut="0.0000000000000000e+00" cType="1" res="2.6817573234438896e-03" rms="4.3055930733680725e-01" purity="6.4245134592056274e-01" nType="-99"/>
      </Node>
    </BinaryTree>
    <BinaryTree type="DecisionTree" boostWeight="1.0000000000000000e+00" itree="89">
      <Node pos="s" depth="0" NCoef="0" IVar="4" Cut="7.1428573131561279e-01" cType="1" res="6.2345410697162151e-04" rms="4.2103487253189087e-01" purity="5.0000000000000000e-01" nType="0">
        <Node pos="l" depth="1" NCoef="0" IVar="0" Cut="1.0416620969772339e+00" cType="1" res="-3.0396168585866690e-03" rms="4.2118731141090393e-01" purity="4.4392177462577820e-01" nType="0">
          <Node pos="l" depth="2" NCoef="0" IVar="-1" Cut="0.0000000000000000e+00" cType="1" res="-1.3852088886778802e-04" rms="4.2536440491676331e-01" purity="4.7049841284751892e-01" nType="-99"/>
          <Node pos="r" depth="2" NCoef="0" IVar="-1" Cut="0.0000000000000000e+00" cType="1" res="-4.9596345052123070e-03" rms="4.1398242115974426e-01" purity="3.9896386861801147e-01" nType="-99"/>
        </Node>
        <Node pos="r" depth="1" NCoef="0" IVar="4" Cut="1.6666666269302368e+00" cType="1" res="2.1390402689576149e-03" rms="4.2096248269081116e-01" purity="5.2320218086242676e-01" nType="0">
          <Node pos="l" depth="2" NCoef="0" IVar="7" Cut="8.5441802978515625e+01" cType="1" res="5.0185816362500191e-03" rms="4.1176271438598633e-01" purity="4.4260635972023010e-01" nType="0">
            <Node pos="l" depth="3" NCoef="0" IVar="-1" Cut="0.0000000000000000e+00" cType="1" res="7.0508741773664951e-03" rms="4.3556207418441772e-01" purity="4.3385073542594910e-01" nType="-99"/>
            <Node pos="r" depth="3" NCoef="0" IVar="-1" Cut="0.0000000000000000e+00" cType="1" res="-2.9066929710097611e-04" rms="3.9165988564491272e-01" purity="4.4958949089050293e-01" nType="-99"/>
          </Node>
          <Node pos="r" depth="2" NCoef="0" IVar="5" Cut="1.4288714599609375e+02" cType="1" res="2.2962763614486903e-04" rms="4.2694282531738281e-01" purity="5.7664501667022705e-01" nType="0">
            <Node pos="l" depth="3" NCoef="0" IVar="5" Cut="8.7100234985351562e+01" cType="1" res="6.4978017471730709e-03" rms="4.2678898572921753e-01" purity="6.4934921264648438e-01" nType="0">
              <Node pos="l" depth="4" NCoef="0" IVar="-1" Cut="0.0000000000000000e+00" cType="1" res="5.6419554166495800e-03" rms="4.6796810626983643e-01" purity="4.6048668026924133e-01" nType="-99"/>
              <Node pos="r" depth="4" NCoef="0" IVar="-1" Cut="0.0000000000000000e+00" cType="1" res="1.9145198166370392e-03" rms="4.0455374121665955e-01" purity="7.4401879310607910e-01" nType="-99"/>
            </Node>
            <Node pos="r" depth="3" NCoef="0" IVar="-1" Cut="0.0000000000000000e+00" cType="1" res="-1.0508824139833450e-02" rms="4.2692452669143677e-01" purity="3.9478981494903564e-01" nType="-99"/>
          </Node>
        </Node>
      </Node>
    </BinaryTree>
    <BinaryTree type="DecisionTree" boostWeight="1.0000000000000000e+00" itree="90">
      <Node pos="s" depth="0" NCoef="0" IVar="6" Cut="1.1814180755615234e+02" cType="1" res="5.8034987887367606e-04" rms="4.2100128531455994e-01" purity="5.0000000000000000e-01" nType="0">
        <Node pos="l" depth="1" NCoef="0" IVar="6" Cut="8.7094146728515625e+01" cType="1" res="-4.3260419624857605e-04" rms="4.1899788379669189e-01" purity="4.7068229317665100e-01" nType="0">
          <Node pos="l" depth="2" NCoef="0" IVar="6" Cut="3.0913709640502930e+01" cType="1" res="-2.4297917261719704e-03" rms="4.1665211319923401e-01" purity="4.6844959259033203e-01" nType="0">
            <Node pos="l" depth="3" NCoef="0" IVar="-1" Cut="0.0000000000000000e+00" cType="1" res="-6.4616440795361996e-03" rms="4.2952269315719604e-01" purity="4.7890874743461609e-01" nType="-99"/>
            <Node pos="r" depth="3" NCoef="0" IVar="4" Cut="2.2857143878936768e+00" cType="1" res="-7.6810922473669052e-04" rms="4.1408485174179077e-01" purity="4.6641770005226135e-01" nType="0">
              <Node pos="l" depth="4" NCoef="0" IVar="6" Cut="5.4991153717041016e+01" cType="1" res="-4.6348902396857738e-03" rms="4.1228157281875610e-01" purity="4.1909506916999817e-01" nType="0">
                <Node pos="l" depth="5" NCoef="0" IVar="-1" Cut="0.0000000000000000e+00" cType="1" res="2.2292451467365026e-03" rms="4.1814303398132324e-01" purity="4.9217405915260315e-01" nType="-99"/>
                <Node pos="r" depth="5" NCoef="0" IVar="5" Cut="1.4812944030761719e+02" cType="1" res="-8.5482476279139519e-03" rms="4.0948307514190674e-01" purity="3.8529500365257263e-01" nType="0">
                  <Node pos="l" depth="6" NCoef="0" IVar="-1" Cut="0.0000000000000000e+00" cType="1" res="-1.1060071177780628e-02" rms="3.9837753772735596e-01" purity="3.6560818552970886e-01" nType="-99"/>
                  <Node pos="r" depth="6" NCoef="0" IVar="-1" Cut="0.0000000000000000e+00" cType="1" res="1.8599168397486210e-03" rms="4.2706152796745300e-01" purity="4.1803225874900818e-01" nType="-99"/>
                </Node>
              </Node>
              <Node pos="r" depth="4" NCoef="0" IVar="-1" Cut="0.0000000000000000e+00" cType="1" res="6.2091429717838764e-03" rms="4.2000031471252441e-01" purity="6.3045573234558105e-01" nType="-99"/>
            </Node>
          </Node>
          <Node pos="r" depth="2" NCoef="0" IVar="-1" Cut="0.0000000000000000e+00" cType="1" res="3.4422227181494236e-03" rms="4.2659088969230652e-01" purity="4.7805991768836975e-01" nType="-99"/>
        </Node>
        <Node pos="r" depth="1" NCoef="0" IVar="-1" Cut="0.0000000000000000e+00" cType="1" res="2.5133632589131594e-03" rms="4.3056899309158325e-01" purity="6.4245134592056274e-01" nType="-99"/>
      </Node>
    </BinaryTree>
    <BinaryTree type="DecisionTree" boostWeight="1.0000000000000000e+00" itree="91">
      <Node pos="s" depth="0" NCoef="0" IVar="4" Cut="7.1428573131561279e-01" cType="1" res="6.2113418243825436e-04" rms="4.2096510529518127e-01" purity="5.0000000000000000e-01" nType="0">
        <Node pos="l" depth="1" NCoef="0" IVar="6" Cut="1.1854922485351562e+02" cType="1" res="-3.1185941770672798e-03" rms="4.2116612195968628e-01" purity="4.4392177462577820e-01" nType="0">
          <Node pos="l" depth="2" NCoef="0" IVar="-1" Cut="0.0000000000000000e+00" cType="1" res="-7.0041460276115686e-05" rms="4.0337371826171875e-01" purity="3.2457759976387024e-01" nType="-99"/>
          <Node pos="r" depth="2" NCoef="0" IVar="-1" Cut="0.0000000000000000e+00" cType="1" res="-3.2408158294856548e-03" rms="4.4318744540214539e-01" purity="5.9898626804351807e-01" nType="-99"/>
        </Node>
        <Node pos="r" depth="1" NCoef="0" IVar="2" Cut="1.9642339944839478e+00" cType="1" res="2.1684372331947088e-03" rms="4.2087218165397644e-01" purity="5.2320218086242676e-01" nType="0">
          <Node pos="l" depth="2" NCoef="0" IVar="5" Cut="1.5334861755371094e+02" cType="1" res="1.0440460173413157e-03" rms="4.2345434427261353e-01" purity="5.9118366241455078e-01" nType="0">
            <Node pos="l" depth="3" NCoef="0" IVar="5" Cut="7.9684913635253906e+01" cType="1" res="4.0233605541288853e-03" rms="4.1735616326332092e-01" purity="5.6828635931015015e-01" nType="0">
              <Node pos="l" depth="4" NCoef="0" IVar="-1" Cut="0.0000000000000000e+00" cType="1" res="-1.2039235793054104e-02" rms="3.9845797419548035e-01" purity="2.6717489957809448e-01" nType="-99"/>
              <Node pos="r" depth="4" NCoef="0" IVar="4" Cut="1.6666666269302368e+00" cType="1" res="1.0741464793682098e-02" rms="4.2393839359283447e-01" purity="6.7970299720764160e-01" nType="0">
                <Node pos="l" depth="5" NCoef="0" IVar="-1" Cut="0.0000000000000000e+00" cType="1" res="1.1339699849486351e-02" rms="4.5514425635337830e-01" purity="5.2467846870422363e-01" nType="-99"/>
                <Node pos="r" depth="5" NCoef="0" IVar="-1" Cut="0.0000000000000000e+00" cType="1" res="1.6931456048041582e-03" rms="4.0575540065765381e-01" purity="7.6419448852539062e-01" nType="-99"/>
              </Node>
            </Node>
            <Node pos="r" depth="3" NCoef="0" IVar="-1" Cut="0.0000000000000000e+00" cType="1" res="-4.4987108558416367e-03" rms="4.4618001580238342e-01" purity="6.8019145727157593e-01" nType="-99"/>
          </Node>
          <Node pos="r" depth="2" NCoef="0" IVar="-1" Cut="0.0000000000000000e+00" cType="1" res="6.3708247616887093e-03" rms="4.1050258278846741e-01" purity="2.5515639781951904e-01" nType="-99"/>
        </Node>
      </Node>
    </BinaryTree>
    <BinaryTree type="DecisionTree" boostWeight="1.0000000000000000e+00" itree="92">
      <Node pos="s" depth="0" NCoef="0" IVar="3" Cut="1.0000000000000000e+00" cType="1" res="1.4673422556370497e-03" rms="4.1693010926246643e-01" purity="5.0000000000000000e-01" nType="0">
        <Node pos="l" depth="1" NCoef="0" IVar="1" Cut="1.6721335649490356e+00" cType="1" res="-2.9072805773466825e-03" rms="4.1939735412597656e-01" purity="5.4398608207702637e-01" nType="0">
          <Node pos="l" depth="2" NCoef="0" IVar="2" Cut="9.7312647104263306e-01" cType="1" res="-8.5462071001529694e-04" rms="4.1411063075065613e-01" purity="5.4360496997833252e-01" nType="0">
            <Node pos="l" depth="3" NCoef="0" IVar="-1" Cut="0.0000000000000000e+00" cType="1" res="3.6967906635254622e-04" rms="4.0622165799140930e-01" purity="6.3081860542297363e-01" nType="-99"/>
            <Node pos="r" depth="3" NCoef="0" IVar="-1" Cut="0.0000000000000000e+00" cType="1" res="-1.7465410055592656e-03" rms="4.2389860749244690e-01" purity="4.3297007679939270e-01" nType="-99"/>
          </Node>
          <Node pos="r" depth="2" NCoef="0" IVar="-1" Cut="0.0000000000000000e+00" cType="1" res="-3.5109678283333778e-03" rms="4.2903289198875427e-01" purity="5.4469484090805054e-01" nType="-99"/>
        </Node>
        <Node pos="r" depth="1" NCoef="0" IVar="6" Cut="1.1814180755615234e+02" cType="1" res="2.4015463422983885e-03" rms="4.2174595594406128e-01" purity="4.7559583187103271e-01" nType="0">
          <Node pos="l" depth="2" NCoef="0" IVar="6" Cut="9.1528236389160156e+01" cType="1" res="5.6826602667570114e-04" rms="4.1899606585502625e-01" purity="4.2790159583091736e-01" nType="0">
            <Node pos="l" depth="3" NCoef="0" IVar="5" Cut="1.4449981689453125e+02" cType="1" res="-2.4362120311707258e-03" rms="4.1585832834243774e-01" purity="4.0842717885971069e-01" nType="0">
              <Node pos="l" depth="4" NCoef="0" IVar="3" Cut="2.0000000000000000e+00" cType="1" res="1.7718179151415825e-03" rms="3.8667827844619751e-01" purity="4.5427057147026062e-01" nType="0">
                <Node pos="l" depth="5" NCoef="0" IVar="-1" Cut="0.0000000000000000e+00" cType="1" res="-1.8172082491219044e-03" rms="4.0199601650238037e-01" purity="4.7286966443061829e-01" nType="-99"/>
                <Node pos="r" depth="5" NCoef="0" IVar="-1" Cut="0.0000000000000000e+00" cType="1" res="8.2279555499553680e-03" rms="4.2817568778991699e-01" purity="4.3001517653465271e-01" nType="-99"/>
              </Node>
              <Node pos="r" depth="4" NCoef="0" IVar="-1" Cut="0.0000000000000000e+00" cType="1" res="-1.0108216665685177e-02" rms="4.1914358735084534e-01" purity="3.3505973219871521e-01" nType="-99"/>
            </Node>
            <Node pos="r" depth="3" NCoef="0" IVar="-1" Cut="0.0000000000000000e+00" cType="1" res="6.6632274538278580e-03" rms="4.3128448724746704e-01" purity="5.0695735216140747e-01" nType="-99"/>
          </Node>
          <Node pos="r" depth="2" NCoef="0" IVar="-1" Cut="0.0000000000000000e+00" cType="1" res="4.1158706881105900e-03" rms="4.3169903755187988e-01" purity="6.5203750133514404e-01" nType="-99"/>
        </Node>
      </Node>
    </BinaryTree>
    <BinaryTree type="DecisionTree" boostWeight="1.0000000000000000e+00" itree="93">
      <Node pos="s" depth="0" NCoef="0" IVar="4" Cut="7.1428573131561279e-01" cType="1" res="5.5568403331562877e-04" rms="4.2087230086326599e-01" purity="5.0000000000000000e-01" nType="0">
        <Node pos="l" depth="1" NCoef="0" IVar="1" Cut="1.4745582342147827e+00" cType="1" res="-3.3004633150994778e-03" rms="4.2113095521926880e-01" purity="4.4392177462577820e-01" nType="0">
          <Node pos="l" depth="2" NCoef="0" IVar="-1" Cut="0.0000000000000000e+00" cType="1" res="-4.2582214809954166e-03" rms="4.1153782606124878e-01" purity="3.9365947246551514e-01" nType="-99"/>
          <Node pos="r" depth="2" NCoef="0" IVar="-1" Cut="0.0000000000000000e+00" cType="1" res="1.0869666584767401e-04" rms="4.3084007501602173e-01" purity="4.9612247943878174e-01" nType="-99"/>
        </Node>
        <Node pos="r" depth="1" NCoef="0" IVar="2" Cut="1.9642339944839478e+00" cType="1" res="2.1511551458388567e-03" rms="4.2075490951538086e-01" purity="5.2320218086242676e-01" nType="0">
          <Node pos="l" depth="2" NCoef="0" IVar="5" Cut="1.5334861755371094e+02" cType="1" res="1.0798199800774455e-03" rms="4.2332637310028076e-01" purity="5.9118366241455078e-01" nType="0">
            <Node pos="l" depth="3" NCoef="0" IVar="7" Cut="9.2861343383789062e+01" cType="1" res="3.3194459974765778e-03" rms="4.1723200678825378e-01" purity="5.6828635931015015e-01" nType="0">
              <Node pos="l" depth="4" NCoef="0" IVar="5" Cut="9.3078269958496094e+01" cType="1" res="-5.4253148846328259e-03" rms="4.4456040859222412e-01" purity="5.3691989183425903e-01" nType="0">
                <Node pos="l" depth="5" NCoef="0" IVar="-1" Cut="0.0000000000000000e+00" cType="1" res="2.2323313169181347e-03" rms="4.3890464305877686e-01" purity="4.0408316254615784e-01" nType="-99"/>
                <Node pos="r" depth="5" NCoef="0" IVar="-1" Cut="0.0000000000000000e+00" cType="1" res="-5.6912992149591446e-03" rms="4.4887128472328186e-01" purity="6.4246857166290283e-01" nType="-99"/>
              </Node>
              <Node pos="r" depth="4" NCoef="0" IVar="-1" Cut="0.0000000000000000e+00" cType="1" res="8.8499393314123154e-03" rms="3.7303191423416138e-01" purity="6.1443650722503662e-01" nType="-99"/>
            </Node>
            <Node pos="r" depth="3" NCoef="0" IVar="-1" Cut="0.0000000000000000e+00" cType="1" res="-3.2419881317764521e-03" rms="4.4611996412277222e-01" purity="6.8019145727157593e-01" nType="-99"/>
          </Node>
          <Node pos="r" depth="2" NCoef="0" IVar="-1" Cut="0.0000000000000000e+00" cType="1" res="6.1543053016066551e-03" rms="4.1043162345886230e-01" purity="2.5515639781951904e-01" nType="-99"/>
        </Node>
      </Node>
    </BinaryTree>
    <BinaryTree type="DecisionTree" boostWeight="1.0000000000000000e+00" itree="94">
      <Node pos="s" depth="0" NCoef="0" IVar="3" Cut="1.0000000000000000e+00" cType="1" res="1.2988963862881064e-03" rms="4.1684687137603760e-01" purity="5.0000000000000000e-01" nType="0">
        <Node pos="l" depth="1" NCoef="0" IVar="2" Cut="1.2384393215179443e+00" cType="1" res="-2.4074963293969631e-03" rms="4.1935396194458008e-01" purity="5.4398608207702637e-01" nType="0">
          <Node pos="l" depth="2" NCoef="0" IVar="-1" Cut="0.0000000000000000e+00" cType="1" res="-4.3449565418995917e-04" rms="4.1640800237655640e-01" purity="6.1179018020629883e-01" nType="-99"/>
          <Node pos="r" depth="2" NCoef="0" IVar="-1" Cut="0.0000000000000000e+00" cType="1" res="-3.4261625260114670e-03" rms="4.2508777976036072e-01" purity="4.1025695204734802e-01" nType="-99"/>
        </Node>
        <Node pos="r" depth="1" NCoef="0" IVar="6" Cut="1.1814180755615234e+02" cType="1" res="1.8822110723704100e-03" rms="4.2164286971092224e-01" purity="4.7559583187103271e-01" nType="0">
          <Node pos="l" depth="2" NCoef="0" IVar="6" Cut="9.1528236389160156e+01" cType="1" res="1.7941296391654760e-04" rms="4.1887080669403076e-01" purity="4.2790159583091736e-01" nType="0">
            <Node pos="l" depth="3" NCoef="0" IVar="5" Cut="1.4449981689453125e+02" cType="1" res="-2.3649716749787331e-03" rms="4.1574856638908386e-01" purity="4.0842717885971069e-01" nType="0">
              <Node pos="l" depth="4" NCoef="0" IVar="3" Cut="2.0000000000000000e+00" cType="1" res="2.6338497991673648e-04" rms="3.8656723499298096e-01" purity="4.5427057147026062e-01" nType="0">
                <Node pos="l" depth="5" NCoef="0" IVar="-1" Cut="0.0000000000000000e+00" cType="1" res="-1.7535178922116756e-03" rms="4.0194189548492432e-01" purity="4.7286966443061829e-01" nType="-99"/>
                <Node pos="r" depth="5" NCoef="0" IVar="-1" Cut="0.0000000000000000e+00" cType="1" res="5.8161173947155476e-03" rms="4.2812120914459229e-01" purity="4.3001517653465271e-01" nType="-99"/>
              </Node>
              <Node pos="r" depth="4" NCoef="0" IVar="-1" Cut="0.0000000000000000e+00" cType="1" res="-7.8555261716246605e-03" rms="4.1910967230796814e-01" purity="3.3505973219871521e-01" nType="-99"/>
            </Node>
            <Node pos="r" depth="3" NCoef="0" IVar="-1" Cut="0.0000000000000000e+00" cType="1" res="5.4954029619693756e-03" rms="4.3115922808647156e-01" purity="5.0695735216140747e-01" nType="-99"/>
          </Node>
          <Node pos="r" depth="2" NCoef="0" IVar="-1" Cut="0.0000000000000000e+00" cType="1" res="3.6739821080118418e-03" rms="4.3168488144874573e-01" purity="6.5203750133514404e-01" nType="-99"/>
        </Node>
      </Node>
    </BinaryTree>
    <BinaryTree type="DecisionTree" boostWeight="1.0000000000000000e+00" itree="95">
      <Node pos="s" depth="0" NCoef="0" IVar="4" Cut="7.1428573131561279e-01" cType="1" res="4.1529868030920625e-04" rms="4.2080518603324890e-01" purity="5.0000000000000000e-01" nType="0">
        <Node pos="l" depth="1" NCoef="0" IVar="6" Cut="1.1854922485351562e+02" cType="1" res="-3.2296048011630774e-03" rms="4.2111364006996155e-01" purity="4.4392177462577820e-01" nType="0">
          <Node pos="l" depth="2" NCoef="0" IVar="-1" Cut="0.0000000000000000e+00" cType="1" res="-5.8222060033585876e-05" rms="4.0330168604850769e-01" purity="3.2457759976387024e-01" nType="-99"/>
          <Node pos="r" depth="2" NCoef="0" IVar="-1" Cut="0.0000000000000000e+00" cType="1" res="-3.3736270852386951e-03" rms="4.4315528869628906e-01" purity="5.9898626804351807e-01" nType="-99"/>
        </Node>
        <Node pos="r" depth="1" NCoef="0" IVar="2" Cut="2.2916061878204346e+00" cType="1" res="1.9233680795878172e-03" rms="4.2066827416419983e-01" purity="5.2320218086242676e-01" nType="0">
          <Node pos="l" depth="2" NCoef="0" IVar="7" Cut="1.2642032623291016e+02" cType="1" res="1.0510819265618920e-03" rms="4.2661634087562561e-01" purity="5.7922440767288208e-01" nType="0">
            <Node pos="l" depth="3" NCoef="0" IVar="7" Cut="4.8216678619384766e+01" cType="1" res="2.7871867641806602e-03" rms="4.3450415134429932e-01" purity="5.4520303010940552e-01" nType="0">
              <Node pos="l" depth="4" NCoef="0" IVar="-1" Cut="0.0000000000000000e+00" cType="1" res="-6.1923335306346416e-03" rms="4.6903234720230103e-01" purity="5.4770058393478394e-01" nType="-99"/>
              <Node pos="r" depth="4" NCoef="0" IVar="2" Cut="9.8211920261383057e-01" cType="1" res="8.4964977577328682e-03" rms="4.2135009169578552e-01" purity="5.4431170225143433e-01" nType="0">
                <Node pos="l" depth="5" NCoef="0" IVar="-1" Cut="0.0000000000000000e+00" cType="1" res="1.0243947617709637e-03" rms="3.9587435126304626e-01" purity="5.5658715963363647e-01" nType="-99"/>
                <Node pos="r" depth="5" NCoef="0" IVar="-1" Cut="0.0000000000000000e+00" cType="1" res="8.0042397603392601e-03" rms="4.4990873336791992e-01" purity="5.2957212924957275e-01" nType="-99"/>
              </Node>
            </Node>
            <Node pos="r" depth="3" NCoef="0" IVar="-1" Cut="0.0000000000000000e+00" cType="1" res="-2.5814822874963284e-03" rms="3.9626640081405640e-01" purity="7.0405709743499756e-01" nType="-99"/>
          </Node>
          <Node pos="r" depth="2" NCoef="0" IVar="-1" Cut="0.0000000000000000e+00" cType="1" res="1.0080093517899513e-02" rms="3.8351389765739441e-01" purity="1.9141060113906860e-01" nType="-99"/>
        </Node>
      </Node>
    </BinaryTree>
    <BinaryTree type="DecisionTree" boostWeight="1.0000000000000000e+00" itree="96">
      <Node pos="s" depth="0" NCoef="0" IVar="6" Cut="1.1814180755615234e+02" cType="1" res="1.4578142145182937e-04" rms="4.2076134681701660e-01" purity="5.0000000000000000e-01" nType="0">
        <Node pos="l" depth="1" NCoef="0" IVar="6" Cut="3.3870597839355469e+01" cType="1" res="-7.9821649705991149e-04" rms="4.1873979568481445e-01" purity="4.7068229317665100e-01" nType="0">
          <Node pos="l" depth="2" NCoef="0" IVar="-1" Cut="0.0000000000000000e+00" cType="1" res="-4.0461653843522072e-03" rms="4.2727997899055481e-01" purity="4.9608421325683594e-01" nType="-99"/>
          <Node pos="r" depth="2" NCoef="0" IVar="1" Cut="2.1659178733825684e+00" cType="1" res="4.6320073306560516e-04" rms="4.1697642207145691e-01" purity="4.6553438901901245e-01" nType="0">
            <Node pos="l" depth="3" NCoef="0" IVar="6" Cut="5.3935050964355469e+01" cType="1" res="-3.0071234796196222e-03" rms="4.1181054711341858e-01" purity="4.4835650920867920e-01" nType="0">
              <Node pos="l" depth="4" NCoef="0" IVar="-1" Cut="0.0000000000000000e+00" cType="1" res="3.4338068217039108e-03" rms="4.1538554430007935e-01" purity="5.5566042661666870e-01" nType="-99"/>
              <Node pos="r" depth="4" NCoef="0" IVar="5" Cut="1.4446699523925781e+02" cType="1" res="-5.8027980849146843e-03" rms="4.1068664193153381e-01" purity="4.1603907942771912e-01" nType="0">
                <Node pos="l" depth="5" NCoef="0" IVar="3" Cut="1.0000000000000000e+00" cType="1" res="-1.1400557123124599e-02" rms="3.6576905846595764e-01" purity="3.8416996598243713e-01" nType="0">
                  <Node pos="l" depth="6" NCoef="0" IVar="-1" Cut="0.0000000000000000e+00" cType="1" res="-9.8675983026623726e-03" rms="4.1676408052444458e-01" purity="4.4867220520973206e-01" nType="-99"/>
                  <Node pos="r" depth="6" NCoef="0" IVar="-1" Cut="0.0000000000000000e+00" cType="1" res="-5.2839606069028378e-03" rms="3.7138727307319641e-01" purity="3.1509044766426086e-01" nType="-99"/>
                </Node>
                <Node pos="r" depth="5" NCoef="0" IVar="-1" Cut="0.0000000000000000e+00" cType="1" res="7.4004923226311803e-04" rms="4.2936876416206360e-01" purity="4.5720991492271423e-01" nType="-99"/>
              </Node>
            </Node>
            <Node pos="r" depth="3" NCoef="0" IVar="-1" Cut="0.0000000000000000e+00" cType="1" res="6.4882151782512665e-03" rms="4.3423271179199219e-01" purity="5.2521985769271851e-01" nType="-99"/>
          </Node>
        </Node>
        <Node pos="r" depth="1" NCoef="0" IVar="-1" Cut="0.0000000000000000e+00" cType="1" res="2.1678504999727011e-03" rms="4.3041914701461792e-01" purity="6.4245134592056274e-01" nType="-99"/>
      </Node>
    </BinaryTree>
    <BinaryTree type="DecisionTree" boostWeight="1.0000000000000000e+00" itree="97">
      <Node pos="s" depth="0" NCoef="0" IVar="4" Cut="7.1428573131561279e-01" cType="1" res="2.3491644242312759e-04" rms="4.2073082923889160e-01" purity="5.0000000000000000e-01" nType="0">
        <Node pos="l" depth="1" NCoef="0" IVar="7" Cut="8.3542404174804688e+01" cType="1" res="-2.9741942416876554e-03" rms="4.2106571793556213e-01" purity="4.4392177462577820e-01" nType="0">
          <Node pos="l" depth="2" NCoef="0" IVar="-1" Cut="0.0000000000000000e+00" cType="1" res="-3.5637931432574987e-03" rms="4.2586639523506165e-01" purity="4.6566841006278992e-01" nType="-99"/>
          <Node pos="r" depth="2" NCoef="0" IVar="-1" Cut="0.0000000000000000e+00" cType="1" res="7.1310362545773387e-04" rms="4.1473510861396790e-01" purity="4.1578555107116699e-01" nType="-99"/>
        </Node>
        <Node pos="r" depth="1" NCoef="0" IVar="4" Cut="2.3333332538604736e+00" cType="1" res="1.5626777894794941e-03" rms="4.2058503627777100e-01" purity="5.2320218086242676e-01" nType="0">
          <Node pos="l" depth="2" NCoef="0" IVar="0" Cut="1.8972072601318359e+00" cType="1" res="2.8166237752884626e-03" rms="4.2012700438499451e-01" purity="4.9928006529808044e-01" nType="0">
            <Node pos="l" depth="3" NCoef="0" IVar="5" Cut="1.5334861755371094e+02" cType="1" res="1.7778692999854684e-03" rms="4.2185464501380920e-01" purity="5.0836211442947388e-01" nType="0">
              <Node pos="l" depth="4" NCoef="0" IVar="7" Cut="7.4961341857910156e+01" cType="1" res="-3.1555679743178189e-04" rms="4.1828805208206177e-01" purity="4.8663547635078430e-01" nType="0">
                <Node pos="l" depth="5" NCoef="0" IVar="-1" Cut="0.0000000000000000e+00" cType="1" res="-4.3806224130094051e-03" rms="4.6286422014236450e-01" purity="4.8231762647628784e-01" nType="-99"/>
                <Node pos="r" depth="5" NCoef="0" IVar="-1" Cut="0.0000000000000000e+00" cType="1" res="3.2289803493767977e-03" rms="3.8413867354393005e-01" purity="4.8963949084281921e-01" nType="-99"/>
              </Node>
              <Node pos="r" depth="4" NCoef="0" IVar="-1" Cut="0.0000000000000000e+00" cType="1" res="3.2656006515026093e-03" rms="4.2940458655357361e-01" purity="5.5517870187759399e-01" nType="-99"/>
            </Node>
            <Node pos="r" depth="3" NCoef="0" IVar="-1" Cut="0.0000000000000000e+00" cType="1" res="4.1203605942428112e-03" rms="4.1330960392951965e-01" purity="4.6393385529518127e-01" nType="-99"/>
          </Node>
          <Node pos="r" depth="2" NCoef="0" IVar="-1" Cut="0.0000000000000000e+00" cType="1" res="-9.5631339354440570e-04" rms="4.2180639505386353e-01" purity="5.8810079097747803e-01" nType="-99"/>
        </Node>
      </Node>
    </BinaryTree>
    <BinaryTree type="DecisionTree" boostWeight="1.0000000000000000e+00" itree="98">
      <Node pos="s" depth="0" NCoef="0" IVar="6" Cut="1.1814180755615234e+02" cType="1" res="2.0426542323548347e-04" rms="4.2071411013603210e-01" purity="5.0000000000000000e-01" nType="0">
        <Node pos="l" depth="1" NCoef="0" IVar="3" Cut="2.0000000000000000e+00" cType="1" res="6.5881072077900171e-04" rms="4.1395139694213867e-01" purity="4.7068229317665100e-01" nType="0">
          <Node pos="l" depth="2" NCoef="0" IVar="5" Cut="1.0866986846923828e+02" cType="1" res="1.2067910283803940e-03" rms="4.1775450110435486e-01" purity="5.0974237918853760e-01" nType="0">
            <Node pos="l" depth="3" NCoef="0" IVar="-1" Cut="0.0000000000000000e+00" cType="1" res="-3.4617751371115446e-03" rms="3.9777216315269470e-01" purity="4.5794811844825745e-01" nType="-99"/>
            <Node pos="r" depth="3" NCoef="0" IVar="4" Cut="5.2380955219268799e-01" cType="1" res="4.5648114755749702e-03" rms="4.2746469378471375e-01" purity="5.3593432903289795e-01" nType="0">
              <Node pos="l" depth="4" NCoef="0" IVar="-1" Cut="0.0000000000000000e+00" cType="1" res="1.0054760612547398e-02" rms="4.2657482624053955e-01" purity="3.7016370892524719e-01" nType="-99"/>
              <Node pos="r" depth="4" NCoef="0" IVar="7" Cut="7.5721290588378906e+01" cType="1" res="4.9555185250937939e-04" rms="4.2772325873374939e-01" purity="5.9750109910964966e-01" nType="0">
                <Node pos="l" depth="5" NCoef="0" IVar="-1" Cut="0.0000000000000000e+00" cType="1" res="-3.5500263329595327e-03" rms="4.4416177272796631e-01" purity="5.2897214889526367e-01" nType="-99"/>
                <Node pos="r" depth="5" NCoef="0" IVar="-1" Cut="0.0000000000000000e+00" cType="1" res="3.0333735048770905e-03" rms="4.1443976759910583e-01" purity="6.5062052011489868e-01" nType="-99"/>
              </Node>
            </Node>
          </Node>
          <Node pos="r" depth="2" NCoef="0" IVar="5" Cut="1.4449981689453125e+02" cType="1" res="-4.8759374767541885e-03" rms="4.2094042897224426e-01" purity="3.7553235888481140e-01" nType="0">
            <Node pos="l" depth="3" NCoef="0" IVar="-1" Cut="0.0000000000000000e+00" cType="1" res="5.5965348146855831e-03" rms="4.2413914203643799e-01" purity="4.2416253685951233e-01" nType="-99"/>
            <Node pos="r" depth="3" NCoef="0" IVar="-1" Cut="0.0000000000000000e+00" cType="1" res="-1.3955388218164444e-02" rms="4.1751456260681152e-01" purity="3.3036094903945923e-01" nType="-99"/>
          </Node>
        </Node>
        <Node pos="r" depth="1" NCoef="0" IVar="-1" Cut="0.0000000000000000e+00" cType="1" res="1.8049201462417841e-03" rms="4.3037828803062439e-01" purity="6.4245134592056274e-01" nType="-99"/>
      </Node>
    </BinaryTree>
    <BinaryTree type="DecisionTree" boostWeight="1.0000000000000000e+00" itree="99">
      <Node pos="s" depth="0" NCoef="0" IVar="4" Cut="7.1428573131561279e-01" cType="1" res="2.7106158086098731e-04" rms="4.2066025733947754e-01" purity="5.0000000000000000e-01" nType="0">
        <Node pos="l" depth="1" NCoef="0" IVar="6" Cut="1.1854922485351562e+02" cType="1" res="-3.4765503369271755e-03" rms="4.2098742723464966e-01" purity="4.4392177462577820e-01" nType="0">
          <Node pos="l" depth="2" NCoef="0" IVar="-1" Cut="0.0000000000000000e+00" cType="1" res="-4.5635650167241693e-04" rms="4.0309882164001465e-01" purity="3.2457759976387024e-01" nType="-99"/>
          <Node pos="r" depth="2" NCoef="0" IVar="-1" Cut="0.0000000000000000e+00" cType="1" res="-3.3115879632532597e-03" rms="4.4312524795532227e-01" purity="5.9898626804351807e-01" nType="-99"/>
        </Node>
        <Node pos="r" depth="1" NCoef="0" IVar="4" Cut="2.3333332538604736e+00" cType="1" res="1.8216264434158802e-03" rms="4.2051503062248230e-01" purity="5.2320218086242676e-01" nType="0">
          <Node pos="l" depth="2" NCoef="0" IVar="0" Cut="1.8972072601318359e+00" cType="1" res="2.9217880219221115e-03" rms="4.2004597187042236e-01" purity="4.9928006529808044e-01" nType="0">
            <Node pos="l" depth="3" NCoef="0" IVar="5" Cut="1.5334861755371094e+02" cType="1" res="1.9518095068633556e-03" rms="4.2177268862724304e-01" purity="5.0836211442947388e-01" nType="0">
              <Node pos="l" depth="4" NCoef="0" IVar="7" Cut="7.4961341857910156e+01" cType="1" res="-5.1366150728426874e-05" rms="4.1820824146270752e-01" purity="4.8663547635078430e-01" nType="0">
                <Node pos="l" depth="5" NCoef="0" IVar="-1" Cut="0.0000000000000000e+00" cType="1" res="-3.0337355565279722e-03" rms="4.6278789639472961e-01" purity="4.8231762647628784e-01" nType="-99"/>
                <Node pos="r" depth="5" NCoef="0" IVar="-1" Cut="0.0000000000000000e+00" cType="1" res="2.4215581361204386e-03" rms="3.8410323858261108e-01" purity="4.8963949084281921e-01" nType="-99"/>
              </Node>
              <Node pos="r" depth="4" NCoef="0" IVar="-1" Cut="0.0000000000000000e+00" cType="1" res="3.2602478750050068e-03" rms="4.2932105064392090e-01" purity="5.5517870187759399e-01" nType="-99"/>
            </Node>
            <Node pos="r" depth="3" NCoef="0" IVar="-1" Cut="0.0000000000000000e+00" cType="1" res="4.0332577191293240e-03" rms="4.1323545575141907e-01" purity="4.6393385529518127e-01" nType="-99"/>
          </Node>
          <Node pos="r" depth="2" NCoef="0" IVar="-1" Cut="0.0000000000000000e+00" cType="1" res="-6.0465757269412279e-04" rms="4.2177048325538635e-01" purity="5.8810079097747803e-01" nType="-99"/>
        </Node>
      </Node>
    </BinaryTree>
    <BinaryTree type="DecisionTree" boostWeight="1.0000000000000000e+00" itree="100">
      <Node pos="s" depth="0" NCoef="0" IVar="4" Cut="7.1428573131561279e-01" cType="1" res="2.1084114268887788e-04" rms="4.2064681649208069e-01" purity="5.0000000000000000e-01" nType="0">
        <Node pos="l" depth="1" NCoef="0" IVar="7" Cut="8.3542404174804688e+01" cType="1" res="-2.8137746267020702e-03" rms="4.2097982764244080e-01" purity="4.4392177462577820e-01" nType="0">
          <Node pos="l" depth="2" NCoef="0" IVar="-1" Cut="0.0000000000000000e+00" cType="1" res="-3.3049907069653273e-03" rms="4.2577487230300903e-01" purity="4.6566841006278992e-01" nType="-99"/>
          <Node pos="r" depth="2" NCoef="0" IVar="-1" Cut="0.0000000000000000e+00" cType="1" res="5.9440732002258301e-04" rms="4.1466268897056580e-01" purity="4.1578555107116699e-01" nType="-99"/>
        </Node>
        <Node pos="r" depth="1" NCoef="0" IVar="7" Cut="1.2635140228271484e+02" cType="1" res="1.4622681774199009e-03" rms="4.2050260305404663e-01" purity="5.2320218086242676e-01" nType="0">
          <Node pos="l" depth="2" NCoef="0" IVar="7" Cut="4.2130187988281250e+01" cType="1" res="2.4012082722038031e-03" rms="4.2549863457679749e-01" purity="4.8715421557426453e-01" nType="0">
            <Node pos="l" depth="3" NCoef="0" IVar="-1" Cut="0.0000000000000000e+00" cType="1" res="-9.5163499936461449e-03" rms="4.4882407784461975e-01" purity="4.6287730336189270e-01" nType="-99"/>
            <Node pos="r" depth="3" NCoef="0" IVar="4" Cut="2.1428570747375488e+00" cType="1" res="7.8328680247068405e-03" rms="4.1866624355316162e-01" purity="4.9385777115821838e-01" nType="0">
              <Node pos="l" depth="4" NCoef="0" IVar="3" Cut="1.0000000000000000e+00" cType="1" res="1.0822217911481857e-02" rms="4.0746712684631348e-01" purity="4.6687465906143188e-01" nType="0">
                <Node pos="l" depth="5" NCoef="0" IVar="-1" Cut="0.0000000000000000e+00" cType="1" res="8.8671175763010979e-03" rms="4.3273416161537170e-01" purity="5.7188594341278076e-01" nType="-99"/>
                <Node pos="r" depth="5" NCoef="0" IVar="-1" Cut="0.0000000000000000e+00" cType="1" res="4.5535070821642876e-03" rms="4.0540486574172974e-01" purity="3.9847463369369507e-01" nType="-99"/>
              </Node>
              <Node pos="r" depth="4" NCoef="0" IVar="-1" Cut="0.0000000000000000e+00" cType="1" res="-9.9742366001009941e-04" rms="4.2490881681442261e-01" purity="5.7197749614715576e-01" nType="-99"/>
            </Node>
          </Node>
          <Node pos="r" depth="2" NCoef="0" IVar="-1" Cut="0.0000000000000000e+00" cType="1" res="-1.1526199523359537e-03" rms="3.9998605847358704e-01" purity="6.6662216186523438e-01" nType="-99"/>
        </Node>
      </Node>
    </BinaryTree>
    <BinaryTree type="DecisionTree" boostWeight="1.0000000000000000e+00" itree="101">
      <Node pos="s" depth="0" NCoef="0" IVar="3" Cut="1.0000000000000000e+00" cType="1" res="1.1289233807474375e-03" rms="4.1661578416824341e-01" purity="5.0000000000000000e-01" nType="0">
        <Node pos="l" depth="1" NCoef="0" IVar="2" Cut="1.2384393215179443e+00" cType="1" res="-2.5804520118981600e-03" rms="4.1905325651168823e-01" purity="5.4398608207702637e-01" nType="0">
          <Node pos="l" depth="2" NCoef="0" IVar="-1" Cut="0.0000000000000000e+00" cType="1" res="-3.2423270749859512e-04" rms="4.1612333059310913e-01" purity="6.1179018020629883e-01" nType="-99"/>
          <Node pos="r" depth="2" NCoef="0" IVar="-1" Cut="0.0000000000000000e+00" cType="1" res="-4.0188729763031006e-03" rms="4.2474660277366638e-01" purity="4.1025695204734802e-01" nType="-99"/>
        </Node>
        <Node pos="r" depth="1" NCoef="0" IVar="6" Cut="1.1814180755615234e+02" cType="1" res="1.7373462906107306e-03" rms="4.2144387960433960e-01" purity="4.7559583187103271e-01" nType="0">
          <Node pos="l" depth="2" NCoef="0" IVar="7" Cut="7.5651176452636719e+01" cType="1" res="1.7517607193440199e-04" rms="4.1865015029907227e-01" purity="4.2790159583091736e-01" nType="0">
            <Node pos="l" depth="3" NCoef="0" IVar="4" Cut="1.2380952835083008e+00" cType="1" res="5.3139394149184227e-03" rms="4.4003033638000488e-01" purity="4.5519405603408813e-01" nType="0">
              <Node pos="l" depth="4" NCoef="0" IVar="-1" Cut="0.0000000000000000e+00" cType="1" res="9.2241559177637100e-03" rms="4.3857353925704956e-01" purity="4.4436591863632202e-01" nType="-99"/>
              <Node pos="r" depth="4" NCoef="0" IVar="-1" Cut="0.0000000000000000e+00" cType="1" res="-1.3359619770199060e-03" rms="4.4089931249618530e-01" purity="4.6287497878074646e-01" nType="-99"/>
            </Node>
            <Node pos="r" depth="3" NCoef="0" IVar="4" Cut="1.3333333730697632e+00" cType="1" res="-5.4601784795522690e-03" rms="3.9379483461380005e-01" purity="3.9797163009643555e-01" nType="0">
              <Node pos="l" depth="4" NCoef="0" IVar="-1" Cut="0.0000000000000000e+00" cType="1" res="-1.2935609556734562e-02" rms="3.6016693711280823e-01" purity="2.7276355028152466e-01" nType="-99"/>
              <Node pos="r" depth="4" NCoef="0" IVar="-1" Cut="0.0000000000000000e+00" cType="1" res="2.5517605245113373e-03" rms="4.3031516671180725e-01" purity="5.4755437374114990e-01" nType="-99"/>
            </Node>
          </Node>
          <Node pos="r" depth="2" NCoef="0" IVar="-1" Cut="0.0000000000000000e+00" cType="1" res="3.3773647155612707e-03" rms="4.3157267570495605e-01" purity="6.5203750133514404e-01" nType="-99"/>
        </Node>
      </Node>
    </BinaryTree>
    <BinaryTree type="DecisionTree" boostWeight="1.0000000000000000e+00" itree="102">
      <Node pos="s" depth="0" NCoef="0" IVar="4" Cut="7.1428573131561279e-01" cType="1" res="3.1520411721430719e-04" rms="4.2057660222053528e-01" purity="5.0000000000000000e-01" nType="0">
        <Node pos="l" depth="1" NCoef="0" IVar="7" Cut="8.3542404174804688e+01" cType="1" res="-2.7256126049906015e-03" rms="4.2095550894737244e-01" purity="4.4392177462577820e-01" nType="0">
          <Node pos="l" depth="2" NCoef="0" IVar="-1" Cut="0.0000000000000000e+00" cType="1" res="-3.3213405404239893e-03" rms="4.2572245001792908e-01" purity="4.6566841006278992e-01" nType="-99"/>
          <Node pos="r" depth="2" NCoef="0" IVar="-1" Cut="0.0000000000000000e+00" cType="1" res="7.3517940472811460e-04" rms="4.1467338800430298e-01" purity="4.1578555107116699e-01" nType="-99"/>
        </Node>
        <Node pos="r" depth="1" NCoef="0" IVar="5" Cut="2.0012669372558594e+02" cType="1" res="1.5733342152088881e-03" rms="4.2041328549385071e-01" purity="5.2320218086242676e-01" nType="0">
          <Node pos="l" depth="2" NCoef="0" IVar="5" Cut="7.5187438964843750e+01" cType="1" res="2.3930408060550690e-03" rms="4.2264202237129211e-01" purity="5.4759806394577026e-01" nType="0">
            <Node pos="l" depth="3" NCoef="0" IVar="-1" Cut="0.0000000000000000e+00" cType="1" res="-2.2135205566883087e-02" rms="3.8726112246513367e-01" purity="2.2592766582965851e-01" nType="-99"/>
            <Node pos="r" depth="3" NCoef="0" IVar="5" Cut="1.2873258972167969e+02" cType="1" res="7.8342333436012268e-03" rms="4.2984154820442200e-01" purity="6.1833846569061279e-01" nType="0">
              <Node pos="l" depth="4" NCoef="0" IVar="7" Cut="7.5008033752441406e+01" cType="1" res="1.9272914156317711e-02" rms="4.2183753848075867e-01" purity="6.6422182321548462e-01" nType="0">
                <Node pos="l" depth="5" NCoef="0" IVar="-1" Cut="0.0000000000000000e+00" cType="1" res="2.5778401177376509e-03" rms="4.5662513375282288e-01" purity="6.0463541746139526e-01" nType="-99"/>
                <Node pos="r" depth="5" NCoef="0" IVar="-1" Cut="0.0000000000000000e+00" cType="1" res="1.5100193209946156e-02" rms="3.8665354251861572e-01" purity="7.1905827522277832e-01" nType="-99"/>
              </Node>
              <Node pos="r" depth="4" NCoef="0" IVar="-1" Cut="0.0000000000000000e+00" cType="1" res="-6.9906306453049183e-03" rms="4.4357374310493469e-01" purity="5.3291654586791992e-01" nType="-99"/>
            </Node>
          </Node>
          <Node pos="r" depth="2" NCoef="0" IVar="-1" Cut="0.0000000000000000e+00" cType="1" res="-1.3495695311576128e-03" rms="4.1063138842582703e-01" purity="4.1785478591918945e-01" nType="-99"/>
        </Node>
      </Node>
    </BinaryTree>
    <BinaryTree type="DecisionTree" boostWeight="1.0000000000000000e+00" itree="103">
      <Node pos="s" depth="0" NCoef="0" IVar="3" Cut="1.0000000000000000e+00" cType="1" res="1.6779949655756354e-03" rms="4.1649329662322998e-01" purity="5.0000000000000000e-01" nType="0">
        <Node pos="l" depth="1" NCoef="0" IVar="2" Cut="1.2384393215179443e+00" cType="1" res="-2.5223933625966311e-03" rms="4.1896131634712219e-01" purity="5.4398608207702637e-01" nType="0">
          <Node pos="l" depth="2" NCoef="0" IVar="-1" Cut="0.0000000000000000e+00" cType="1" res="-5.3566461428999901e-04" rms="4.1603064537048340e-01" purity="6.1179018020629883e-01" nType="-99"/>
          <Node pos="r" depth="2" NCoef="0" IVar="-1" Cut="0.0000000000000000e+00" cType="1" res="-3.4112478606402874e-03" rms="4.2466714978218079e-01" purity="4.1025695204734802e-01" nType="-99"/>
        </Node>
        <Node pos="r" depth="1" NCoef="0" IVar="0" Cut="1.6864067316055298e+00" cType="1" res="2.5820399168878794e-03" rms="4.2129808664321899e-01" purity="4.7559583187103271e-01" nType="0">
          <Node pos="l" depth="2" NCoef="0" IVar="4" Cut="1.2380952835083008e+00" cType="1" res="4.1360771283507347e-03" rms="4.2448276281356812e-01" purity="5.0567138195037842e-01" nType="0">
            <Node pos="l" depth="3" NCoef="0" IVar="3" Cut="2.0000000000000000e+00" cType="1" res="2.6332288980484009e-03" rms="3.6282318830490112e-01" purity="4.7548317909240723e-01" nType="0">
              <Node pos="l" depth="4" NCoef="0" IVar="-1" Cut="0.0000000000000000e+00" cType="1" res="3.3899054396897554e-03" rms="4.0772190690040588e-01" purity="4.6529626846313477e-01" nType="-99"/>
              <Node pos="r" depth="4" NCoef="0" IVar="-1" Cut="0.0000000000000000e+00" cType="1" res="-1.1741565540432930e-03" rms="4.1600546240806580e-01" purity="4.8847928643226624e-01" nType="-99"/>
            </Node>
            <Node pos="r" depth="3" NCoef="0" IVar="-1" Cut="0.0000000000000000e+00" cType="1" res="3.6537838168442249e-03" rms="4.4693055748939514e-01" purity="5.5971974134445190e-01" nType="-99"/>
          </Node>
          <Node pos="r" depth="2" NCoef="0" IVar="-1" Cut="0.0000000000000000e+00" cType="1" res="-1.0613112244755030e-03" rms="4.1265425086021423e-01" purity="3.9537048339843750e-01" nType="-99"/>
        </Node>
      </Node>
    </BinaryTree>
    <BinaryTree type="DecisionTree" boostWeight="1.0000000000000000e+00" itree="104">
      <Node pos="s" depth="0" NCoef="0" IVar="3" Cut="1.0000000000000000e+00" cType="1" res="1.5450029168277979e-03" rms="4.1648480296134949e-01" purity="5.0000000000000000e-01" nType="0">
        <Node pos="l" depth="1" NCoef="0" IVar="1" Cut="1.6721335649490356e+00" cType="1" res="-1.9698804244399071e-03" rms="4.1895684599876404e-01" purity="5.4398608207702637e-01" nType="0">
          <Node pos="l" depth="2" NCoef="0" IVar="2" Cut="9.7312647104263306e-01" cType="1" res="-4.9465120537206531e-04" rms="4.1380411386489868e-01" purity="5.4360496997833252e-01" nType="0">
            <Node pos="l" depth="3" NCoef="0" IVar="-1" Cut="0.0000000000000000e+00" cType="1" res="5.1538087427616119e-04" rms="4.0588030219078064e-01" purity="6.3081860542297363e-01" nType="-99"/>
            <Node pos="r" depth="3" NCoef="0" IVar="-1" Cut="0.0000000000000000e+00" cType="1" res="-1.4668114017695189e-03" rms="4.2363515496253967e-01" purity="4.3297007679939270e-01" nType="-99"/>
          </Node>
          <Node pos="r" depth="2" NCoef="0" IVar="-1" Cut="0.0000000000000000e+00" cType="1" res="-2.4667310062795877e-03" rms="4.2836415767669678e-01" purity="5.4469484090805054e-01" nType="-99"/>
        </Node>
        <Node pos="r" depth="1" NCoef="0" IVar="1" Cut="2.1849880218505859e+00" cType="1" res="2.0856645423918962e-03" rms="4.2128887772560120e-01" purity="4.7559583187103271e-01" nType="0">
          <Node pos="l" depth="2" NCoef="0" IVar="0" Cut="1.4756060838699341e+00" cType="1" res="5.3895235760137439e-04" rms="4.1731798648834229e-01" purity="4.6160712838172913e-01" nType="0">
            <Node pos="l" depth="3" NCoef="0" IVar="1" Cut="9.3641906976699829e-01" cType="1" res="3.2651829533278942e-03" rms="4.2214912176132202e-01" purity="4.9598845839500427e-01" nType="0">
              <Node pos="l" depth="4" NCoef="0" IVar="-1" Cut="0.0000000000000000e+00" cType="1" res="4.1546925785951316e-04" rms="4.1165533661842346e-01" purity="4.6441382169723511e-01" nType="-99"/>
              <Node pos="r" depth="4" NCoef="0" IVar="-1" Cut="0.0000000000000000e+00" cType="1" res="3.0889175832271576e-03" rms="4.3287479877471924e-01" purity="5.2913308143615723e-01" nType="-99"/>
            </Node>
            <Node pos="r" depth="3" NCoef="0" IVar="-1" Cut="0.0000000000000000e+00" cType="1" res="-7.6303984969854355e-03" rms="3.9852482080459595e-01" purity="3.3274856209754944e-01" nType="-99"/>
          </Node>
          <Node pos="r" depth="2" NCoef="0" IVar="-1" Cut="0.0000000000000000e+00" cType="1" res="3.6489127669483423e-03" rms="4.3318518996238708e-01" purity="5.1842230558395386e-01" nType="-99"/>
        </Node>
      </Node>
    </BinaryTree>
    <BinaryTree type="DecisionTree" boostWeight="1.0000000000000000e+00" itree="105">
      <Node pos="s" depth="0" NCoef="0" IVar="4" Cut="7.1428573131561279e-01" cType="1" res="5.8669428108260036e-04" rms="4.2045009136199951e-01" purity="5.0000000000000000e-01" nType="0">
        <Node pos="l" depth="1" NCoef="0" IVar="6" Cut="1.1854922485351562e+02" cType="1" res="-2.6282090693712234e-03" rms="4.2090749740600586e-01" purity="4.4392177462577820e-01" nType="0">
          <Node pos="l" depth="2" NCoef="0" IVar="-1" Cut="0.0000000000000000e+00" cType="1" res="4.9418536946177483e-04" rms="4.0300357341766357e-01" purity="3.2457759976387024e-01" nType="-99"/>
          <Node pos="r" depth="2" NCoef="0" IVar="-1" Cut="0.0000000000000000e+00" cType="1" res="-3.1782460864633322e-03" rms="4.4305428862571716e-01" purity="5.9898626804351807e-01" nType="-99"/>
        </Node>
        <Node pos="r" depth="1" NCoef="0" IVar="2" Cut="2.2916061878204346e+00" cType="1" res="1.9168523140251637e-03" rms="4.2025351524353027e-01" purity="5.2320218086242676e-01" nType="0">
          <Node pos="l" depth="2" NCoef="0" IVar="5" Cut="1.5334861755371094e+02" cType="1" res="1.1193887330591679e-03" rms="4.2617344856262207e-01" purity="5.7922440767288208e-01" nType="0">
            <Node pos="l" depth="3" NCoef="0" IVar="5" Cut="7.9684913635253906e+01" cType="1" res="2.9440054204314947e-03" rms="4.1901099681854248e-01" purity="5.6273406744003296e-01" nType="0">
              <Node pos="l" depth="4" NCoef="0" IVar="-1" Cut="0.0000000000000000e+00" cType="1" res="-7.6732002198696136e-03" rms="3.9854583144187927e-01" purity="2.6758921146392822e-01" nType="-99"/>
              <Node pos="r" depth="4" NCoef="0" IVar="5" Cut="1.1476322937011719e+02" cType="1" res="7.0942025631666183e-03" rms="4.2584568262100220e-01" purity="6.6576856374740601e-01" nType="0">
                <Node pos="l" depth="5" NCoef="0" IVar="-1" Cut="0.0000000000000000e+00" cType="1" res="6.9574583321809769e-03" rms="4.2425763607025146e-01" purity="6.6443479061126709e-01" nType="-99"/>
                <Node pos="r" depth="5" NCoef="0" IVar="-1" Cut="0.0000000000000000e+00" cType="1" res="-1.7941826954483986e-03" rms="4.2780363559722900e-01" purity="6.6762524843215942e-01" nType="-99"/>
              </Node>
            </Node>
            <Node pos="r" depth="3" NCoef="0" IVar="-1" Cut="0.0000000000000000e+00" cType="1" res="-2.3291283287107944e-03" rms="4.5026633143424988e-01" purity="6.3688802719116211e-01" nType="-99"/>
          </Node>
          <Node pos="r" depth="2" NCoef="0" IVar="-1" Cut="0.0000000000000000e+00" cType="1" res="9.4173075631260872e-03" rms="3.8328903913497925e-01" purity="1.9141060113906860e-01" nType="-99"/>
        </Node>
      </Node>
    </BinaryTree>
    <BinaryTree type="DecisionTree" boostWeight="1.0000000000000000e+00" itree="106">
      <Node pos="s" depth="0" NCoef="0" IVar="3" Cut="1.0000000000000000e+00" cType="1" res="1.4205020852386951e-03" rms="4.1643756628036499e-01" purity="5.0000000000000000e-01" nType="0">
        <Node pos="l" depth="1" NCoef="0" IVar="1" Cut="1.6721335649490356e+00" cType="1" res="-1.8279568757861853e-03" rms="4.1893228888511658e-01" purity="5.4398608207702637e-01" nType="0">
          <Node pos="l" depth="2" NCoef="0" IVar="2" Cut="9.7312647104263306e-01" cType="1" res="-5.9872691053897142e-04" rms="4.1379544138908386e-01" purity="5.4360496997833252e-01" nType="0">
            <Node pos="l" depth="3" NCoef="0" IVar="-1" Cut="0.0000000000000000e+00" cType="1" res="3.6113045644015074e-04" rms="4.0586584806442261e-01" purity="6.3081860542297363e-01" nType="-99"/>
            <Node pos="r" depth="3" NCoef="0" IVar="-1" Cut="0.0000000000000000e+00" cType="1" res="-1.3791944365948439e-03" rms="4.2363530397415161e-01" purity="4.3297007679939270e-01" nType="-99"/>
          </Node>
          <Node pos="r" depth="2" NCoef="0" IVar="-1" Cut="0.0000000000000000e+00" cType="1" res="-2.1510375663638115e-03" rms="4.2831510305404663e-01" purity="5.4469484090805054e-01" nType="-99"/>
        </Node>
        <Node pos="r" depth="1" NCoef="0" IVar="6" Cut="1.1814180755615234e+02" cType="1" res="1.7200966831296682e-03" rms="4.2123469710350037e-01" purity="4.7559583187103271e-01" nType="0">
          <Node pos="l" depth="2" NCoef="0" IVar="7" Cut="7.5651176452636719e+01" cType="1" res="3.5253359237685800e-04" rms="4.1839900612831116e-01" purity="4.2790159583091736e-01" nType="0">
            <Node pos="l" depth="3" NCoef="0" IVar="4" Cut="1.2380952835083008e+00" cType="1" res="4.3232850730419159e-03" rms="4.3996205925941467e-01" purity="4.5519405603408813e-01" nType="0">
              <Node pos="l" depth="4" NCoef="0" IVar="-1" Cut="0.0000000000000000e+00" cType="1" res="7.0203025825321674e-03" rms="4.3840602040290833e-01" purity="4.4436591863632202e-01" nType="-99"/>
              <Node pos="r" depth="4" NCoef="0" IVar="-1" Cut="0.0000000000000000e+00" cType="1" res="-7.4962584767490625e-04" rms="4.4097542762756348e-01" purity="4.6287497878074646e-01" nType="-99"/>
            </Node>
            <Node pos="r" depth="3" NCoef="0" IVar="4" Cut="1.3333333730697632e+00" cType="1" res="-4.0019368752837181e-03" rms="3.9334967732429504e-01" purity="3.9797163009643555e-01" nType="0">
              <Node pos="l" depth="4" NCoef="0" IVar="-1" Cut="0.0000000000000000e+00" cType="1" res="-9.7934724763035774e-03" rms="3.5983678698539734e-01" purity="2.7276355028152466e-01" nType="-99"/>
              <Node pos="r" depth="4" NCoef="0" IVar="-1" Cut="0.0000000000000000e+00" cType="1" res="2.1131602115929127e-03" rms="4.2984178662300110e-01" purity="5.4755437374114990e-01" nType="-99"/>
            </Node>
          </Node>
          <Node pos="r" depth="2" NCoef="0" IVar="-1" Cut="0.0000000000000000e+00" cType="1" res="3.0523955356329679e-03" rms="4.3152552843093872e-01" purity="6.5203750133514404e-01" nType="-99"/>
        </Node>
      </Node>
    </BinaryTree>
    <BinaryTree type="DecisionTree" boostWeight="1.0000000000000000e+00" itree="107">
      <Node pos="s" depth="0" NCoef="0" IVar="4" Cut="7.1428573131561279e-01" cType="1" res="4.7029060078784823e-04" rms="4.2040866613388062e-01" purity="5.0000000000000000e-01" nType="0">
        <Node pos="l" depth="1" NCoef="0" IVar="7" Cut="8.3542404174804688e+01" cType="1" res="-2.6225748006254435e-03" rms="4.2089155316352844e-01" purity="4.4392177462577820e-01" nType="0">
          <Node pos="l" depth="2" NCoef="0" IVar="-1" Cut="0.0000000000000000e+00" cType="1" res="-3.4294456709176302e-03" rms="4.2560610175132751e-01" purity="4.6566841006278992e-01" nType="-99"/>
          <Node pos="r" depth="2" NCoef="0" IVar="-1" Cut="0.0000000000000000e+00" cType="1" res="1.0175153147429228e-03" rms="4.1467252373695374e-01" purity="4.1578555107116699e-01" nType="-99"/>
        </Node>
        <Node pos="r" depth="1" NCoef="0" IVar="5" Cut="2.0012669372558594e+02" cType="1" res="1.7499556997790933e-03" rms="4.2020207643508911e-01" purity="5.2320218086242676e-01" nType="0">
          <Node pos="l" depth="2" NCoef="0" IVar="5" Cut="1.2873257446289062e+02" cType="1" res="2.6964540593326092e-03" rms="4.2240214347839355e-01" purity="5.4759806394577026e-01" nType="0">
            <Node pos="l" depth="3" NCoef="0" IVar="5" Cut="7.9012077331542969e+01" cType="1" res="7.8436946496367455e-03" rms="4.1349482536315918e-01" purity="5.5349183082580566e-01" nType="0">
              <Node pos="l" depth="4" NCoef="0" IVar="-1" Cut="0.0000000000000000e+00" cType="1" res="-7.9487171024084091e-03" rms="3.9672151207923889e-01" purity="2.5966599583625793e-01" nType="-99"/>
              <Node pos="r" depth="4" NCoef="0" IVar="-1" Cut="0.0000000000000000e+00" cType="1" res="6.8443128839135170e-03" rms="4.1994482278823853e-01" purity="6.7323130369186401e-01" nType="-99"/>
            </Node>
            <Node pos="r" depth="3" NCoef="0" IVar="-1" Cut="0.0000000000000000e+00" cType="1" res="-5.2349208854138851e-03" rms="4.4355443120002747e-01" purity="5.3291654586791992e-01" nType="-99"/>
          </Node>
          <Node pos="r" depth="2" NCoef="0" IVar="-1" Cut="0.0000000000000000e+00" cType="1" res="-1.6001943731680512e-03" rms="4.1054123640060425e-01" purity="4.1785478591918945e-01" nType="-99"/>
        </Node>
      </Node>
    </BinaryTree>
    <BinaryTree type="DecisionTree" boostWeight="1.0000000000000000e+00" itree="108">
      <Node pos="s" depth="0" NCoef="0" IVar="3" Cut="1.0000000000000000e+00" cType="1" res="1.5791960759088397e-03" rms="4.1639494895935059e-01" purity="5.0000000000000000e-01" nType="0">
        <Node pos="l" depth="1" NCoef="0" IVar="0" Cut="1.0502488613128662e+00" cType="1" res="-1.7937066731974483e-03" rms="4.1890138387680054e-01" purity="5.4398608207702637e-01" nType="0">
          <Node pos="l" depth="2" NCoef="0" IVar="-1" Cut="0.0000000000000000e+00" cType="1" res="-1.6832682304084301e-03" rms="4.2233622074127197e-01" purity="5.3331935405731201e-01" nType="-99"/>
          <Node pos="r" depth="2" NCoef="0" IVar="-1" Cut="0.0000000000000000e+00" cType="1" res="-2.9439774152706377e-05" rms="4.1406702995300293e-01" purity="5.5883204936981201e-01" nType="-99"/>
        </Node>
        <Node pos="r" depth="1" NCoef="0" IVar="0" Cut="1.8972072601318359e+00" cType="1" res="1.9570647273212671e-03" rms="4.2118313908576965e-01" purity="4.7559583187103271e-01" nType="0">
          <Node pos="l" depth="2" NCoef="0" IVar="5" Cut="2.2955096435546875e+02" cType="1" res="3.1281383708119392e-03" rms="4.2383679747581482e-01" purity="4.9874398112297058e-01" nType="0">
            <Node pos="l" depth="3" NCoef="0" IVar="4" Cut="1.0476191043853760e+00" cType="1" res="1.6904763178899884e-03" rms="4.2610675096511841e-01" purity="4.6869704127311707e-01" nType="0">
              <Node pos="l" depth="4" NCoef="0" IVar="1" Cut="1.0417033433914185e+00" cType="1" res="-3.6595088895410299e-03" rms="4.0854102373123169e-01" purity="3.9294093847274780e-01" nType="0">
                <Node pos="l" depth="5" NCoef="0" IVar="-1" Cut="0.0000000000000000e+00" cType="1" res="-4.5185638591647148e-03" rms="3.8451781868934631e-01" purity="3.3447098731994629e-01" nType="-99"/>
                <Node pos="r" depth="5" NCoef="0" IVar="-1" Cut="0.0000000000000000e+00" cType="1" res="-8.3242222899571061e-04" rms="4.3012461066246033e-01" purity="4.4852426648139954e-01" nType="-99"/>
              </Node>
              <Node pos="r" depth="4" NCoef="0" IVar="-1" Cut="0.0000000000000000e+00" cType="1" res="4.1667995974421501e-03" rms="4.4708767533302307e-01" purity="5.6377935409545898e-01" nType="-99"/>
            </Node>
            <Node pos="r" depth="3" NCoef="0" IVar="-1" Cut="0.0000000000000000e+00" cType="1" res="3.6705224774777889e-03" rms="4.1730493307113647e-01" purity="5.8395946025848389e-01" nType="-99"/>
          </Node>
          <Node pos="r" depth="2" NCoef="0" IVar="-1" Cut="0.0000000000000000e+00" cType="1" res="-1.6113091260194778e-03" rms="4.1129589080810547e-01" purity="3.9086970686912537e-01" nType="-99"/>
        </Node>
      </Node>
    </BinaryTree>
    <BinaryTree type="DecisionTree" boostWeight="1.0000000000000000e+00" itree="109">
      <Node pos="s" depth="0" NCoef="0" IVar="4" Cut="7.1428573131561279e-01" cType="1" res="5.5852998048067093e-04" rms="4.2036572098731995e-01" purity="5.0000000000000000e-01" nType="0">
        <Node pos="l" depth="1" NCoef="0" IVar="6" Cut="1.1854922485351562e+02" cType="1" res="-1.9975116010755301e-03" rms="4.2086300253868103e-01" purity="4.4392177462577820e-01" nType="0">
          <Node pos="l" depth="2" NCoef="0" IVar="-1" Cut="0.0000000000000000e+00" cType="1" res="1.1357498588040471e-03" rms="4.0299305319786072e-01" purity="3.2457759976387024e-01" nType="-99"/>
          <Node pos="r" depth="2" NCoef="0" IVar="-1" Cut="0.0000000000000000e+00" cType="1" res="-3.0255836900323629e-03" rms="4.4296422600746155e-01" purity="5.9898626804351807e-01" nType="-99"/>
        </Node>
        <Node pos="r" depth="1" NCoef="0" IVar="3" Cut="2.0000000000000000e+00" cType="1" res="2.9545864090323448e-03" rms="4.1459232568740845e-01" purity="5.2320218086242676e-01" nType="0">
          <Node pos="l" depth="2" NCoef="0" IVar="4" Cut="1.6666666269302368e+00" cType="1" res="2.6542236446402967e-04" rms="4.1725733876228333e-01" purity="5.7352828979492188e-01" nType="0">
            <Node pos="l" depth="3" NCoef="0" IVar="0" Cut="8.4023475646972656e-01" cType="1" res="3.9009258616715670e-03" rms="4.1385057568550110e-01" purity="4.5975306630134583e-01" nType="0">
              <Node pos="l" depth="4" NCoef="0" IVar="-1" Cut="0.0000000000000000e+00" cType="1" res="4.1753426194190979e-03" rms="4.1453626751899719e-01" purity="4.7765865921974182e-01" nType="-99"/>
              <Node pos="r" depth="4" NCoef="0" IVar="-1" Cut="0.0000000000000000e+00" cType="1" res="2.4302100064232945e-04" rms="4.1310831904411316e-01" purity="4.4116157293319702e-01" nType="-99"/>
            </Node>
            <Node pos="r" depth="3" NCoef="0" IVar="-1" Cut="0.0000000000000000e+00" cType="1" res="-1.2550837127491832e-03" rms="4.1989713907241821e-01" purity="6.6307789087295532e-01" nType="-99"/>
          </Node>
          <Node pos="r" depth="2" NCoef="0" IVar="0" Cut="1.2648075819015503e+00" cType="1" res="4.6069393865764141e-03" rms="4.2648699879646301e-01" purity="4.1176226735115051e-01" nType="0">
            <Node pos="l" depth="3" NCoef="0" IVar="-1" Cut="0.0000000000000000e+00" cType="1" res="3.9017472881823778e-03" rms="4.3686744570732117e-01" purity="4.7393724322319031e-01" nType="-99"/>
            <Node pos="r" depth="3" NCoef="0" IVar="-1" Cut="0.0000000000000000e+00" cType="1" res="1.7184176249429584e-03" rms="4.1570129990577698e-01" purity="3.4881821274757385e-01" nType="-99"/>
          </Node>
        </Node>
      </Node>
    </BinaryTree>
    <BinaryTree type="DecisionTree" boostWeight="1.0000000000000000e+00" itree="110">
      <Node pos="s" depth="0" NCoef="0" IVar="7" Cut="1.2635140228271484e+02" cType="1" res="3.7152503500692546e-04" rms="4.2035108804702759e-01" purity="5.0000000000000000e-01" nType="0">
        <Node pos="l" depth="1" NCoef="0" IVar="7" Cut="3.6114437103271484e+01" cType="1" res="-3.8341645267792046e-04" rms="4.2369067668914795e-01" purity="4.7062867879867554e-01" nType="0">
          <Node pos="l" depth="2" NCoef="0" IVar="-1" Cut="0.0000000000000000e+00" cType="1" res="-6.0222060419619083e-03" rms="4.4562003016471863e-01" purity="4.7871860861778259e-01" nType="-99"/>
          <Node pos="r" depth="2" NCoef="0" IVar="4" Cut="6.1904764175415039e-01" cType="1" res="1.5265424735844135e-03" rms="4.1965696215629578e-01" purity="4.6919530630111694e-01" nType="0">
            <Node pos="l" depth="3" NCoef="0" IVar="2" Cut="9.2930883169174194e-01" cType="1" res="-7.9516619443893433e-03" rms="4.1805124282836914e-01" purity="4.1550502181053162e-01" nType="0">
              <Node pos="l" depth="4" NCoef="0" IVar="-1" Cut="0.0000000000000000e+00" cType="1" res="-5.4355463944375515e-03" rms="4.2233023047447205e-01" purity="5.0615143775939941e-01" nType="-99"/>
              <Node pos="r" depth="4" NCoef="0" IVar="-1" Cut="0.0000000000000000e+00" cType="1" res="-4.2703221552073956e-03" rms="4.1309228539466858e-01" purity="3.1188827753067017e-01" nType="-99"/>
            </Node>
            <Node pos="r" depth="3" NCoef="0" IVar="7" Cut="9.6272041320800781e+01" cType="1" res="5.8890813961625099e-03" rms="4.2032214999198914e-01" purity="4.9390736222267151e-01" nType="0">
              <Node pos="l" depth="4" NCoef="0" IVar="6" Cut="4.2676055908203125e+01" cType="1" res="2.8648530133068562e-03" rms="4.2903158068656921e-01" purity="4.8999127745628357e-01" nType="0">
                <Node pos="l" depth="5" NCoef="0" IVar="-1" Cut="0.0000000000000000e+00" cType="1" res="-3.3554716501384974e-03" rms="4.2812553048133850e-01" purity="4.9716538190841675e-01" nType="-99"/>
                <Node pos="r" depth="5" NCoef="0" IVar="0" Cut="1.0482661724090576e+00" cType="1" res="7.6308418065309525e-03" rms="4.2945182323455811e-01" purity="4.8606514930725098e-01" nType="0">
                  <Node pos="l" depth="6" NCoef="0" IVar="-1" Cut="0.0000000000000000e+00" cType="1" res="1.3336462434381247e-03" rms="4.3377488851547241e-01" purity="5.0070905685424805e-01" nType="-99"/>
                  <Node pos="r" depth="6" NCoef="0" IVar="-1" Cut="0.0000000000000000e+00" cType="1" res="8.0489572137594223e-03" rms="4.2411383986473083e-01" purity="4.6846425533294678e-01" nType="-99"/>
                </Node>
              </Node>
              <Node pos="r" depth="4" NCoef="0" IVar="-1" Cut="0.0000000000000000e+00" cType="1" res="8.5180690512061119e-03" rms="3.9500325918197632e-01" purity="5.0478488206863403e-01" nType="-99"/>
            </Node>
          </Node>
        </Node>
        <Node pos="r" depth="1" NCoef="0" IVar="-1" Cut="0.0000000000000000e+00" cType="1" res="1.8263690872117877e-03" rms="4.0574076771736145e-01" purity="6.2562984228134155e-01" nType="-99"/>
      </Node>
    </BinaryTree>
    <BinaryTree type="DecisionTree" boostWeight="1.0000000000000000e+00" itree="111">
      <Node pos="s" depth="0" NCoef="0" IVar="6" Cut="1.1814180755615234e+02" cType="1" res="3.6795780761167407e-04" rms="4.2030903697013855e-01" purity="5.0000000000000000e-01" nType="0">
        <Node pos="l" depth="1" NCoef="0" IVar="6" Cut="7.8223556518554688e+01" cType="1" res="-4.8304343363270164e-04" rms="4.1828572750091553e-01" purity="4.7068229317665100e-01" nType="0">
          <Node pos="l" depth="2" NCoef="0" IVar="6" Cut="5.0344547271728516e+01" cType="1" res="-2.4154484272003174e-03" rms="4.1647392511367798e-01" purity="4.7474953532218933e-01" nType="0">
            <Node pos="l" depth="3" NCoef="0" IVar="4" Cut="2.1428570747375488e+00" cType="1" res="2.4958224967122078e-03" rms="4.2291218042373657e-01" purity="5.3624969720840454e-01" nType="0">
              <Node pos="l" depth="4" NCoef="0" IVar="-1" Cut="0.0000000000000000e+00" cType="1" res="7.1009183302521706e-03" rms="4.2339521646499634e-01" purity="5.0949090719223022e-01" nType="-99"/>
              <Node pos="r" depth="4" NCoef="0" IVar="-1" Cut="0.0000000000000000e+00" cType="1" res="-3.5973594058305025e-03" rms="4.2226487398147583e-01" purity="5.6077831983566284e-01" nType="-99"/>
            </Node>
            <Node pos="r" depth="3" NCoef="0" IVar="1" Cut="1.2995518445968628e+00" cType="1" res="-7.2060055099427700e-03" rms="4.1003984212875366e-01" purity="4.1476097702980042e-01" nType="0">
              <Node pos="l" depth="4" NCoef="0" IVar="-1" Cut="0.0000000000000000e+00" cType="1" res="-8.3659961819648743e-03" rms="3.9801844954490662e-01" purity="3.8884663581848145e-01" nType="-99"/>
              <Node pos="r" depth="4" NCoef="0" IVar="-1" Cut="0.0000000000000000e+00" cType="1" res="-1.3378793373703957e-03" rms="4.2239159345626831e-01" purity="4.4231879711151123e-01" nType="-99"/>
            </Node>
          </Node>
          <Node pos="r" depth="2" NCoef="0" IVar="1" Cut="1.3889360427856445e+00" cType="1" res="3.5320932511240244e-03" rms="4.2199715971946716e-01" purity="4.6223142743110657e-01" nType="0">
            <Node pos="l" depth="3" NCoef="0" IVar="-1" Cut="0.0000000000000000e+00" cType="1" res="-2.7297185733914375e-03" rms="4.1160196065902710e-01" purity="4.3078911304473877e-01" nType="-99"/>
            <Node pos="r" depth="3" NCoef="0" IVar="-1" Cut="0.0000000000000000e+00" cType="1" res="6.5392269752919674e-03" rms="4.3315383791923523e-01" purity="4.9737972021102905e-01" nType="-99"/>
          </Node>
        </Node>
        <Node pos="r" depth="1" NCoef="0" IVar="-1" Cut="0.0000000000000000e+00" cType="1" res="2.0698867738246918e-03" rms="4.2998051643371582e-01" purity="6.4245134592056274e-01" nType="-99"/>
      </Node>
    </BinaryTree>
    <BinaryTree type="DecisionTree" boostWeight="1.0000000000000000e+00" itree="112">
      <Node pos="s" depth="0" NCoef="0" IVar="6" Cut="1.1814180755615234e+02" cType="1" res="3.6174050183035433e-04" rms="4.2027670145034790e-01" purity="5.0000000000000000e-01" nType="0">
        <Node pos="l" depth="1" NCoef="0" IVar="6" Cut="7.8223556518554688e+01" cType="1" res="-3.2896373886615038e-04" rms="4.1824644804000854e-01" purity="4.7068229317665100e-01" nType="0">
          <Node pos="l" depth="2" NCoef="0" IVar="6" Cut="5.0344547271728516e+01" cType="1" res="-1.8633221043273807e-03" rms="4.1643783450126648e-01" purity="4.7474953532218933e-01" nType="0">
            <Node pos="l" depth="3" NCoef="0" IVar="0" Cut="1.6864120960235596e+00" cType="1" res="1.9428310915827751e-03" rms="4.2286777496337891e-01" purity="5.3624969720840454e-01" nType="0">
              <Node pos="l" depth="4" NCoef="0" IVar="-1" Cut="0.0000000000000000e+00" cType="1" res="4.9906126223504543e-03" rms="4.3133187294006348e-01" purity="5.8949369192123413e-01" nType="-99"/>
              <Node pos="r" depth="4" NCoef="0" IVar="-1" Cut="0.0000000000000000e+00" cType="1" res="-5.8164549991488457e-03" rms="4.1013810038566589e-01" purity="4.5970135927200317e-01" nType="-99"/>
            </Node>
            <Node pos="r" depth="3" NCoef="0" IVar="0" Cut="1.0494779348373413e+00" cType="1" res="-5.5759241804480553e-03" rms="4.1003474593162537e-01" purity="4.1476097702980042e-01" nType="0">
              <Node pos="l" depth="4" NCoef="0" IVar="-1" Cut="0.0000000000000000e+00" cType="1" res="-6.0247001238167286e-03" rms="4.1329148411750793e-01" purity="4.1582718491554260e-01" nType="-99"/>
              <Node pos="r" depth="4" NCoef="0" IVar="-1" Cut="0.0000000000000000e+00" cType="1" res="-5.5502727627754211e-04" rms="4.0591478347778320e-01" purity="4.1344037652015686e-01" nType="-99"/>
            </Node>
          </Node>
          <Node pos="r" depth="2" NCoef="0" IVar="5" Cut="1.4813482666015625e+02" cType="1" res="2.8591146692633629e-03" rms="4.2196181416511536e-01" purity="4.6223142743110657e-01" nType="0">
            <Node pos="l" depth="3" NCoef="0" IVar="-1" Cut="0.0000000000000000e+00" cType="1" res="-3.5637610126286745e-03" rms="4.0197473764419556e-01" purity="4.0122178196907043e-01" nType="-99"/>
            <Node pos="r" depth="3" NCoef="0" IVar="-1" Cut="0.0000000000000000e+00" cType="1" res="4.5927395112812519e-03" rms="4.3604946136474609e-01" purity="5.0732129812240601e-01" nType="-99"/>
          </Node>
        </Node>
        <Node pos="r" depth="1" NCoef="0" IVar="-1" Cut="0.0000000000000000e+00" cType="1" res="1.7114279326051474e-03" rms="4.2998927831649780e-01" purity="6.4245134592056274e-01" nType="-99"/>
      </Node>
    </BinaryTree>
    <BinaryTree type="DecisionTree" boostWeight="1.0000000000000000e+00" itree="113">
      <Node pos="s" depth="0" NCoef="0" IVar="0" Cut="2.3188085556030273e+00" cType="1" res="3.9592161192558706e-04" rms="4.2025369405746460e-01" purity="5.0000000000000000e-01" nType="0">
        <Node pos="l" depth="1" NCoef="0" IVar="4" Cut="2.1428570747375488e+00" cType="1" res="-1.6568519640713930e-04" rms="4.2204728722572327e-01" purity="5.0221854448318481e-01" nType="0">
          <Node pos="l" depth="2" NCoef="0" IVar="0" Cut="1.5458661317825317e+00" cType="1" res="-1.7428734572604299e-03" rms="4.2066219449043274e-01" purity="4.7749820351600647e-01" nType="0">
            <Node pos="l" depth="3" NCoef="0" IVar="2" Cut="5.7606822252273560e-01" cType="1" res="4.0243155672214925e-04" rms="4.2236164212226868e-01" purity="4.9542015790939331e-01" nType="0">
              <Node pos="l" depth="4" NCoef="0" IVar="-1" Cut="0.0000000000000000e+00" cType="1" res="1.9059919286519289e-03" rms="4.0214863419532776e-01" purity="5.7686853408813477e-01" nType="-99"/>
              <Node pos="r" depth="4" NCoef="0" IVar="1" Cut="1.4142118692398071e+00" cType="1" res="-1.4468720182776451e-03" rms="4.3356937170028687e-01" purity="4.4849172234535217e-01" nType="0">
                <Node pos="l" depth="5" NCoef="0" IVar="0" Cut="7.3612946271896362e-01" cType="1" res="1.7220719018951058e-03" rms="4.2510867118835449e-01" purity="4.3366855382919312e-01" nType="0">
                  <Node pos="l" depth="6" NCoef="0" IVar="-1" Cut="0.0000000000000000e+00" cType="1" res="-3.4002817119471729e-04" rms="4.2605087161064148e-01" purity="4.5608580112457275e-01" nType="-99"/>
                  <Node pos="r" depth="6" NCoef="0" IVar="-1" Cut="0.0000000000000000e+00" cType="1" res="3.2085827551782131e-03" rms="4.2377200722694397e-01" purity="4.0244737267494202e-01" nType="-99"/>
                </Node>
                <Node pos="r" depth="5" NCoef="0" IVar="-1" Cut="0.0000000000000000e+00" cType="1" res="-4.2965626344084740e-03" rms="4.5071291923522949e-01" purity="4.7955578565597534e-01" nType="-99"/>
              </Node>
            </Node>
            <Node pos="r" depth="3" NCoef="0" IVar="-1" Cut="0.0000000000000000e+00" cType="1" res="-6.6385897807776928e-03" rms="4.1379344463348389e-01" purity="4.0691822767257690e-01" nType="-99"/>
          </Node>
          <Node pos="r" depth="2" NCoef="0" IVar="-1" Cut="0.0000000000000000e+00" cType="1" res="3.9542261511087418e-03" rms="4.2911615967750549e-01" purity="6.3135808706283569e-01" nType="-99"/>
        </Node>
        <Node pos="r" depth="1" NCoef="0" IVar="-1" Cut="0.0000000000000000e+00" cType="1" res="2.9508329462260008e-03" rms="4.0583765506744385e-01" purity="4.8254388570785522e-01" nType="-99"/>
      </Node>
    </BinaryTree>
    <BinaryTree type="DecisionTree" boostWeight="1.0000000000000000e+00" itree="114">
      <Node pos="s" depth="0" NCoef="0" IVar="6" Cut="1.1814180755615234e+02" cType="1" res="3.8918596692383289e-04" rms="4.2023634910583496e-01" purity="5.0000000000000000e-01" nType="0">
        <Node pos="l" depth="1" NCoef="0" IVar="6" Cut="6.9352966308593750e+01" cType="1" res="-2.2121204528957605e-04" rms="4.1820570826530457e-01" purity="4.7068229317665100e-01" nType="0">
          <Node pos="l" depth="2" NCoef="0" IVar="1" Cut="2.1849880218505859e+00" cType="1" res="-2.0647263154387474e-03" rms="4.1720890998840332e-01" purity="4.8710140585899353e-01" nType="0">
            <Node pos="l" depth="3" NCoef="0" IVar="6" Cut="5.0344547271728516e+01" cType="1" res="4.7810375690460205e-04" rms="4.1497358679771423e-01" purity="4.8906722664833069e-01" nType="0">
              <Node pos="l" depth="4" NCoef="0" IVar="-1" Cut="0.0000000000000000e+00" cType="1" res="4.6748532913625240e-03" rms="4.2343568801879883e-01" purity="5.6215292215347290e-01" nType="-99"/>
              <Node pos="r" depth="4" NCoef="0" IVar="-1" Cut="0.0000000000000000e+00" cType="1" res="-6.6536488011479378e-03" rms="4.0384066104888916e-01" purity="3.9709702134132385e-01" nType="-99"/>
            </Node>
            <Node pos="r" depth="3" NCoef="0" IVar="-1" Cut="0.0000000000000000e+00" cType="1" res="-5.6607932783663273e-03" rms="4.2375445365905762e-01" purity="4.8120236396789551e-01" nType="-99"/>
          </Node>
          <Node pos="r" depth="2" NCoef="0" IVar="1" Cut="1.8391916751861572e+00" cType="1" res="2.2271578200161457e-03" rms="4.1951340436935425e-01" purity="4.4887605309486389e-01" nType="0">
            <Node pos="l" depth="3" NCoef="0" IVar="2" Cut="1.0684064626693726e+00" cType="1" res="-3.8812521379441023e-03" rms="4.1099166870117188e-01" purity="4.2201387882232666e-01" nType="0">
              <Node pos="l" depth="4" NCoef="0" IVar="-1" Cut="0.0000000000000000e+00" cType="1" res="1.7505961004644632e-03" rms="4.0796846151351929e-01" purity="4.9879598617553711e-01" nType="-99"/>
              <Node pos="r" depth="4" NCoef="0" IVar="-1" Cut="0.0000000000000000e+00" cType="1" res="-1.0564561933279037e-02" rms="4.1502368450164795e-01" purity="3.1360813975334167e-01" nType="-99"/>
            </Node>
            <Node pos="r" depth="3" NCoef="0" IVar="-1" Cut="0.0000000000000000e+00" cType="1" res="8.4695750847458839e-03" rms="4.3827965855598450e-01" purity="5.1106131076812744e-01" nType="-99"/>
          </Node>
        </Node>
        <Node pos="r" depth="1" NCoef="0" IVar="-1" Cut="0.0000000000000000e+00" cType="1" res="1.5459848800674081e-03" rms="4.2995411157608032e-01" purity="6.4245134592056274e-01" nType="-99"/>
      </Node>
    </BinaryTree>
    <BinaryTree type="DecisionTree" boostWeight="1.0000000000000000e+00" itree="115">
      <Node pos="s" depth="0" NCoef="0" IVar="0" Cut="2.3188085556030273e+00" cType="1" res="4.9368489999324083e-04" rms="4.2019242048263550e-01" purity="5.0000000000000000e-01" nType="0">
        <Node pos="l" depth="1" NCoef="0" IVar="4" Cut="2.1428570747375488e+00" cType="1" res="7.5238808676658664e-06" rms="4.2198920249938965e-01" purity="5.0221854448318481e-01" nType="0">
          <Node pos="l" depth="2" NCoef="0" IVar="0" Cut="1.5458661317825317e+00" cType="1" res="-1.1745683150365949e-03" rms="4.2059749364852905e-01" purity="4.7749820351600647e-01" nType="0">
            <Node pos="l" depth="3" NCoef="0" IVar="2" Cut="1.3441486358642578e+00" cType="1" res="5.9905520174652338e-04" rms="4.2230716347694397e-01" purity="4.9542015790939331e-01" nType="0">
              <Node pos="l" depth="4" NCoef="0" IVar="2" Cut="5.1206088066101074e-01" cType="1" res="-5.8641209034249187e-04" rms="4.1691654920578003e-01" purity="5.4976439476013184e-01" nType="0">
                <Node pos="l" depth="5" NCoef="0" IVar="-1" Cut="0.0000000000000000e+00" cType="1" res="1.7582073342055082e-03" rms="4.0211051702499390e-01" purity="5.8083826303482056e-01" nType="-99"/>
                <Node pos="r" depth="5" NCoef="0" IVar="0" Cut="6.6251671314239502e-01" cType="1" res="-3.7190513685345650e-03" rms="4.2835399508476257e-01" purity="5.2493453025817871e-01" nType="0">
                  <Node pos="l" depth="6" NCoef="0" IVar="-1" Cut="0.0000000000000000e+00" cType="1" res="-5.4407748393714428e-04" rms="4.2652189731597900e-01" purity="5.2990573644638062e-01" nType="-99"/>
                  <Node pos="r" depth="6" NCoef="0" IVar="-1" Cut="0.0000000000000000e+00" cType="1" res="-3.5526871215552092e-03" rms="4.3037164211273193e-01" purity="5.1938116550445557e-01" nType="-99"/>
                </Node>
              </Node>
              <Node pos="r" depth="4" NCoef="0" IVar="-1" Cut="0.0000000000000000e+00" cType="1" res="2.6619711425155401e-03" rms="4.3688458204269409e-01" purity="3.4478846192359924e-01" nType="-99"/>
            </Node>
            <Node pos="r" depth="3" NCoef="0" IVar="-1" Cut="0.0000000000000000e+00" cType="1" res="-5.3116302005946636e-03" rms="4.1372188925743103e-01" purity="4.0691822767257690e-01" nType="-99"/>
          </Node>
          <Node pos="r" depth="2" NCoef="0" IVar="-1" Cut="0.0000000000000000e+00" cType="1" res="3.0379928648471832e-03" rms="4.2913314700126648e-01" purity="6.3135808706283569e-01" nType="-99"/>
        </Node>
        <Node pos="r" depth="1" NCoef="0" IVar="-1" Cut="0.0000000000000000e+00" cType="1" res="2.6478155050426722e-03" rms="4.0575712919235229e-01" purity="4.8254388570785522e-01" nType="-99"/>
      </Node>
    </BinaryTree>
    <BinaryTree type="DecisionTree" boostWeight="1.0000000000000000e+00" itree="116">
      <Node pos="s" depth="0" NCoef="0" IVar="7" Cut="1.2635140228271484e+02" cType="1" res="4.1298754513263702e-04" rms="4.2018163204193115e-01" purity="5.0000000000000000e-01" nType="0">
        <Node pos="l" depth="1" NCoef="0" IVar="7" Cut="1.0228768920898438e+02" cType="1" res="-2.0359510381240398e-04" rms="4.2355573177337646e-01" purity="4.7062867879867554e-01" nType="0">
          <Node pos="l" depth="2" NCoef="0" IVar="7" Cut="3.4109184265136719e+01" cType="1" res="-1.9046709639951587e-03" rms="4.2862549424171448e-01" purity="4.7111004590988159e-01" nType="0">
            <Node pos="l" depth="3" NCoef="0" IVar="-1" Cut="0.0000000000000000e+00" cType="1" res="-7.3178899474442005e-03" rms="4.4550570845603943e-01" purity="4.7443708777427673e-01" nType="-99"/>
            <Node pos="r" depth="3" NCoef="0" IVar="6" Cut="9.1677375793457031e+01" cType="1" res="3.0037487158551812e-04" rms="4.2529076337814331e-01" purity="4.7047477960586548e-01" nType="0">
              <Node pos="l" depth="4" NCoef="0" IVar="6" Cut="3.7700660705566406e+01" cType="1" res="4.6816314570605755e-03" rms="4.1903531551361084e-01" purity="4.4391724467277527e-01" nType="0">
                <Node pos="l" depth="5" NCoef="0" IVar="-1" Cut="0.0000000000000000e+00" cType="1" res="-4.6461182646453381e-03" rms="4.2933487892150879e-01" purity="4.9077135324478149e-01" nType="-99"/>
                <Node pos="r" depth="5" NCoef="0" IVar="1" Cut="1.4966883659362793e+00" cType="1" res="9.3786958605051041e-03" rms="4.1505628824234009e-01" purity="4.2655828595161438e-01" nType="0">
                  <Node pos="l" depth="6" NCoef="0" IVar="-1" Cut="0.0000000000000000e+00" cType="1" res="3.6572339013218880e-03" rms="4.0819784998893738e-01" purity="3.9777281880378723e-01" nType="-99"/>
                  <Node pos="r" depth="6" NCoef="0" IVar="-1" Cut="0.0000000000000000e+00" cType="1" res="8.3844130858778954e-03" rms="4.2356604337692261e-01" purity="4.6317672729492188e-01" nType="-99"/>
                </Node>
              </Node>
              <Node pos="r" depth="4" NCoef="0" IVar="-1" Cut="0.0000000000000000e+00" cType="1" res="-5.2189668640494347e-03" rms="4.3972936272621155e-01" purity="5.3406089544296265e-01" nType="-99"/>
            </Node>
          </Node>
          <Node pos="r" depth="2" NCoef="0" IVar="-1" Cut="0.0000000000000000e+00" cType="1" res="5.4493704810738564e-03" rms="3.9567092061042786e-01" purity="4.6809411048889160e-01" nType="-99"/>
        </Node>
        <Node pos="r" depth="1" NCoef="0" IVar="-1" Cut="0.0000000000000000e+00" cType="1" res="1.5519415028393269e-03" rms="4.0542215108871460e-01" purity="6.2562984228134155e-01" nType="-99"/>
      </Node>
    </BinaryTree>
    <BinaryTree type="DecisionTree" boostWeight="1.0000000000000000e+00" itree="117">
      <Node pos="s" depth="0" NCoef="0" IVar="6" Cut="1.1814180755615234e+02" cType="1" res="3.2431673025712371e-04" rms="4.2013353109359741e-01" purity="5.0000000000000000e-01" nType="0">
        <Node pos="l" depth="1" NCoef="0" IVar="6" Cut="8.2658851623535156e+01" cType="1" res="-3.0741750379092991e-04" rms="4.1809612512588501e-01" purity="4.7068229317665100e-01" nType="0">
          <Node pos="l" depth="2" NCoef="0" IVar="2" Cut="6.5474462509155273e-01" cType="1" res="-1.6467825043946505e-03" rms="4.1610306501388550e-01" purity="4.7110456228256226e-01" nType="0">
            <Node pos="l" depth="3" NCoef="0" IVar="-1" Cut="0.0000000000000000e+00" cType="1" res="-2.9052181635051966e-03" rms="3.9882516860961914e-01" purity="5.3609734773635864e-01" nType="-99"/>
            <Node pos="r" depth="3" NCoef="0" IVar="1" Cut="1.6387418508529663e+00" cType="1" res="-1.9550268189050257e-04" rms="4.2337983846664429e-01" purity="4.4287532567977905e-01" nType="0">
              <Node pos="l" depth="4" NCoef="0" IVar="6" Cut="5.2456111907958984e+01" cType="1" res="2.7745063416659832e-03" rms="4.2260017991065979e-01" purity="4.4384098052978516e-01" nType="0">
                <Node pos="l" depth="5" NCoef="0" IVar="-1" Cut="0.0000000000000000e+00" cType="1" res="5.0401291809976101e-03" rms="4.3112361431121826e-01" purity="5.3400409221649170e-01" nType="-99"/>
                <Node pos="r" depth="5" NCoef="0" IVar="-1" Cut="0.0000000000000000e+00" cType="1" res="-2.1696002222597599e-03" rms="4.1481590270996094e-01" purity="3.6396798491477966e-01" nType="-99"/>
              </Node>
              <Node pos="r" depth="4" NCoef="0" IVar="-1" Cut="0.0000000000000000e+00" cType="1" res="-2.4601486511528492e-03" rms="4.2435434460639954e-01" purity="4.4162759184837341e-01" nType="-99"/>
            </Node>
          </Node>
          <Node pos="r" depth="2" NCoef="0" IVar="1" Cut="1.3889360427856445e+00" cType="1" res="3.1928049866110086e-03" rms="4.2324036359786987e-01" purity="4.6957868337631226e-01" nType="0">
            <Node pos="l" depth="3" NCoef="0" IVar="-1" Cut="0.0000000000000000e+00" cType="1" res="-1.8439579289406538e-03" rms="4.1319406032562256e-01" purity="4.3736317753791809e-01" nType="-99"/>
            <Node pos="r" depth="3" NCoef="0" IVar="-1" Cut="0.0000000000000000e+00" cType="1" res="5.2503081969916821e-03" rms="4.3394246697425842e-01" purity="5.0508409738540649e-01" nType="-99"/>
          </Node>
        </Node>
        <Node pos="r" depth="1" NCoef="0" IVar="-1" Cut="0.0000000000000000e+00" cType="1" res="1.5631605638191104e-03" rms="4.2988237738609314e-01" purity="6.4245134592056274e-01" nType="-99"/>
      </Node>
    </BinaryTree>
    <BinaryTree type="DecisionTree" boostWeight="1.0000000000000000e+00" itree="118">
      <Node pos="s" depth="0" NCoef="0" IVar="0" Cut="2.3188085556030273e+00" cType="1" res="3.0641249031759799e-04" rms="4.2012113332748413e-01" purity="5.0000000000000000e-01" nType="0">
        <Node pos="l" depth="1" NCoef="0" IVar="4" Cut="2.1428570747375488e+00" cType="1" res="-1.3498631597030908e-04" rms="4.2193278670310974e-01" purity="5.0221854448318481e-01" nType="0">
          <Node pos="l" depth="2" NCoef="0" IVar="0" Cut="1.2146095037460327e+00" cType="1" res="-1.1458322405815125e-03" rms="4.2053845524787903e-01" purity="4.7749820351600647e-01" nType="0">
            <Node pos="l" depth="3" NCoef="0" IVar="2" Cut="1.2362416982650757e+00" cType="1" res="8.7804446229711175e-04" rms="4.2256554961204529e-01" purity="4.9781662225723267e-01" nType="0">
              <Node pos="l" depth="4" NCoef="0" IVar="2" Cut="3.5321870446205139e-01" cType="1" res="-5.0490099238231778e-04" rms="4.1430342197418213e-01" purity="5.5201661586761475e-01" nType="0">
                <Node pos="l" depth="5" NCoef="0" IVar="-1" Cut="0.0000000000000000e+00" cType="1" res="2.1558974403887987e-03" rms="4.0129026770591736e-01" purity="5.9153658151626587e-01" nType="-99"/>
                <Node pos="r" depth="5" NCoef="0" IVar="0" Cut="5.2054607868194580e-01" cType="1" res="-2.7488162741065025e-03" rms="4.2045682668685913e-01" purity="5.3283268213272095e-01" nType="0">
                  <Node pos="l" depth="6" NCoef="0" IVar="-1" Cut="0.0000000000000000e+00" cType="1" res="-3.6959972931072116e-04" rms="4.1912585496902466e-01" purity="5.4035282135009766e-01" nType="-99"/>
                  <Node pos="r" depth="6" NCoef="0" IVar="-1" Cut="0.0000000000000000e+00" cType="1" res="-2.4530244991183281e-03" rms="4.2164519429206848e-01" purity="5.2604967355728149e-01" nType="-99"/>
                </Node>
              </Node>
              <Node pos="r" depth="4" NCoef="0" IVar="-1" Cut="0.0000000000000000e+00" cType="1" res="2.6736268773674965e-03" rms="4.4147244095802307e-01" purity="3.6964038014411926e-01" nType="-99"/>
            </Node>
            <Node pos="r" depth="3" NCoef="0" IVar="0" Cut="1.7404140233993530e+00" cType="1" res="-5.8497511781752110e-03" rms="4.1575086116790771e-01" purity="4.3027386069297791e-01" nType="0">
              <Node pos="l" depth="4" NCoef="0" IVar="-1" Cut="0.0000000000000000e+00" cType="1" res="-1.7974283546209335e-03" rms="4.1807869076728821e-01" purity="4.5973026752471924e-01" nType="-99"/>
              <Node pos="r" depth="4" NCoef="0" IVar="-1" Cut="0.0000000000000000e+00" cType="1" res="-6.1458027921617031e-03" rms="4.1292273998260498e-01" purity="3.9503028988838196e-01" nType="-99"/>
            </Node>
          </Node>
          <Node pos="r" depth="2" NCoef="0" IVar="-1" Cut="0.0000000000000000e+00" cType="1" res="2.5352318771183491e-03" rms="4.2910435795783997e-01" purity="6.3135808706283569e-01" nType="-99"/>
        </Node>
        <Node pos="r" depth="1" NCoef="0" IVar="-1" Cut="0.0000000000000000e+00" cType="1" res="2.3196323309093714e-03" rms="4.0556758642196655e-01" purity="4.8254388570785522e-01" nType="-99"/>
      </Node>
    </BinaryTree>
    <BinaryTree type="DecisionTree" boostWeight="1.0000000000000000e+00" itree="119">
      <Node pos="s" depth="0" NCoef="0" IVar="6" Cut="1.1814180755615234e+02" cType="1" res="2.6409560814499855e-04" rms="4.2011272907257080e-01" purity="5.0000000000000000e-01" nType="0">
        <Node pos="l" depth="1" NCoef="0" IVar="6" Cut="3.3870597839355469e+01" cType="1" res="-2.9293261468410492e-04" rms="4.1807281970977783e-01" purity="4.7068229317665100e-01" nType="0">
          <Node pos="l" depth="2" NCoef="0" IVar="-1" Cut="0.0000000000000000e+00" cType="1" res="-2.7921223081648350e-03" rms="4.2659047245979309e-01" purity="4.9608421325683594e-01" nType="-99"/>
          <Node pos="r" depth="2" NCoef="0" IVar="1" Cut="2.1659178733825684e+00" cType="1" res="6.1467371415346861e-04" rms="4.1631954908370972e-01" purity="4.6553438901901245e-01" nType="0">
            <Node pos="l" depth="3" NCoef="0" IVar="2" Cut="1.5534369945526123e+00" cType="1" res="-2.1158193703740835e-03" rms="4.1127353906631470e-01" purity="4.4835650920867920e-01" nType="0">
              <Node pos="l" depth="4" NCoef="0" IVar="5" Cut="8.6596366882324219e+01" cType="1" res="3.9551022928208113e-04" rms="4.1122454404830933e-01" purity="5.0792598724365234e-01" nType="0">
                <Node pos="l" depth="5" NCoef="0" IVar="-1" Cut="0.0000000000000000e+00" cType="1" res="-8.6573166772723198e-03" rms="3.4735316038131714e-01" purity="2.2883448004722595e-01" nType="-99"/>
                <Node pos="r" depth="5" NCoef="0" IVar="7" Cut="7.6418357849121094e+01" cType="1" res="3.4172851592302322e-03" rms="4.3148130178451538e-01" purity="6.0645759105682373e-01" nType="0">
                  <Node pos="l" depth="6" NCoef="0" IVar="-1" Cut="0.0000000000000000e+00" cType="1" res="-3.4162106458097696e-03" rms="4.4772943854331970e-01" purity="5.4808551073074341e-01" nType="-99"/>
                  <Node pos="r" depth="6" NCoef="0" IVar="-1" Cut="0.0000000000000000e+00" cType="1" res="5.5842967703938484e-03" rms="4.1810941696166992e-01" purity="6.5226334333419800e-01" nType="-99"/>
                </Node>
              </Node>
              <Node pos="r" depth="4" NCoef="0" IVar="-1" Cut="0.0000000000000000e+00" cType="1" res="-7.7346679754555225e-03" rms="4.1132920980453491e-01" purity="2.8446254134178162e-01" nType="-99"/>
            </Node>
            <Node pos="r" depth="3" NCoef="0" IVar="-1" Cut="0.0000000000000000e+00" cType="1" res="5.2826432511210442e-03" rms="4.3326190114021301e-01" purity="5.2521985769271851e-01" nType="-99"/>
          </Node>
        </Node>
        <Node pos="r" depth="1" NCoef="0" IVar="-1" Cut="0.0000000000000000e+00" cType="1" res="1.3692228822037578e-03" rms="4.2987635731697083e-01" purity="6.4245134592056274e-01" nType="-99"/>
      </Node>
    </BinaryTree>
    <BinaryTree type="DecisionTree" boostWeight="1.0000000000000000e+00" itree="120">
      <Node pos="s" depth="0" NCoef="0" IVar="3" Cut="1.0000000000000000e+00" cType="1" res="1.4221741585060954e-03" rms="4.1612216830253601e-01" purity="5.0000000000000000e-01" nType="0">
        <Node pos="l" depth="1" NCoef="0" IVar="1" Cut="1.6721335649490356e+00" cType="1" res="-1.4235735870897770e-03" rms="4.1850504279136658e-01" purity="5.4398608207702637e-01" nType="0">
          <Node pos="l" depth="2" NCoef="0" IVar="2" Cut="9.7312647104263306e-01" cType="1" res="-2.2786817862652242e-04" rms="4.1347125172615051e-01" purity="5.4360496997833252e-01" nType="0">
            <Node pos="l" depth="3" NCoef="0" IVar="-1" Cut="0.0000000000000000e+00" cType="1" res="1.6829150263220072e-04" rms="4.0554690361022949e-01" purity="6.3081860542297363e-01" nType="-99"/>
            <Node pos="r" depth="3" NCoef="0" IVar="-1" Cut="0.0000000000000000e+00" cType="1" res="-5.7353335432708263e-04" rms="4.2330923676490784e-01" purity="4.3297007679939270e-01" nType="-99"/>
          </Node>
          <Node pos="r" depth="2" NCoef="0" IVar="-1" Cut="0.0000000000000000e+00" cType="1" res="-1.9160185474902391e-03" rms="4.2770293354988098e-01" purity="5.4469484090805054e-01" nType="-99"/>
        </Node>
        <Node pos="r" depth="1" NCoef="0" IVar="0" Cut="2.1080079078674316e+00" cType="1" res="1.5337440418079495e-03" rms="4.2096212506294250e-01" purity="4.7559583187103271e-01" nType="0">
          <Node pos="l" depth="2" NCoef="0" IVar="7" Cut="8.5238883972167969e+01" cType="1" res="2.4243721272796392e-03" rms="4.2343100905418396e-01" purity="4.9267724156379700e-01" nType="0">
            <Node pos="l" depth="3" NCoef="0" IVar="7" Cut="5.2802059173583984e+01" cType="1" res="5.1050204783678055e-03" rms="4.4080778956413269e-01" purity="5.1186025142669678e-01" nType="0">
              <Node pos="l" depth="4" NCoef="0" IVar="-1" Cut="0.0000000000000000e+00" cType="1" res="6.6606015898287296e-03" rms="4.5016130805015564e-01" purity="5.4111009836196899e-01" nType="-99"/>
              <Node pos="r" depth="4" NCoef="0" IVar="-1" Cut="0.0000000000000000e+00" cType="1" res="-1.0665905429050326e-03" rms="4.3258619308471680e-01" purity="4.8703286051750183e-01" nType="-99"/>
            </Node>
            <Node pos="r" depth="3" NCoef="0" IVar="3" Cut="2.0000000000000000e+00" cType="1" res="-1.2061165180057287e-03" rms="3.5779076814651489e-01" purity="4.6922439336776733e-01" nType="0">
              <Node pos="l" depth="4" NCoef="0" IVar="-1" Cut="0.0000000000000000e+00" cType="1" res="-2.8121396899223328e-03" rms="3.9142847061157227e-01" purity="4.7604548931121826e-01" nType="-99"/>
              <Node pos="r" depth="4" NCoef="0" IVar="-1" Cut="0.0000000000000000e+00" cType="1" res="1.6461360501125455e-03" rms="4.1037902235984802e-01" purity="4.6255746483802795e-01" nType="-99"/>
            </Node>
          </Node>
          <Node pos="r" depth="2" NCoef="0" IVar="-1" Cut="0.0000000000000000e+00" cType="1" res="-2.0542871206998825e-03" rms="4.0833109617233276e-01" purity="3.8996422290802002e-01" nType="-99"/>
        </Node>
      </Node>
    </BinaryTree>
    <BinaryTree type="DecisionTree" boostWeight="1.0000000000000000e+00" itree="121">
      <Node pos="s" depth="0" NCoef="0" IVar="4" Cut="7.1428573131561279e-01" cType="1" res="4.0818681009113789e-04" rms="4.2007747292518616e-01" purity="5.0000000000000000e-01" nType="0">
        <Node pos="l" depth="1" NCoef="0" IVar="6" Cut="1.1854922485351562e+02" cType="1" res="-1.5121292090043426e-03" rms="4.2060172557830811e-01" purity="4.4392177462577820e-01" nType="0">
          <Node pos="l" depth="2" NCoef="0" IVar="-1" Cut="0.0000000000000000e+00" cType="1" res="1.5730130253359675e-03" rms="4.0272897481918335e-01" purity="3.2457759976387024e-01" nType="-99"/>
          <Node pos="r" depth="2" NCoef="0" IVar="-1" Cut="0.0000000000000000e+00" cType="1" res="-2.8534838929772377e-03" rms="4.4270348548889160e-01" purity="5.9898626804351807e-01" nType="-99"/>
        </Node>
        <Node pos="r" depth="1" NCoef="0" IVar="5" Cut="2.0012669372558594e+02" cType="1" res="1.2027126504108310e-03" rms="4.1985780000686646e-01" purity="5.2320218086242676e-01" nType="0">
          <Node pos="l" depth="2" NCoef="0" IVar="5" Cut="1.2873257446289062e+02" cType="1" res="2.2782285232096910e-03" rms="4.2204412817955017e-01" purity="5.4759806394577026e-01" nType="0">
            <Node pos="l" depth="3" NCoef="0" IVar="5" Cut="1.0111006164550781e+02" cType="1" res="6.5543721430003643e-03" rms="4.1305103898048401e-01" purity="5.5349183082580566e-01" nType="0">
              <Node pos="l" depth="4" NCoef="0" IVar="5" Cut="7.5855041503906250e+01" cType="1" res="-1.4722213381901383e-03" rms="4.1789284348487854e-01" purity="4.3813791871070862e-01" nType="0">
                <Node pos="l" depth="5" NCoef="0" IVar="-1" Cut="0.0000000000000000e+00" cType="1" res="-1.1553375050425529e-02" rms="3.8858395814895630e-01" purity="2.3110151290893555e-01" nType="-99"/>
                <Node pos="r" depth="5" NCoef="0" IVar="-1" Cut="0.0000000000000000e+00" cType="1" res="3.2234052196145058e-03" rms="4.3985274434089661e-01" purity="6.0445207357406616e-01" nType="-99"/>
              </Node>
              <Node pos="r" depth="4" NCoef="0" IVar="-1" Cut="0.0000000000000000e+00" cType="1" res="8.2148844376206398e-03" rms="4.0600290894508362e-01" purity="7.1292459964752197e-01" nType="-99"/>
            </Node>
            <Node pos="r" depth="3" NCoef="0" IVar="-1" Cut="0.0000000000000000e+00" cType="1" res="-4.3451231904327869e-03" rms="4.4347524642944336e-01" purity="5.3291654586791992e-01" nType="-99"/>
          </Node>
          <Node pos="r" depth="2" NCoef="0" IVar="-1" Cut="0.0000000000000000e+00" cType="1" res="-2.3731365799903870e-03" rms="4.1025063395500183e-01" purity="4.1785478591918945e-01" nType="-99"/>
        </Node>
      </Node>
    </BinaryTree>
    <BinaryTree type="DecisionTree" boostWeight="1.0000000000000000e+00" itree="122">
      <Node pos="s" depth="0" NCoef="0" IVar="3" Cut="1.0000000000000000e+00" cType="1" res="1.4960963744670153e-03" rms="4.1607779264450073e-01" purity="5.0000000000000000e-01" nType="0">
        <Node pos="l" depth="1" NCoef="0" IVar="1" Cut="1.6721335649490356e+00" cType="1" res="-1.7581930151209235e-03" rms="4.1847375035285950e-01" purity="5.4398608207702637e-01" nType="0">
          <Node pos="l" depth="2" NCoef="0" IVar="2" Cut="9.7312647104263306e-01" cType="1" res="-7.2727241786196828e-04" rms="4.1347345709800720e-01" purity="5.4360496997833252e-01" nType="0">
            <Node pos="l" depth="3" NCoef="0" IVar="-1" Cut="0.0000000000000000e+00" cType="1" res="-1.1800017819041386e-04" rms="4.0552699565887451e-01" purity="6.3081860542297363e-01" nType="-99"/>
            <Node pos="r" depth="3" NCoef="0" IVar="-1" Cut="0.0000000000000000e+00" cType="1" res="-8.4753986448049545e-04" rms="4.2333850264549255e-01" purity="4.3297007679939270e-01" nType="-99"/>
          </Node>
          <Node pos="r" depth="2" NCoef="0" IVar="-1" Cut="0.0000000000000000e+00" cType="1" res="-1.9331567455083132e-03" rms="4.2761367559432983e-01" purity="5.4469484090805054e-01" nType="-99"/>
        </Node>
        <Node pos="r" depth="1" NCoef="0" IVar="6" Cut="1.1814180755615234e+02" cType="1" res="1.8656722968444228e-03" rms="4.2090448737144470e-01" purity="4.7559583187103271e-01" nType="0">
          <Node pos="l" depth="2" NCoef="0" IVar="6" Cut="9.1528236389160156e+01" cType="1" res="7.5497548095881939e-04" rms="4.1805833578109741e-01" purity="4.2790159583091736e-01" nType="0">
            <Node pos="l" depth="3" NCoef="0" IVar="5" Cut="1.4449981689453125e+02" cType="1" res="-9.8538666497915983e-04" rms="4.1494432091712952e-01" purity="4.0842717885971069e-01" nType="0">
              <Node pos="l" depth="4" NCoef="0" IVar="3" Cut="2.0000000000000000e+00" cType="1" res="6.7052704980596900e-04" rms="3.8604262471199036e-01" purity="4.5427057147026062e-01" nType="0">
                <Node pos="l" depth="5" NCoef="0" IVar="-1" Cut="0.0000000000000000e+00" cType="1" res="-1.7928339075297117e-03" rms="4.0096545219421387e-01" purity="4.7286966443061829e-01" nType="-99"/>
                <Node pos="r" depth="5" NCoef="0" IVar="-1" Cut="0.0000000000000000e+00" cType="1" res="6.2524722889065742e-03" rms="4.2712250351905823e-01" purity="4.3001517653465271e-01" nType="-99"/>
              </Node>
              <Node pos="r" depth="4" NCoef="0" IVar="-1" Cut="0.0000000000000000e+00" cType="1" res="-5.3930426947772503e-03" rms="4.1863721609115601e-01" purity="3.3505973219871521e-01" nType="-99"/>
            </Node>
            <Node pos="r" depth="3" NCoef="0" IVar="-1" Cut="0.0000000000000000e+00" cType="1" res="4.1413195431232452e-03" rms="4.3039602041244507e-01" purity="5.0695735216140747e-01" nType="-99"/>
          </Node>
          <Node pos="r" depth="2" NCoef="0" IVar="-1" Cut="0.0000000000000000e+00" cType="1" res="2.6959828101098537e-03" rms="4.3124550580978394e-01" purity="6.5203750133514404e-01" nType="-99"/>
        </Node>
      </Node>
    </BinaryTree>
    <BinaryTree type="DecisionTree" boostWeight="1.0000000000000000e+00" itree="123">
      <Node pos="s" depth="0" NCoef="0" IVar="2" Cut="2.2916061878204346e+00" cType="1" res="5.3108978318050504e-04" rms="4.2002439498901367e-01" purity="5.0000000000000000e-01" nType="0">
        <Node pos="l" depth="1" NCoef="0" IVar="2" Cut="1.7459816932678223e+00" cType="1" res="-6.9551868364214897e-05" rms="4.2662343382835388e-01" purity="5.4748231172561646e-01" nType="0">
          <Node pos="l" depth="2" NCoef="0" IVar="2" Cut="1.3302615880966187e+00" cType="1" res="6.9718022132292390e-04" rms="4.2215296626091003e-01" purity="5.6724691390991211e-01" nType="0">
            <Node pos="l" depth="3" NCoef="0" IVar="4" Cut="7.1428573131561279e-01" cType="1" res="-1.1314808944007382e-04" rms="4.1580960154533386e-01" purity="5.7814222574234009e-01" nType="0">
              <Node pos="l" depth="4" NCoef="0" IVar="-1" Cut="0.0000000000000000e+00" cType="1" res="-1.4608621131628752e-03" rms="4.2591983079910278e-01" purity="5.1774537563323975e-01" nType="-99"/>
              <Node pos="r" depth="4" NCoef="0" IVar="0" Cut="1.2681946754455566e+00" cType="1" res="1.1498031672090292e-03" rms="4.1099953651428223e-01" purity="6.0633182525634766e-01" nType="0">
                <Node pos="l" depth="5" NCoef="0" IVar="2" Cut="5.7011288404464722e-01" cType="1" res="-4.2419833334861323e-05" rms="4.1174256801605225e-01" purity="5.9626811742782593e-01" nType="0">
                  <Node pos="l" depth="6" NCoef="0" IVar="-1" Cut="0.0000000000000000e+00" cType="1" res="1.4861878007650375e-03" rms="3.9435479044914246e-01" purity="6.1407786607742310e-01" nType="-99"/>
                  <Node pos="r" depth="6" NCoef="0" IVar="-1" Cut="0.0000000000000000e+00" cType="1" res="-1.3595115160569549e-03" rms="4.2745745182037354e-01" purity="5.7949268817901611e-01" nType="-99"/>
                </Node>
                <Node pos="r" depth="5" NCoef="0" IVar="-1" Cut="0.0000000000000000e+00" cType="1" res="2.0092218182981014e-03" rms="4.0922021865844727e-01" purity="6.3017159700393677e-01" nType="-99"/>
              </Node>
            </Node>
            <Node pos="r" depth="3" NCoef="0" IVar="-1" Cut="0.0000000000000000e+00" cType="1" res="2.3846672847867012e-03" rms="4.5317101478576660e-01" purity="5.1155292987823486e-01" nType="-99"/>
          </Node>
          <Node pos="r" depth="2" NCoef="0" IVar="-1" Cut="0.0000000000000000e+00" cType="1" res="-3.2635498791933060e-03" rms="4.5823928713798523e-01" purity="4.0157175064086914e-01" nType="-99"/>
        </Node>
        <Node pos="r" depth="1" NCoef="0" IVar="-1" Cut="0.0000000000000000e+00" cType="1" res="7.0714335888624191e-03" rms="3.7227782607078552e-01" purity="1.7866016924381256e-01" nType="-99"/>
      </Node>
    </BinaryTree>
    <BinaryTree type="DecisionTree" boostWeight="1.0000000000000000e+00" itree="124">
      <Node pos="s" depth="0" NCoef="0" IVar="3" Cut="1.0000000000000000e+00" cType="1" res="1.2593885185196996e-03" rms="4.1605067253112793e-01" purity="5.0000000000000000e-01" nType="0">
        <Node pos="l" depth="1" NCoef="0" IVar="1" Cut="1.6721335649490356e+00" cType="1" res="-1.4850990846753120e-03" rms="4.1845765709877014e-01" purity="5.4398608207702637e-01" nType="0">
          <Node pos="l" depth="2" NCoef="0" IVar="2" Cut="9.7312647104263306e-01" cType="1" res="-5.7917670346796513e-04" rms="4.1346332430839539e-01" purity="5.4360496997833252e-01" nType="0">
            <Node pos="l" depth="3" NCoef="0" IVar="-1" Cut="0.0000000000000000e+00" cType="1" res="-6.8631437898147851e-05" rms="4.0552064776420593e-01" purity="6.3081860542297363e-01" nType="-99"/>
            <Node pos="r" depth="3" NCoef="0" IVar="-1" Cut="0.0000000000000000e+00" cType="1" res="-7.1288511389866471e-04" rms="4.2332398891448975e-01" purity="4.3297007679939270e-01" nType="-99"/>
          </Node>
          <Node pos="r" depth="2" NCoef="0" IVar="-1" Cut="0.0000000000000000e+00" cType="1" res="-1.6668671742081642e-03" rms="4.2758831381797791e-01" purity="5.4469484090805054e-01" nType="-99"/>
        </Node>
        <Node pos="r" depth="1" NCoef="0" IVar="6" Cut="1.1814180755615234e+02" cType="1" res="1.3345532352104783e-03" rms="4.2087167501449585e-01" purity="4.7559583187103271e-01" nType="0">
          <Node pos="l" depth="2" NCoef="0" IVar="7" Cut="7.5651176452636719e+01" cType="1" res="3.1471336842514575e-04" rms="4.1802439093589783e-01" purity="4.2790159583091736e-01" nType="0">
            <Node pos="l" depth="3" NCoef="0" IVar="4" Cut="1.2380952835083008e+00" cType="1" res="3.2439779024571180e-03" rms="4.3974727392196655e-01" purity="4.5519405603408813e-01" nType="0">
              <Node pos="l" depth="4" NCoef="0" IVar="-1" Cut="0.0000000000000000e+00" cType="1" res="5.8200224302709103e-03" rms="4.3828651309013367e-01" purity="4.4436591863632202e-01" nType="-99"/>
              <Node pos="r" depth="4" NCoef="0" IVar="-1" Cut="0.0000000000000000e+00" cType="1" res="-9.3475898029282689e-04" rms="4.4071543216705322e-01" purity="4.6287497878074646e-01" nType="-99"/>
            </Node>
            <Node pos="r" depth="3" NCoef="0" IVar="6" Cut="7.3787506103515625e+01" cType="1" res="-2.8976243920624256e-03" rms="3.9279857277870178e-01" purity="3.9797163009643555e-01" nType="0">
              <Node pos="l" depth="4" NCoef="0" IVar="-1" Cut="0.0000000000000000e+00" cType="1" res="-5.5620521306991577e-03" rms="3.8926172256469727e-01" purity="3.9958369731903076e-01" nType="-99"/>
              <Node pos="r" depth="4" NCoef="0" IVar="-1" Cut="0.0000000000000000e+00" cType="1" res="2.3689665831625462e-03" rms="3.9733070135116577e-01" purity="3.9584311842918396e-01" nType="-99"/>
            </Node>
          </Node>
          <Node pos="r" depth="2" NCoef="0" IVar="-1" Cut="0.0000000000000000e+00" cType="1" res="2.3071528412401676e-03" rms="4.3122068047523499e-01" purity="6.5203750133514404e-01" nType="-99"/>
        </Node>
      </Node>
    </BinaryTree>
    <BinaryTree type="DecisionTree" boostWeight="1.0000000000000000e+00" itree="125">
      <Node pos="s" depth="0" NCoef="0" IVar="4" Cut="7.1428573131561279e-01" cType="1" res="2.9104389250278473e-04" rms="4.2000162601470947e-01" purity="5.0000000000000000e-01" nType="0">
        <Node pos="l" depth="1" NCoef="0" IVar="6" Cut="1.1854922485351562e+02" cType="1" res="-2.3536584340035915e-03" rms="4.2055290937423706e-01" purity="4.4392177462577820e-01" nType="0">
          <Node pos="l" depth="2" NCoef="0" IVar="-1" Cut="0.0000000000000000e+00" cType="1" res="5.0744024338200688e-04" rms="4.0269061923027039e-01" purity="3.2457759976387024e-01" nType="-99"/>
          <Node pos="r" depth="2" NCoef="0" IVar="-1" Cut="0.0000000000000000e+00" cType="1" res="-2.8934332076460123e-03" rms="4.4265520572662354e-01" purity="5.9898626804351807e-01" nType="-99"/>
        </Node>
        <Node pos="r" depth="1" NCoef="0" IVar="2" Cut="1.9642339944839478e+00" cType="1" res="1.3852826086804271e-03" rms="4.1976842284202576e-01" purity="5.2320218086242676e-01" nType="0">
          <Node pos="l" depth="2" NCoef="0" IVar="2" Cut="1.4030221700668335e+00" cType="1" res="3.5693583777174354e-04" rms="4.2233639955520630e-01" purity="5.9118366241455078e-01" nType="0">
            <Node pos="l" depth="3" NCoef="0" IVar="0" Cut="1.2963194847106934e+00" cType="1" res="1.8864593002945185e-03" rms="4.1245803236961365e-01" purity="6.0572040081024170e-01" nType="0">
              <Node pos="l" depth="4" NCoef="0" IVar="0" Cut="7.4074769020080566e-01" cType="1" res="5.9218669775873423e-04" rms="4.1314461827278137e-01" purity="5.9465008974075317e-01" nType="0">
                <Node pos="l" depth="5" NCoef="0" IVar="-1" Cut="0.0000000000000000e+00" cType="1" res="1.6513463342562318e-03" rms="4.1184389591217041e-01" purity="6.0141998529434204e-01" nType="-99"/>
                <Node pos="r" depth="5" NCoef="0" IVar="-1" Cut="0.0000000000000000e+00" cType="1" res="-2.0153257064521313e-03" rms="4.1533017158508301e-01" purity="5.8303111791610718e-01" nType="-99"/>
              </Node>
              <Node pos="r" depth="4" NCoef="0" IVar="-1" Cut="0.0000000000000000e+00" cType="1" res="2.5408128276467323e-03" rms="4.1074630618095398e-01" purity="6.3296180963516235e-01" nType="-99"/>
            </Node>
            <Node pos="r" depth="3" NCoef="0" IVar="-1" Cut="0.0000000000000000e+00" cType="1" res="-2.8749667108058929e-03" rms="4.6149531006813049e-01" purity="5.3008353710174561e-01" nType="-99"/>
          </Node>
          <Node pos="r" depth="2" NCoef="0" IVar="-1" Cut="0.0000000000000000e+00" cType="1" res="5.2441502921283245e-03" rms="4.0946102142333984e-01" purity="2.5515639781951904e-01" nType="-99"/>
        </Node>
      </Node>
    </BinaryTree>
    <BinaryTree type="DecisionTree" boostWeight="1.0000000000000000e+00" itree="126">
      <Node pos="s" depth="0" NCoef="0" IVar="4" Cut="7.1428573131561279e-01" cType="1" res="1.4120878768153489e-04" rms="4.1998827457427979e-01" purity="5.0000000000000000e-01" nType="0">
        <Node pos="l" depth="1" NCoef="0" IVar="7" Cut="8.3542404174804688e+01" cType="1" res="-1.9504736410453916e-03" rms="4.2054203152656555e-01" purity="4.4392177462577820e-01" nType="0">
          <Node pos="l" depth="2" NCoef="0" IVar="-1" Cut="0.0000000000000000e+00" cType="1" res="-2.5887829251587391e-03" rms="4.2528578639030457e-01" purity="4.6566841006278992e-01" nType="-99"/>
          <Node pos="r" depth="2" NCoef="0" IVar="-1" Cut="0.0000000000000000e+00" cType="1" res="8.0800853902474046e-04" rms="4.1430079936981201e-01" purity="4.1578555107116699e-01" nType="-99"/>
        </Node>
        <Node pos="r" depth="1" NCoef="0" IVar="5" Cut="2.0012669372558594e+02" cType="1" res="1.0066370014101267e-03" rms="4.1975587606430054e-01" purity="5.2320218086242676e-01" nType="0">
          <Node pos="l" depth="2" NCoef="0" IVar="7" Cut="4.6988418579101562e+01" cType="1" res="2.0924706477671862e-03" rms="4.2193064093589783e-01" purity="5.4759806394577026e-01" nType="0">
            <Node pos="l" depth="3" NCoef="0" IVar="-1" Cut="0.0000000000000000e+00" cType="1" res="-4.4846814125776291e-03" rms="4.6240815520286560e-01" purity="5.0318682193756104e-01" nType="-99"/>
            <Node pos="r" depth="3" NCoef="0" IVar="5" Cut="8.4111633300781250e+01" cType="1" res="5.0853225402534008e-03" rms="4.1006898880004883e-01" purity="5.5979061126708984e-01" nType="0">
              <Node pos="l" depth="4" NCoef="0" IVar="-1" Cut="0.0000000000000000e+00" cType="1" res="-7.6148151420056820e-03" rms="3.8513898849487305e-01" purity="2.7652457356452942e-01" nType="-99"/>
              <Node pos="r" depth="4" NCoef="0" IVar="5" Cut="1.2830795288085938e+02" cType="1" res="9.8363598808646202e-03" rms="4.1810184717178345e-01" purity="6.5611815452575684e-01" nType="0">
                <Node pos="l" depth="5" NCoef="0" IVar="-1" Cut="0.0000000000000000e+00" cType="1" res="8.3534410223364830e-03" rms="4.0193837881088257e-01" purity="7.1211326122283936e-01" nType="-99"/>
                <Node pos="r" depth="5" NCoef="0" IVar="-1" Cut="0.0000000000000000e+00" cType="1" res="-1.1258415179327130e-03" rms="4.4236311316490173e-01" purity="5.6692105531692505e-01" nType="-99"/>
              </Node>
            </Node>
          </Node>
          <Node pos="r" depth="2" NCoef="0" IVar="-1" Cut="0.0000000000000000e+00" cType="1" res="-2.5364302564412355e-03" rms="4.1019943356513977e-01" purity="4.1785478591918945e-01" nType="-99"/>
        </Node>
      </Node>
    </BinaryTree>
    <BinaryTree type="DecisionTree" boostWeight="1.0000000000000000e+00" itree="127">
      <Node pos="s" depth="0" NCoef="0" IVar="3" Cut="1.0000000000000000e+00" cType="1" res="1.2794901849702001e-03" rms="4.1599696874618530e-01" purity="5.0000000000000000e-01" nType="0">
        <Node pos="l" depth="1" NCoef="0" IVar="0" Cut="6.3015455007553101e-01" cType="1" res="-1.7416994087398052e-03" rms="4.1839697957038879e-01" purity="5.4398608207702637e-01" nType="0">
          <Node pos="l" depth="2" NCoef="0" IVar="-1" Cut="0.0000000000000000e+00" cType="1" res="-2.2119127970654517e-04" rms="4.2150202393531799e-01" purity="5.3907102346420288e-01" nType="-99"/>
          <Node pos="r" depth="2" NCoef="0" IVar="-1" Cut="0.0000000000000000e+00" cType="1" res="-1.3890148838981986e-03" rms="4.1655415296554565e-01" purity="5.4688262939453125e-01" nType="-99"/>
        </Node>
        <Node pos="r" depth="1" NCoef="0" IVar="6" Cut="1.1814180755615234e+02" cType="1" res="1.5058078570291400e-03" rms="4.2081907391548157e-01" purity="4.7559583187103271e-01" nType="0">
          <Node pos="l" depth="2" NCoef="0" IVar="5" Cut="1.4449981689453125e+02" cType="1" res="4.6810548519715667e-04" rms="4.1796511411666870e-01" purity="4.2790159583091736e-01" nType="0">
            <Node pos="l" depth="3" NCoef="0" IVar="5" Cut="7.5471267700195312e+01" cType="1" res="3.4380920697003603e-03" rms="4.1078409552574158e-01" purity="4.5030018687248230e-01" nType="0">
              <Node pos="l" depth="4" NCoef="0" IVar="-1" Cut="0.0000000000000000e+00" cType="1" res="-7.0137991569936275e-03" rms="3.7408575415611267e-01" purity="2.1219213306903839e-01" nType="-99"/>
              <Node pos="r" depth="4" NCoef="0" IVar="-1" Cut="0.0000000000000000e+00" cType="1" res="4.6750395558774471e-03" rms="4.3209028244018555e-01" purity="5.9958583116531372e-01" nType="-99"/>
            </Node>
            <Node pos="r" depth="3" NCoef="0" IVar="3" Cut="2.0000000000000000e+00" cType="1" res="-1.1088278843089938e-03" rms="4.1257849335670471e-01" purity="4.0224310755729675e-01" nType="0">
              <Node pos="l" depth="4" NCoef="0" IVar="-1" Cut="0.0000000000000000e+00" cType="1" res="5.1344460807740688e-03" rms="4.3556678295135498e-01" purity="4.8338726162910461e-01" nType="-99"/>
              <Node pos="r" depth="4" NCoef="0" IVar="-1" Cut="0.0000000000000000e+00" cType="1" res="-1.0773329995572567e-02" rms="4.1706800460815430e-01" purity="3.3036094903945923e-01" nType="-99"/>
            </Node>
          </Node>
          <Node pos="r" depth="2" NCoef="0" IVar="-1" Cut="0.0000000000000000e+00" cType="1" res="2.4130225647240877e-03" rms="4.3119126558303833e-01" purity="6.5203750133514404e-01" nType="-99"/>
        </Node>
      </Node>
    </BinaryTree>
    <BinaryTree type="DecisionTree" boostWeight="1.0000000000000000e+00" itree="128">
      <Node pos="s" depth="0" NCoef="0" IVar="3" Cut="2.0000000000000000e+00" cType="1" res="1.4128440525382757e-03" rms="4.1597276926040649e-01" purity="5.0000000000000000e-01" nType="0">
        <Node pos="l" depth="1" NCoef="0" IVar="5" Cut="1.5990359497070312e+02" cType="1" res="-4.8389646690338850e-04" rms="4.1755369305610657e-01" purity="5.2830606698989868e-01" nType="0">
          <Node pos="l" depth="2" NCoef="0" IVar="5" Cut="9.7141265869140625e+01" cType="1" res="-2.3975770454853773e-03" rms="4.1237252950668335e-01" purity="5.2064317464828491e-01" nType="0">
            <Node pos="l" depth="3" NCoef="0" IVar="-1" Cut="0.0000000000000000e+00" cType="1" res="-1.2534621171653271e-02" rms="3.8784685730934143e-01" purity="3.7574788928031921e-01" nType="-99"/>
            <Node pos="r" depth="3" NCoef="0" IVar="5" Cut="1.2403893280029297e+02" cType="1" res="3.1281572300940752e-03" rms="4.2115101218223572e-01" purity="5.7548511028289795e-01" nType="0">
              <Node pos="l" depth="4" NCoef="0" IVar="-1" Cut="0.0000000000000000e+00" cType="1" res="5.4525081068277359e-03" rms="4.0529716014862061e-01" purity="6.3745421171188354e-01" nType="-99"/>
              <Node pos="r" depth="4" NCoef="0" IVar="-1" Cut="0.0000000000000000e+00" cType="1" res="-3.3248902764171362e-03" rms="4.3972995877265930e-01" purity="4.9911612272262573e-01" nType="-99"/>
            </Node>
          </Node>
          <Node pos="r" depth="2" NCoef="0" IVar="-1" Cut="0.0000000000000000e+00" cType="1" res="1.9712268840521574e-03" rms="4.2907541990280151e-01" purity="5.4573816061019897e-01" nType="-99"/>
        </Node>
        <Node pos="r" depth="1" NCoef="0" IVar="4" Cut="1.3333333730697632e+00" cType="1" res="2.6255392003804445e-03" rms="4.2489823698997498e-01" purity="4.4034042954444885e-01" nType="0">
          <Node pos="l" depth="2" NCoef="0" IVar="-1" Cut="0.0000000000000000e+00" cType="1" res="-1.2531654210761189e-03" rms="4.1411098837852478e-01" purity="4.5666795969009399e-01" nType="-99"/>
          <Node pos="r" depth="2" NCoef="0" IVar="-1" Cut="0.0000000000000000e+00" cType="1" res="4.9268873408436775e-03" rms="4.3648034334182739e-01" purity="4.2224830389022827e-01" nType="-99"/>
        </Node>
      </Node>
    </BinaryTree>
    <BinaryTree type="DecisionTree" boostWeight="1.0000000000000000e+00" itree="129">
      <Node pos="s" depth="0" NCoef="0" IVar="4" Cut="7.1428573131561279e-01" cType="1" res="5.0568336155265570e-04" rms="4.1990059614181519e-01" purity="5.0000000000000000e-01" nType="0">
        <Node pos="l" depth="1" NCoef="0" IVar="6" Cut="1.1854922485351562e+02" cType="1" res="-1.7446333076804876e-03" rms="4.2048290371894836e-01" purity="4.4392177462577820e-01" nType="0">
          <Node pos="l" depth="2" NCoef="0" IVar="-1" Cut="0.0000000000000000e+00" cType="1" res="9.5058185979723930e-04" rms="4.0260866284370422e-01" purity="3.2457759976387024e-01" nType="-99"/>
          <Node pos="r" depth="2" NCoef="0" IVar="-1" Cut="0.0000000000000000e+00" cType="1" res="-2.5999902281910181e-03" rms="4.4259956479072571e-01" purity="5.9898626804351807e-01" nType="-99"/>
        </Node>
        <Node pos="r" depth="1" NCoef="0" IVar="3" Cut="2.0000000000000000e+00" cType="1" res="2.7194137219339609e-03" rms="4.1411986947059631e-01" purity="5.2320218086242676e-01" nType="0">
          <Node pos="l" depth="2" NCoef="0" IVar="4" Cut="1.6666666269302368e+00" cType="1" res="1.2272653111722320e-04" rms="4.1677573323249817e-01" purity="5.7352828979492188e-01" nType="0">
            <Node pos="l" depth="3" NCoef="0" IVar="0" Cut="8.4023475646972656e-01" cType="1" res="3.0882139690220356e-03" rms="4.1343703866004944e-01" purity="4.5975306630134583e-01" nType="0">
              <Node pos="l" depth="4" NCoef="0" IVar="-1" Cut="0.0000000000000000e+00" cType="1" res="3.7327210884541273e-03" rms="4.1425752639770508e-01" purity="4.7765865921974182e-01" nType="-99"/>
              <Node pos="r" depth="4" NCoef="0" IVar="-1" Cut="0.0000000000000000e+00" cType="1" res="-2.3684905318077654e-04" rms="4.1255468130111694e-01" purity="4.4116157293319702e-01" nType="-99"/>
            </Node>
            <Node pos="r" depth="3" NCoef="0" IVar="-1" Cut="0.0000000000000000e+00" cType="1" res="-1.0810428066179156e-03" rms="4.1937011480331421e-01" purity="6.6307789087295532e-01" nType="-99"/>
          </Node>
          <Node pos="r" depth="2" NCoef="0" IVar="0" Cut="1.2648075819015503e+00" cType="1" res="4.3464573100209236e-03" rms="4.2594993114471436e-01" purity="4.1176226735115051e-01" nType="0">
            <Node pos="l" depth="3" NCoef="0" IVar="-1" Cut="0.0000000000000000e+00" cType="1" res="3.2904148101806641e-03" rms="4.3652778863906860e-01" purity="4.7393724322319031e-01" nType="-99"/>
            <Node pos="r" depth="3" NCoef="0" IVar="-1" Cut="0.0000000000000000e+00" cType="1" res="2.2161209490150213e-03" rms="4.1496178507804871e-01" purity="3.4881821274757385e-01" nType="-99"/>
          </Node>
        </Node>
      </Node>
    </BinaryTree>
    <BinaryTree type="DecisionTree" boostWeight="1.0000000000000000e+00" itree="130">
      <Node pos="s" depth="0" NCoef="0" IVar="3" Cut="1.0000000000000000e+00" cType="1" res="1.2561565963551402e-03" rms="4.1592943668365479e-01" purity="5.0000000000000000e-01" nType="0">
        <Node pos="l" depth="1" NCoef="0" IVar="0" Cut="1.0502488613128662e+00" cType="1" res="-1.4563112054020166e-03" rms="4.1831827163696289e-01" purity="5.4398608207702637e-01" nType="0">
          <Node pos="l" depth="2" NCoef="0" IVar="-1" Cut="0.0000000000000000e+00" cType="1" res="-1.4079101383686066e-03" rms="4.2194059491157532e-01" purity="5.3331935405731201e-01" nType="-99"/>
          <Node pos="r" depth="2" NCoef="0" IVar="-1" Cut="0.0000000000000000e+00" cType="1" res="1.4602161172660999e-05" rms="4.1321933269500732e-01" purity="5.5883204936981201e-01" nType="-99"/>
        </Node>
        <Node pos="r" depth="1" NCoef="0" IVar="6" Cut="1.1814180755615234e+02" cType="1" res="1.3300225837156177e-03" rms="4.2075464129447937e-01" purity="4.7559583187103271e-01" nType="0">
          <Node pos="l" depth="2" NCoef="0" IVar="5" Cut="1.4449981689453125e+02" cType="1" res="3.1661786488257349e-04" rms="4.1789576411247253e-01" purity="4.2790159583091736e-01" nType="0">
            <Node pos="l" depth="3" NCoef="0" IVar="5" Cut="7.5471267700195312e+01" cType="1" res="3.1024215277284384e-03" rms="4.1073045134544373e-01" purity="4.5030018687248230e-01" nType="0">
              <Node pos="l" depth="4" NCoef="0" IVar="-1" Cut="0.0000000000000000e+00" cType="1" res="-5.1988805644214153e-03" rms="3.7412279844284058e-01" purity="2.1219213306903839e-01" nType="-99"/>
              <Node pos="r" depth="4" NCoef="0" IVar="-1" Cut="0.0000000000000000e+00" cType="1" res="3.9102248847484589e-03" rms="4.3202981352806091e-01" purity="5.9958583116531372e-01" nType="-99"/>
            </Node>
            <Node pos="r" depth="3" NCoef="0" IVar="3" Cut="2.0000000000000000e+00" cType="1" res="-1.1224565096199512e-03" rms="4.1249188780784607e-01" purity="4.0224310755729675e-01" nType="0">
              <Node pos="l" depth="4" NCoef="0" IVar="-1" Cut="0.0000000000000000e+00" cType="1" res="3.7414857652038336e-03" rms="4.3551948666572571e-01" purity="4.8338726162910461e-01" nType="-99"/>
              <Node pos="r" depth="4" NCoef="0" IVar="-1" Cut="0.0000000000000000e+00" cType="1" res="-8.9123817160725594e-03" rms="4.1706749796867371e-01" purity="3.3036094903945923e-01" nType="-99"/>
            </Node>
          </Node>
          <Node pos="r" depth="2" NCoef="0" IVar="-1" Cut="0.0000000000000000e+00" cType="1" res="2.2954116575419903e-03" rms="4.3114539980888367e-01" purity="6.5203750133514404e-01" nType="-99"/>
        </Node>
      </Node>
    </BinaryTree>
    <BinaryTree type="DecisionTree" boostWeight="1.0000000000000000e+00" itree="131">
      <Node pos="s" depth="0" NCoef="0" IVar="3" Cut="2.0000000000000000e+00" cType="1" res="1.3551941374316812e-03" rms="4.1591402888298035e-01" purity="5.0000000000000000e-01" nType="0">
        <Node pos="l" depth="1" NCoef="0" IVar="2" Cut="1.5966082811355591e+00" cType="1" res="-5.2229408174753189e-04" rms="4.1749671101570129e-01" purity="5.2830606698989868e-01" nType="0">
          <Node pos="l" depth="2" NCoef="0" IVar="0" Cut="1.3546465635299683e+00" cType="1" res="6.5816770074889064e-04" rms="4.1538223624229431e-01" purity="5.8382111787796021e-01" nType="0">
            <Node pos="l" depth="3" NCoef="0" IVar="2" Cut="6.0823523998260498e-01" cType="1" res="-1.0375918354839087e-03" rms="4.1714873909950256e-01" purity="5.6950867176055908e-01" nType="0">
              <Node pos="l" depth="4" NCoef="0" IVar="-1" Cut="0.0000000000000000e+00" cType="1" res="1.6394213307648897e-03" rms="4.0088015794754028e-01" purity="6.1440426111221313e-01" nType="-99"/>
              <Node pos="r" depth="4" NCoef="0" IVar="-1" Cut="0.0000000000000000e+00" cType="1" res="-2.4803993292152882e-03" rms="4.3087911605834961e-01" purity="5.3013128042221069e-01" nType="-99"/>
            </Node>
            <Node pos="r" depth="3" NCoef="0" IVar="-1" Cut="0.0000000000000000e+00" cType="1" res="2.8748456388711929e-03" rms="4.0999525785446167e-01" purity="6.2675648927688599e-01" nType="-99"/>
          </Node>
          <Node pos="r" depth="2" NCoef="0" IVar="-1" Cut="0.0000000000000000e+00" cType="1" res="-3.3115956466645002e-03" rms="4.2470389604568481e-01" purity="3.3628731966018677e-01" nType="-99"/>
        </Node>
        <Node pos="r" depth="1" NCoef="0" IVar="2" Cut="1.6368615627288818e+00" cType="1" res="2.5400379672646523e-03" rms="4.2482945322990417e-01" purity="4.4034042954444885e-01" nType="0">
          <Node pos="l" depth="2" NCoef="0" IVar="-1" Cut="0.0000000000000000e+00" cType="1" res="-8.0681499093770981e-04" rms="4.3214601278305054e-01" purity="5.3973025083541870e-01" nType="-99"/>
          <Node pos="r" depth="2" NCoef="0" IVar="-1" Cut="0.0000000000000000e+00" cType="1" res="8.8971517980098724e-03" rms="4.1171574592590332e-01" purity="2.6772224903106689e-01" nType="-99"/>
        </Node>
      </Node>
    </BinaryTree>
    <BinaryTree type="DecisionTree" boostWeight="1.0000000000000000e+00" itree="132">
      <Node pos="s" depth="0" NCoef="0" IVar="4" Cut="7.1428573131561279e-01" cType="1" res="3.1677779043093324e-04" rms="4.1985684633255005e-01" purity="5.0000000000000000e-01" nType="0">
        <Node pos="l" depth="1" NCoef="0" IVar="6" Cut="1.1854922485351562e+02" cType="1" res="-1.7795566236600280e-03" rms="4.2043256759643555e-01" purity="4.4392177462577820e-01" nType="0">
          <Node pos="l" depth="2" NCoef="0" IVar="-1" Cut="0.0000000000000000e+00" cType="1" res="8.3343265578150749e-04" rms="4.0256425738334656e-01" purity="3.2457759976387024e-01" nType="-99"/>
          <Node pos="r" depth="2" NCoef="0" IVar="-1" Cut="0.0000000000000000e+00" cType="1" res="-2.5423662737011909e-03" rms="4.4254449009895325e-01" purity="5.9898626804351807e-01" nType="-99"/>
        </Node>
        <Node pos="r" depth="1" NCoef="0" IVar="5" Cut="2.0012669372558594e+02" cType="1" res="1.1841307859867811e-03" rms="4.1961535811424255e-01" purity="5.2320218086242676e-01" nType="0">
          <Node pos="l" depth="2" NCoef="0" IVar="7" Cut="4.6988418579101562e+01" cType="1" res="2.0908024162054062e-03" rms="4.2178407311439514e-01" purity="5.4759806394577026e-01" nType="0">
            <Node pos="l" depth="3" NCoef="0" IVar="-1" Cut="0.0000000000000000e+00" cType="1" res="-3.6815979983657598e-03" rms="4.6241548657417297e-01" purity="5.0318682193756104e-01" nType="-99"/>
            <Node pos="r" depth="3" NCoef="0" IVar="2" Cut="5.8785545825958252e-01" cType="1" res="4.6464754268527031e-03" rms="4.0988826751708984e-01" purity="5.5979061126708984e-01" nType="0">
              <Node pos="l" depth="4" NCoef="0" IVar="-1" Cut="0.0000000000000000e+00" cType="1" res="-2.2386456839740276e-03" rms="3.7908154726028442e-01" purity="5.8959090709686279e-01" nType="-99"/>
              <Node pos="r" depth="4" NCoef="0" IVar="4" Cut="1.5714285373687744e+00" cType="1" res="9.0548545122146606e-03" rms="4.2495587468147278e-01" purity="5.4429817199707031e-01" nType="0">
                <Node pos="l" depth="5" NCoef="0" IVar="-1" Cut="0.0000000000000000e+00" cType="1" res="-8.7636220268905163e-04" rms="4.1971781849861145e-01" purity="3.8361904025077820e-01" nType="-99"/>
                <Node pos="r" depth="5" NCoef="0" IVar="-1" Cut="0.0000000000000000e+00" cType="1" res="7.4621420353651047e-03" rms="4.2813533544540405e-01" purity="6.4689600467681885e-01" nType="-99"/>
              </Node>
            </Node>
          </Node>
          <Node pos="r" depth="2" NCoef="0" IVar="-1" Cut="0.0000000000000000e+00" cType="1" res="-1.8835916416719556e-03" rms="4.1009551286697388e-01" purity="4.1785478591918945e-01" nType="-99"/>
        </Node>
      </Node>
    </BinaryTree>
    <BinaryTree type="DecisionTree" boostWeight="1.0000000000000000e+00" itree="133">
      <Node pos="s" depth="0" NCoef="0" IVar="4" Cut="7.1428573131561279e-01" cType="1" res="3.1544049852527678e-04" rms="4.1983437538146973e-01" purity="5.0000000000000000e-01" nType="0">
        <Node pos="l" depth="1" NCoef="0" IVar="0" Cut="1.0416620969772339e+00" cType="1" res="-1.4996579848229885e-03" rms="4.2042168974876404e-01" purity="4.4392177462577820e-01" nType="0">
          <Node pos="l" depth="2" NCoef="0" IVar="-1" Cut="0.0000000000000000e+00" cType="1" res="4.8007554141804576e-04" rms="4.2463427782058716e-01" purity="4.7049841284751892e-01" nType="-99"/>
          <Node pos="r" depth="2" NCoef="0" IVar="-1" Cut="0.0000000000000000e+00" cType="1" res="-3.5169182810932398e-03" rms="4.1316720843315125e-01" purity="3.9896386861801147e-01" nType="-99"/>
        </Node>
        <Node pos="r" depth="1" NCoef="0" IVar="7" Cut="1.2635140228271484e+02" cType="1" res="1.0664329165592790e-03" rms="4.1958883404731750e-01" purity="5.2320218086242676e-01" nType="0">
          <Node pos="l" depth="2" NCoef="0" IVar="7" Cut="4.2130187988281250e+01" cType="1" res="1.9700536504387856e-03" rms="4.2476329207420349e-01" purity="4.8715421557426453e-01" nType="0">
            <Node pos="l" depth="3" NCoef="0" IVar="-1" Cut="0.0000000000000000e+00" cType="1" res="-5.1057129167020321e-03" rms="4.4875031709671021e-01" purity="4.6287730336189270e-01" nType="-99"/>
            <Node pos="r" depth="3" NCoef="0" IVar="4" Cut="2.1428570747375488e+00" cType="1" res="5.0555285997688770e-03" rms="4.1784465312957764e-01" purity="4.9385777115821838e-01" nType="0">
              <Node pos="l" depth="4" NCoef="0" IVar="6" Cut="6.0351997375488281e+01" cType="1" res="8.2542495802044868e-03" rms="4.1565558314323425e-01" purity="4.6687465906143188e-01" nType="0">
                <Node pos="l" depth="5" NCoef="0" IVar="-1" Cut="0.0000000000000000e+00" cType="1" res="8.5969036445021629e-03" rms="4.0800890326499939e-01" purity="4.6076139807701111e-01" nType="-99"/>
                <Node pos="r" depth="5" NCoef="0" IVar="-1" Cut="0.0000000000000000e+00" cType="1" res="2.4342455435544252e-03" rms="4.2127346992492676e-01" purity="4.7147524356842041e-01" nType="-99"/>
              </Node>
              <Node pos="r" depth="4" NCoef="0" IVar="-1" Cut="0.0000000000000000e+00" cType="1" res="-2.2718310356140137e-03" rms="4.2398256063461304e-01" purity="5.7197749614715576e-01" nType="-99"/>
            </Node>
          </Node>
          <Node pos="r" depth="2" NCoef="0" IVar="-1" Cut="0.0000000000000000e+00" cType="1" res="-1.3125147670507431e-03" rms="3.9831635355949402e-01" purity="6.6662216186523438e-01" nType="-99"/>
        </Node>
      </Node>
    </BinaryTree>
    <BinaryTree type="DecisionTree" boostWeight="1.0000000000000000e+00" itree="134">
      <Node pos="s" depth="0" NCoef="0" IVar="6" Cut="1.1814180755615234e+02" cType="1" res="2.4355143250431865e-04" rms="4.1980642080307007e-01" purity="5.0000000000000000e-01" nType="0">
        <Node pos="l" depth="1" NCoef="0" IVar="5" Cut="1.4449981689453125e+02" cType="1" res="-3.5923832911066711e-04" rms="4.1776528954505920e-01" purity="4.7068229317665100e-01" nType="0">
          <Node pos="l" depth="2" NCoef="0" IVar="6" Cut="5.1611782073974609e+01" cType="1" res="-2.0329856779426336e-03" rms="4.1128778457641602e-01" purity="4.9815762042999268e-01" nType="0">
            <Node pos="l" depth="3" NCoef="0" IVar="-1" Cut="0.0000000000000000e+00" cType="1" res="2.4094232358038425e-03" rms="4.2748948931694031e-01" purity="6.0778170824050903e-01" nType="-99"/>
            <Node pos="r" depth="3" NCoef="0" IVar="0" Cut="1.0374462604522705e+00" cType="1" res="-7.3059024289250374e-03" rms="3.9809373021125793e-01" purity="4.1252422332763672e-01" nType="0">
              <Node pos="l" depth="4" NCoef="0" IVar="-1" Cut="0.0000000000000000e+00" cType="1" res="-9.4106979668140411e-03" rms="3.9908263087272644e-01" purity="3.8651058077812195e-01" nType="-99"/>
              <Node pos="r" depth="4" NCoef="0" IVar="-1" Cut="0.0000000000000000e+00" cType="1" res="1.4801521319895983e-03" rms="3.9628556370735168e-01" purity="4.5494151115417480e-01" nType="-99"/>
            </Node>
          </Node>
          <Node pos="r" depth="2" NCoef="0" IVar="4" Cut="6.6666668653488159e-01" cType="1" res="2.3248801007866859e-03" rms="4.2793470621109009e-01" purity="4.2662125825881958e-01" nType="0">
            <Node pos="l" depth="3" NCoef="0" IVar="-1" Cut="0.0000000000000000e+00" cType="1" res="1.0006153956055641e-02" rms="4.3158903717994690e-01" purity="4.2465534806251526e-01" nType="-99"/>
            <Node pos="r" depth="3" NCoef="0" IVar="4" Cut="1.6190476417541504e+00" cType="1" res="-4.6540829353034496e-03" rms="4.2605206370353699e-01" purity="4.2753118276596069e-01" nType="0">
              <Node pos="l" depth="4" NCoef="0" IVar="-1" Cut="0.0000000000000000e+00" cType="1" res="9.0348528465256095e-04" rms="4.2519250512123108e-01" purity="4.8654356598854065e-01" nType="-99"/>
              <Node pos="r" depth="4" NCoef="0" IVar="-1" Cut="0.0000000000000000e+00" cType="1" res="-7.3333997279405594e-03" rms="4.2676126956939697e-01" purity="3.7320607900619507e-01" nType="-99"/>
            </Node>
          </Node>
        </Node>
        <Node pos="r" depth="1" NCoef="0" IVar="-1" Cut="0.0000000000000000e+00" cType="1" res="1.4644514303654432e-03" rms="4.2957392334938049e-01" purity="6.4245134592056274e-01" nType="-99"/>
      </Node>
    </BinaryTree>
    <BinaryTree type="DecisionTree" boostWeight="1.0000000000000000e+00" itree="135">
      <Node pos="s" depth="0" NCoef="0" IVar="4" Cut="7.1428573131561279e-01" cType="1" res="3.1291539198718965e-04" rms="4.1976556181907654e-01" purity="5.0000000000000000e-01" nType="0">
        <Node pos="l" depth="1" NCoef="0" IVar="7" Cut="8.3542404174804688e+01" cType="1" res="-2.3829727433621883e-03" rms="4.2034307122230530e-01" purity="4.4392177462577820e-01" nType="0">
          <Node pos="l" depth="2" NCoef="0" IVar="-1" Cut="0.0000000000000000e+00" cType="1" res="-2.9260171577334404e-03" rms="4.2507284879684448e-01" purity="4.6566841006278992e-01" nType="-99"/>
          <Node pos="r" depth="2" NCoef="0" IVar="-1" Cut="0.0000000000000000e+00" cType="1" res="6.6224887268617749e-04" rms="4.1411754488945007e-01" purity="4.1578555107116699e-01" nType="-99"/>
        </Node>
        <Node pos="r" depth="1" NCoef="0" IVar="3" Cut="2.0000000000000000e+00" cType="1" res="2.6935953646898270e-03" rms="4.1398248076438904e-01" purity="5.2320218086242676e-01" nType="0">
          <Node pos="l" depth="2" NCoef="0" IVar="4" Cut="1.6666666269302368e+00" cType="1" res="1.5763065312057734e-04" rms="4.1663509607315063e-01" purity="5.7352828979492188e-01" nType="0">
            <Node pos="l" depth="3" NCoef="0" IVar="0" Cut="8.4023475646972656e-01" cType="1" res="3.2196657266467810e-03" rms="4.1334626078605652e-01" purity="4.5975306630134583e-01" nType="0">
              <Node pos="l" depth="4" NCoef="0" IVar="-1" Cut="0.0000000000000000e+00" cType="1" res="4.1282614693045616e-03" rms="4.1416493058204651e-01" purity="4.7765865921974182e-01" nType="-99"/>
              <Node pos="r" depth="4" NCoef="0" IVar="-1" Cut="0.0000000000000000e+00" cType="1" res="-5.0197332166135311e-04" rms="4.1245570778846741e-01" purity="4.4116157293319702e-01" nType="-99"/>
            </Node>
            <Node pos="r" depth="3" NCoef="0" IVar="-1" Cut="0.0000000000000000e+00" cType="1" res="-1.1036046780645847e-03" rms="4.1918978095054626e-01" purity="6.6307789087295532e-01" nType="-99"/>
          </Node>
          <Node pos="r" depth="2" NCoef="0" IVar="0" Cut="1.2648075819015503e+00" cType="1" res="4.2421217076480389e-03" rms="4.2582932114601135e-01" purity="4.1176226735115051e-01" nType="0">
            <Node pos="l" depth="3" NCoef="0" IVar="-1" Cut="0.0000000000000000e+00" cType="1" res="3.2659347634762526e-03" rms="4.3644991517066956e-01" purity="4.7393724322319031e-01" nType="-99"/>
            <Node pos="r" depth="3" NCoef="0" IVar="-1" Cut="0.0000000000000000e+00" cType="1" res="2.0988129545003176e-03" rms="4.1479516029357910e-01" purity="3.4881821274757385e-01" nType="-99"/>
          </Node>
        </Node>
      </Node>
    </BinaryTree>
    <BinaryTree type="DecisionTree" boostWeight="1.0000000000000000e+00" itree="136">
      <Node pos="s" depth="0" NCoef="0" IVar="4" Cut="7.1428573131561279e-01" cType="1" res="2.1426044986583292e-04" rms="4.1975474357604980e-01" purity="5.0000000000000000e-01" nType="0">
        <Node pos="l" depth="1" NCoef="0" IVar="0" Cut="1.0416620969772339e+00" cType="1" res="-1.8811571644619107e-03" rms="4.2033731937408447e-01" purity="4.4392177462577820e-01" nType="0">
          <Node pos="l" depth="2" NCoef="0" IVar="-1" Cut="0.0000000000000000e+00" cType="1" res="1.2248997518327087e-04" rms="4.2452508211135864e-01" purity="4.7049841284751892e-01" nType="-99"/>
          <Node pos="r" depth="2" NCoef="0" IVar="-1" Cut="0.0000000000000000e+00" cType="1" res="-3.4800518769770861e-03" rms="4.1313222050666809e-01" purity="3.9896386861801147e-01" nType="-99"/>
        </Node>
        <Node pos="r" depth="1" NCoef="0" IVar="2" Cut="1.9642339944839478e+00" cType="1" res="1.0812341934069991e-03" rms="4.1951042413711548e-01" purity="5.2320218086242676e-01" nType="0">
          <Node pos="l" depth="2" NCoef="0" IVar="2" Cut="1.4030221700668335e+00" cType="1" res="2.2736532264389098e-04" rms="4.2207363247871399e-01" purity="5.9118366241455078e-01" nType="0">
            <Node pos="l" depth="3" NCoef="0" IVar="0" Cut="7.4075478315353394e-01" cType="1" res="1.7668061191216111e-03" rms="4.1220149397850037e-01" purity="6.0572040081024170e-01" nType="0">
              <Node pos="l" depth="4" NCoef="0" IVar="-1" Cut="0.0000000000000000e+00" cType="1" res="1.6397563740611076e-03" rms="4.1165751218795776e-01" purity="6.0143440961837769e-01" nType="-99"/>
              <Node pos="r" depth="4" NCoef="0" IVar="2" Cut="6.6810530424118042e-01" cType="1" res="6.5350328804925084e-04" rms="4.1264143586158752e-01" purity="6.0921710729598999e-01" nType="0">
                <Node pos="l" depth="5" NCoef="0" IVar="-1" Cut="0.0000000000000000e+00" cType="1" res="-7.0119311567395926e-04" rms="3.9936593174934387e-01" purity="6.0080665349960327e-01" nType="-99"/>
                <Node pos="r" depth="5" NCoef="0" IVar="-1" Cut="0.0000000000000000e+00" cType="1" res="1.2556372676044703e-03" rms="4.2521756887435913e-01" purity="6.1744391918182373e-01" nType="-99"/>
              </Node>
            </Node>
            <Node pos="r" depth="3" NCoef="0" IVar="-1" Cut="0.0000000000000000e+00" cType="1" res="-2.9718014411628246e-03" rms="4.6120721101760864e-01" purity="5.3008353710174561e-01" nType="-99"/>
          </Node>
          <Node pos="r" depth="2" NCoef="0" IVar="-1" Cut="0.0000000000000000e+00" cType="1" res="4.2937002144753933e-03" rms="4.0922999382019043e-01" purity="2.5515639781951904e-01" nType="-99"/>
        </Node>
      </Node>
    </BinaryTree>
    <BinaryTree type="DecisionTree" boostWeight="1.0000000000000000e+00" itree="137">
      <Node pos="s" depth="0" NCoef="0" IVar="6" Cut="1.1814180755615234e+02" cType="1" res="1.2877841072622687e-04" rms="4.1974726319313049e-01" purity="5.0000000000000000e-01" nType="0">
        <Node pos="l" depth="1" NCoef="0" IVar="5" Cut="1.4449981689453125e+02" cType="1" res="-4.5429388410411775e-04" rms="4.1770160198211670e-01" purity="4.7068229317665100e-01" nType="0">
          <Node pos="l" depth="2" NCoef="0" IVar="3" Cut="2.0000000000000000e+00" cType="1" res="-5.2241683006286621e-03" rms="3.9250120520591736e-01" purity="4.9815762042999268e-01" nType="0">
            <Node pos="l" depth="3" NCoef="0" IVar="7" Cut="9.2862480163574219e+01" cType="1" res="-4.4282753951847553e-03" rms="4.0769517421722412e-01" purity="5.1995509862899780e-01" nType="0">
              <Node pos="l" depth="4" NCoef="0" IVar="5" Cut="1.0705900573730469e+02" cType="1" res="-1.0734881274402142e-02" rms="4.2960286140441895e-01" purity="4.8296508193016052e-01" nType="0">
                <Node pos="l" depth="5" NCoef="0" IVar="-1" Cut="0.0000000000000000e+00" cType="1" res="-3.6832836922258139e-03" rms="4.2019093036651611e-01" purity="4.5225188136100769e-01" nType="-99"/>
                <Node pos="r" depth="5" NCoef="0" IVar="-1" Cut="0.0000000000000000e+00" cType="1" res="-8.0333584919571877e-03" rms="4.3757086992263794e-01" purity="5.0964003801345825e-01" nType="-99"/>
              </Node>
              <Node pos="r" depth="4" NCoef="0" IVar="-1" Cut="0.0000000000000000e+00" cType="1" res="3.7341262213885784e-03" rms="3.6758574843406677e-01" purity="5.8229869604110718e-01" nType="-99"/>
            </Node>
            <Node pos="r" depth="3" NCoef="0" IVar="-1" Cut="0.0000000000000000e+00" cType="1" res="4.5778420753777027e-03" rms="4.2287835478782654e-01" purity="4.2416253685951233e-01" nType="-99"/>
          </Node>
          <Node pos="r" depth="2" NCoef="0" IVar="3" Cut="2.0000000000000000e+00" cType="1" res="3.2375988084822893e-03" rms="4.2032471299171448e-01" purity="4.2662125825881958e-01" nType="0">
            <Node pos="l" depth="3" NCoef="0" IVar="-1" Cut="0.0000000000000000e+00" cType="1" res="5.2351239137351513e-03" rms="4.3456584215164185e-01" purity="4.8890575766563416e-01" nType="-99"/>
            <Node pos="r" depth="3" NCoef="0" IVar="-1" Cut="0.0000000000000000e+00" cType="1" res="-8.3613879978656769e-03" rms="4.1700178384780884e-01" purity="3.3036094903945923e-01" nType="-99"/>
          </Node>
        </Node>
        <Node pos="r" depth="1" NCoef="0" IVar="-1" Cut="0.0000000000000000e+00" cType="1" res="1.3679963303729892e-03" rms="4.2953690886497498e-01" purity="6.4245134592056274e-01" nType="-99"/>
      </Node>
    </BinaryTree>
    <BinaryTree type="DecisionTree" boostWeight="1.0000000000000000e+00" itree="138">
      <Node pos="s" depth="0" NCoef="0" IVar="4" Cut="7.1428573131561279e-01" cType="1" res="2.1738420764449984e-04" rms="4.1970640420913696e-01" purity="5.0000000000000000e-01" nType="0">
        <Node pos="l" depth="1" NCoef="0" IVar="6" Cut="1.1854922485351562e+02" cType="1" res="-1.6216192161664367e-03" rms="4.2029270529747009e-01" purity="4.4392177462577820e-01" nType="0">
          <Node pos="l" depth="2" NCoef="0" IVar="-1" Cut="0.0000000000000000e+00" cType="1" res="4.6333222417160869e-04" rms="4.0233013033866882e-01" purity="3.2457759976387024e-01" nType="-99"/>
          <Node pos="r" depth="2" NCoef="0" IVar="-1" Cut="0.0000000000000000e+00" cType="1" res="-2.0767669193446636e-03" rms="4.4252693653106689e-01" purity="5.9898626804351807e-01" nType="-99"/>
        </Node>
        <Node pos="r" depth="1" NCoef="0" IVar="7" Cut="1.2635140228271484e+02" cType="1" res="9.7826716955751181e-04" rms="4.1946122050285339e-01" purity="5.2320218086242676e-01" nType="0">
          <Node pos="l" depth="2" NCoef="0" IVar="7" Cut="9.6271934509277344e+01" cType="1" res="1.8757869256660342e-03" rms="4.2461991310119629e-01" purity="4.8715421557426453e-01" nType="0">
            <Node pos="l" depth="3" NCoef="0" IVar="4" Cut="1.5714285373687744e+00" cType="1" res="-4.7299294965341687e-04" rms="4.3276295065879822e-01" purity="4.8215806484222412e-01" nType="0">
              <Node pos="l" depth="4" NCoef="0" IVar="-1" Cut="0.0000000000000000e+00" cType="1" res="5.6900661438703537e-03" rms="4.2429667711257935e-01" purity="4.1579121351242065e-01" nType="-99"/>
              <Node pos="r" depth="4" NCoef="0" IVar="3" Cut="2.0000000000000000e+00" cType="1" res="-1.2171621201559901e-03" rms="4.1855210065841675e-01" purity="5.1872175931930542e-01" nType="0">
                <Node pos="l" depth="5" NCoef="0" IVar="-1" Cut="0.0000000000000000e+00" cType="1" res="-6.3929576426744461e-03" rms="4.3907320499420166e-01" purity="5.9647494554519653e-01" nType="-99"/>
                <Node pos="r" depth="5" NCoef="0" IVar="-1" Cut="0.0000000000000000e+00" cType="1" res="3.1257166992872953e-03" rms="4.3439644575119019e-01" purity="4.0516498684883118e-01" nType="-99"/>
              </Node>
            </Node>
            <Node pos="r" depth="3" NCoef="0" IVar="-1" Cut="0.0000000000000000e+00" cType="1" res="6.1971005052328110e-03" rms="3.9443194866180420e-01" purity="5.0478488206863403e-01" nType="-99"/>
          </Node>
          <Node pos="r" depth="2" NCoef="0" IVar="-1" Cut="0.0000000000000000e+00" cType="1" res="-1.3475450687110424e-03" rms="3.9825573563575745e-01" purity="6.6662216186523438e-01" nType="-99"/>
        </Node>
      </Node>
    </BinaryTree>
    <BinaryTree type="DecisionTree" boostWeight="1.0000000000000000e+00" itree="139">
      <Node pos="s" depth="0" NCoef="0" IVar="6" Cut="1.1814180755615234e+02" cType="1" res="6.6447690187487751e-05" rms="4.1966959834098816e-01" purity="5.0000000000000000e-01" nType="0">
        <Node pos="l" depth="1" NCoef="0" IVar="1" Cut="1.0924954414367676e+00" cType="1" res="-5.4661562899127603e-04" rms="4.1760721802711487e-01" purity="4.7068229317665100e-01" nType="0">
          <Node pos="l" depth="2" NCoef="0" IVar="6" Cut="5.6047252655029297e+01" cType="1" res="-2.6846248656511307e-03" rms="4.0825042128562927e-01" purity="4.5949295163154602e-01" nType="0">
            <Node pos="l" depth="3" NCoef="0" IVar="-1" Cut="0.0000000000000000e+00" cType="1" res="1.0478330077603459e-03" rms="4.1749131679534912e-01" purity="5.5057865381240845e-01" nType="-99"/>
            <Node pos="r" depth="3" NCoef="0" IVar="1" Cut="5.7226085662841797e-01" cType="1" res="-5.3448355756700039e-03" rms="4.0269938111305237e-01" purity="4.0598571300506592e-01" nType="0">
              <Node pos="l" depth="4" NCoef="0" IVar="-1" Cut="0.0000000000000000e+00" cType="1" res="-5.1323343068361282e-03" rms="4.0102076530456543e-01" purity="4.0170767903327942e-01" nType="-99"/>
              <Node pos="r" depth="4" NCoef="0" IVar="-1" Cut="0.0000000000000000e+00" cType="1" res="-2.0564410369843245e-03" rms="4.0442535281181335e-01" purity="4.1043487191200256e-01" nType="-99"/>
            </Node>
          </Node>
          <Node pos="r" depth="2" NCoef="0" IVar="6" Cut="3.8305862426757812e+01" cType="1" res="8.8253908324986696e-04" rms="4.2374056577682495e-01" purity="4.7816184163093567e-01" nType="0">
            <Node pos="l" depth="3" NCoef="0" IVar="-1" Cut="0.0000000000000000e+00" cType="1" res="-3.9973938837647438e-03" rms="4.2570513486862183e-01" purity="4.7835332155227661e-01" nType="-99"/>
            <Node pos="r" depth="3" NCoef="0" IVar="1" Cut="2.2359762191772461e+00" cType="1" res="3.1946010421961546e-03" rms="4.2310643196105957e-01" purity="4.7810283303260803e-01" nType="0">
              <Node pos="l" depth="4" NCoef="0" IVar="2" Cut="9.3206536769866943e-01" cType="1" res="-9.8023447208106518e-04" rms="4.1715747117996216e-01" purity="4.5087274909019470e-01" nType="0">
                <Node pos="l" depth="5" NCoef="0" IVar="-1" Cut="0.0000000000000000e+00" cType="1" res="2.3779347538948059e-03" rms="4.1127169132232666e-01" purity="5.3699827194213867e-01" nType="-99"/>
                <Node pos="r" depth="5" NCoef="0" IVar="-1" Cut="0.0000000000000000e+00" cType="1" res="-3.9446242153644562e-03" rms="4.2229786515235901e-01" purity="3.7378829717636108e-01" nType="-99"/>
              </Node>
              <Node pos="r" depth="4" NCoef="0" IVar="-1" Cut="0.0000000000000000e+00" cType="1" res="5.8655911125242710e-03" rms="4.3429404497146606e-01" purity="5.3089690208435059e-01" nType="-99"/>
            </Node>
          </Node>
        </Node>
        <Node pos="r" depth="1" NCoef="0" IVar="-1" Cut="0.0000000000000000e+00" cType="1" res="1.4065443538129330e-03" rms="4.2953711748123169e-01" purity="6.4245134592056274e-01" nType="-99"/>
      </Node>
    </BinaryTree>
    <BinaryTree type="DecisionTree" boostWeight="1.0000000000000000e+00" itree="140">
      <Node pos="s" depth="0" NCoef="0" IVar="7" Cut="1.2635140228271484e+02" cType="1" res="1.5347263251896948e-04" rms="4.1965481638908386e-01" purity="5.0000000000000000e-01" nType="0">
        <Node pos="l" depth="1" NCoef="0" IVar="6" Cut="9.1677116394042969e+01" cType="1" res="-4.5849377056583762e-04" rms="4.2306271195411682e-01" purity="4.7062867879867554e-01" nType="0">
          <Node pos="l" depth="2" NCoef="0" IVar="0" Cut="2.1069586277008057e+00" cType="1" res="2.2584064863622189e-03" rms="4.1766050457954407e-01" purity="4.4442299008369446e-01" nType="0">
            <Node pos="l" depth="3" NCoef="0" IVar="5" Cut="1.4955754089355469e+02" cType="1" res="4.8223291523754597e-03" rms="4.2133057117462158e-01" purity="4.4806027412414551e-01" nType="0">
              <Node pos="l" depth="4" NCoef="0" IVar="5" Cut="8.4395675659179688e+01" cType="1" res="-5.7604146422818303e-04" rms="4.1881325840950012e-01" purity="4.5989856123924255e-01" nType="0">
                <Node pos="l" depth="5" NCoef="0" IVar="-1" Cut="0.0000000000000000e+00" cType="1" res="1.3439445756375790e-02" rms="3.9008980989456177e-01" purity="2.7874922752380371e-01" nType="-99"/>
                <Node pos="r" depth="5" NCoef="0" IVar="-1" Cut="0.0000000000000000e+00" cType="1" res="-4.7154421918094158e-03" rms="4.3242913484573364e-01" purity="5.5186861753463745e-01" nType="-99"/>
              </Node>
              <Node pos="r" depth="4" NCoef="0" IVar="-1" Cut="0.0000000000000000e+00" cType="1" res="1.3007254339754581e-02" rms="4.2831343412399292e-01" purity="4.1292968392372131e-01" nType="-99"/>
            </Node>
            <Node pos="r" depth="3" NCoef="0" IVar="-1" Cut="0.0000000000000000e+00" cType="1" res="-5.2214930765330791e-03" rms="4.0262573957443237e-01" purity="4.3000754714012146e-01" nType="-99"/>
          </Node>
          <Node pos="r" depth="2" NCoef="0" IVar="1" Cut="1.4746018648147583e+00" cType="1" res="-7.3242788203060627e-03" rms="4.3634116649627686e-01" purity="5.3685206174850464e-01" nType="0">
            <Node pos="l" depth="3" NCoef="0" IVar="-1" Cut="0.0000000000000000e+00" cType="1" res="-6.3592130318284035e-03" rms="4.3432039022445679e-01" purity="4.8643982410430908e-01" nType="-99"/>
            <Node pos="r" depth="3" NCoef="0" IVar="-1" Cut="0.0000000000000000e+00" cType="1" res="-1.8082222668454051e-03" rms="4.3804430961608887e-01" purity="5.8032685518264771e-01" nType="-99"/>
          </Node>
        </Node>
        <Node pos="r" depth="1" NCoef="0" IVar="-1" Cut="0.0000000000000000e+00" cType="1" res="1.4240253949537873e-03" rms="4.0474414825439453e-01" purity="6.2562984228134155e-01" nType="-99"/>
      </Node>
    </BinaryTree>
    <BinaryTree type="DecisionTree" boostWeight="1.0000000000000000e+00" itree="141">
      <Node pos="s" depth="0" NCoef="0" IVar="0" Cut="2.3188085556030273e+00" cType="1" res="-2.5341414584545419e-05" rms="4.1957244277000427e-01" purity="5.0000000000000000e-01" nType="0">
        <Node pos="l" depth="1" NCoef="0" IVar="4" Cut="2.1428570747375488e+00" cType="1" res="-5.8871693909168243e-04" rms="4.2146822810173035e-01" purity="5.0221854448318481e-01" nType="0">
          <Node pos="l" depth="2" NCoef="0" IVar="0" Cut="1.2146095037460327e+00" cType="1" res="-1.6203315462917089e-03" rms="4.2001718282699585e-01" purity="4.7749820351600647e-01" nType="0">
            <Node pos="l" depth="3" NCoef="0" IVar="2" Cut="1.4128462076187134e+00" cType="1" res="3.1383667374029756e-04" rms="4.2204871773719788e-01" purity="4.9781662225723267e-01" nType="0">
              <Node pos="l" depth="4" NCoef="0" IVar="2" Cut="4.0367609262466431e-01" cType="1" res="-5.4351129801943898e-04" rms="4.1676872968673706e-01" purity="5.4590284824371338e-01" nType="0">
                <Node pos="l" depth="5" NCoef="0" IVar="-1" Cut="0.0000000000000000e+00" cType="1" res="1.3994399923831224e-03" rms="4.0086814761161804e-01" purity="5.8791834115982056e-01" nType="-99"/>
                <Node pos="r" depth="5" NCoef="0" IVar="1" Cut="1.0417112112045288e+00" cType="1" res="-2.1884387824684381e-03" rms="4.2473635077476501e-01" purity="5.2420896291732788e-01" nType="0">
                  <Node pos="l" depth="6" NCoef="0" IVar="-1" Cut="0.0000000000000000e+00" cType="1" res="-8.6205458501353860e-05" rms="4.1144639253616333e-01" purity="4.9448302388191223e-01" nType="-99"/>
                  <Node pos="r" depth="6" NCoef="0" IVar="-1" Cut="0.0000000000000000e+00" cType="1" res="-2.2994007449597120e-03" rms="4.4070312380790710e-01" purity="5.6120288372039795e-01" nType="-99"/>
                </Node>
              </Node>
              <Node pos="r" depth="4" NCoef="0" IVar="-1" Cut="0.0000000000000000e+00" cType="1" res="2.1809653844684362e-03" rms="4.3900489807128906e-01" purity="3.3918508887290955e-01" nType="-99"/>
            </Node>
            <Node pos="r" depth="3" NCoef="0" IVar="5" Cut="1.5839291381835938e+02" cType="1" res="-6.1157485470175743e-03" rms="4.1522234678268433e-01" purity="4.3027386069297791e-01" nType="0">
              <Node pos="l" depth="4" NCoef="0" IVar="-1" Cut="0.0000000000000000e+00" cType="1" res="-5.8675389736890793e-03" rms="4.1265645623207092e-01" purity="4.2914265394210815e-01" nType="-99"/>
              <Node pos="r" depth="4" NCoef="0" IVar="-1" Cut="0.0000000000000000e+00" cType="1" res="-1.8124829512089491e-03" rms="4.1783484816551208e-01" purity="4.3144351243972778e-01" nType="-99"/>
            </Node>
          </Node>
          <Node pos="r" depth="2" NCoef="0" IVar="-1" Cut="0.0000000000000000e+00" cType="1" res="2.3823196534067392e-03" rms="4.2892834544181824e-01" purity="6.3135808706283569e-01" nType="-99"/>
        </Node>
        <Node pos="r" depth="1" NCoef="0" IVar="-1" Cut="0.0000000000000000e+00" cType="1" res="2.7341477107256651e-03" rms="4.0431860089302063e-01" purity="4.8254388570785522e-01" nType="-99"/>
      </Node>
    </BinaryTree>
    <BinaryTree type="DecisionTree" boostWeight="1.0000000000000000e+00" itree="142">
      <Node pos="s" depth="0" NCoef="0" IVar="6" Cut="1.1814180755615234e+02" cType="1" res="-6.5212752815568820e-06" rms="4.1956433653831482e-01" purity="5.0000000000000000e-01" nType="0">
        <Node pos="l" depth="1" NCoef="0" IVar="3" Cut="2.0000000000000000e+00" cType="1" res="4.0211147279478610e-04" rms="4.1279277205467224e-01" purity="4.7068229317665100e-01" nType="0">
          <Node pos="l" depth="2" NCoef="0" IVar="5" Cut="1.0866986846923828e+02" cType="1" res="5.5138958850875497e-04" rms="4.1656899452209473e-01" purity="5.0974237918853760e-01" nType="0">
            <Node pos="l" depth="3" NCoef="0" IVar="-1" Cut="0.0000000000000000e+00" cType="1" res="-2.7957404963672161e-03" rms="3.9631491899490356e-01" purity="4.5794811844825745e-01" nType="-99"/>
            <Node pos="r" depth="3" NCoef="0" IVar="4" Cut="5.2380955219268799e-01" cType="1" res="3.0001858249306679e-03" rms="4.2642432451248169e-01" purity="5.3593432903289795e-01" nType="0">
              <Node pos="l" depth="4" NCoef="0" IVar="-1" Cut="0.0000000000000000e+00" cType="1" res="7.6027777977287769e-03" rms="4.2553570866584778e-01" purity="3.7016370892524719e-01" nType="-99"/>
              <Node pos="r" depth="4" NCoef="0" IVar="0" Cut="1.0534802675247192e+00" cType="1" res="-1.7570798809174448e-04" rms="4.2671021819114685e-01" purity="5.9750109910964966e-01" nType="0">
                <Node pos="l" depth="5" NCoef="0" IVar="-1" Cut="0.0000000000000000e+00" cType="1" res="-1.4345921808853745e-03" rms="4.3429273366928101e-01" purity="6.2100601196289062e-01" nType="-99"/>
                <Node pos="r" depth="5" NCoef="0" IVar="-1" Cut="0.0000000000000000e+00" cType="1" res="1.4703982742503285e-03" rms="4.1841667890548706e-01" purity="5.7232886552810669e-01" nType="-99"/>
              </Node>
            </Node>
          </Node>
          <Node pos="r" depth="2" NCoef="0" IVar="5" Cut="1.4449981689453125e+02" cType="1" res="-3.7311101332306862e-03" rms="4.1974267363548279e-01" purity="3.7553235888481140e-01" nType="0">
            <Node pos="l" depth="3" NCoef="0" IVar="-1" Cut="0.0000000000000000e+00" cType="1" res="1.6258753603324294e-03" rms="4.2265897989273071e-01" purity="4.2416253685951233e-01" nType="-99"/>
            <Node pos="r" depth="3" NCoef="0" IVar="-1" Cut="0.0000000000000000e+00" cType="1" res="-7.4404394254088402e-03" rms="4.1692876815795898e-01" purity="3.3036094903945923e-01" nType="-99"/>
          </Node>
        </Node>
        <Node pos="r" depth="1" NCoef="0" IVar="-1" Cut="0.0000000000000000e+00" cType="1" res="1.5415353700518608e-03" rms="4.2943918704986572e-01" purity="6.4245134592056274e-01" nType="-99"/>
      </Node>
    </BinaryTree>
    <BinaryTree type="DecisionTree" boostWeight="1.0000000000000000e+00" itree="143">
      <Node pos="s" depth="0" NCoef="0" IVar="0" Cut="2.3188085556030273e+00" cType="1" res="2.7160038371221162e-05" rms="4.1954690217971802e-01" purity="5.0000000000000000e-01" nType="0">
        <Node pos="l" depth="1" NCoef="0" IVar="4" Cut="1.4285714626312256e+00" cType="1" res="-4.9049296649172902e-04" rms="4.2144379019737244e-01" purity="5.0221854448318481e-01" nType="0">
          <Node pos="l" depth="2" NCoef="0" IVar="0" Cut="1.5458583831787109e+00" cType="1" res="-2.1002155262976885e-03" rms="4.1460955142974854e-01" purity="4.4193390011787415e-01" nType="0">
            <Node pos="l" depth="3" NCoef="0" IVar="6" Cut="1.1814366912841797e+02" cType="1" res="2.6296556825400330e-05" rms="4.1711682081222534e-01" purity="4.6016690135002136e-01" nType="0">
              <Node pos="l" depth="4" NCoef="0" IVar="5" Cut="1.5799876403808594e+02" cType="1" res="1.5315265627577901e-03" rms="4.1119873523712158e-01" purity="3.8235402107238770e-01" nType="0">
                <Node pos="l" depth="5" NCoef="0" IVar="-1" Cut="0.0000000000000000e+00" cType="1" res="-3.0224488582462072e-03" rms="3.9563754200935364e-01" purity="2.9395490884780884e-01" nType="-99"/>
                <Node pos="r" depth="5" NCoef="0" IVar="-1" Cut="0.0000000000000000e+00" cType="1" res="4.9077589064836502e-03" rms="4.3378454446792603e-01" purity="5.1745939254760742e-01" nType="-99"/>
              </Node>
              <Node pos="r" depth="4" NCoef="0" IVar="-1" Cut="0.0000000000000000e+00" cType="1" res="-1.6304095042869449e-03" rms="4.3091964721679688e-01" purity="6.4626318216323853e-01" nType="-99"/>
            </Node>
            <Node pos="r" depth="3" NCoef="0" IVar="-1" Cut="0.0000000000000000e+00" cType="1" res="-7.5497091747820377e-03" rms="4.0408602356910706e-01" purity="3.6742705106735229e-01" nType="-99"/>
          </Node>
          <Node pos="r" depth="2" NCoef="0" IVar="0" Cut="1.1041922569274902e+00" cType="1" res="2.1963410545140505e-03" rms="4.3259727954864502e-01" purity="6.0284137725830078e-01" nType="0">
            <Node pos="l" depth="3" NCoef="0" IVar="-1" Cut="0.0000000000000000e+00" cType="1" res="-4.7463402734138072e-04" rms="4.3334394693374634e-01" purity="6.2892162799835205e-01" nType="-99"/>
            <Node pos="r" depth="3" NCoef="0" IVar="-1" Cut="0.0000000000000000e+00" cType="1" res="3.6763974931091070e-03" rms="4.3142637610435486e-01" purity="5.6355613470077515e-01" nType="-99"/>
          </Node>
        </Node>
        <Node pos="r" depth="1" NCoef="0" IVar="-1" Cut="0.0000000000000000e+00" cType="1" res="2.5489218533039093e-03" rms="4.0428811311721802e-01" purity="4.8254388570785522e-01" nType="-99"/>
      </Node>
    </BinaryTree>
    <BinaryTree type="DecisionTree" boostWeight="1.0000000000000000e+00" itree="144">
      <Node pos="s" depth="0" NCoef="0" IVar="6" Cut="1.1814180755615234e+02" cType="1" res="1.0088812996400520e-04" rms="4.1953316330909729e-01" purity="5.0000000000000000e-01" nType="0">
        <Node pos="l" depth="1" NCoef="0" IVar="1" Cut="1.0924954414367676e+00" cType="1" res="-6.2551459996029735e-04" rms="4.1746449470520020e-01" purity="4.7068229317665100e-01" nType="0">
          <Node pos="l" depth="2" NCoef="0" IVar="1" Cut="3.6416634917259216e-01" cType="1" res="-2.7887169271707535e-03" rms="4.0814244747161865e-01" purity="4.5949295163154602e-01" nType="0">
            <Node pos="l" depth="3" NCoef="0" IVar="-1" Cut="0.0000000000000000e+00" cType="1" res="-4.6953000128269196e-03" rms="4.0495863556861877e-01" purity="4.5625793933868408e-01" nType="-99"/>
            <Node pos="r" depth="3" NCoef="0" IVar="0" Cut="5.9968870878219604e-01" cType="1" res="-6.2306877225637436e-04" rms="4.0962812304496765e-01" purity="4.6102935075759888e-01" nType="0">
              <Node pos="l" depth="4" NCoef="0" IVar="-1" Cut="0.0000000000000000e+00" cType="1" res="1.2229745043441653e-03" rms="4.1715189814567566e-01" purity="5.0742590427398682e-01" nType="-99"/>
              <Node pos="r" depth="4" NCoef="0" IVar="-1" Cut="0.0000000000000000e+00" cType="1" res="-2.0702495239675045e-03" rms="4.0284791588783264e-01" purity="4.2003527283668518e-01" nType="-99"/>
            </Node>
          </Node>
          <Node pos="r" depth="2" NCoef="0" IVar="6" Cut="3.8305862426757812e+01" cType="1" res="8.2048040349036455e-04" rms="4.2357528209686279e-01" purity="4.7816184163093567e-01" nType="0">
            <Node pos="l" depth="3" NCoef="0" IVar="-1" Cut="0.0000000000000000e+00" cType="1" res="-3.6018835380673409e-03" rms="4.2556813359260559e-01" purity="4.7835332155227661e-01" nType="-99"/>
            <Node pos="r" depth="3" NCoef="0" IVar="1" Cut="2.2359762191772461e+00" cType="1" res="2.9162527061998844e-03" rms="4.2293718457221985e-01" purity="4.7810283303260803e-01" nType="0">
              <Node pos="l" depth="4" NCoef="0" IVar="2" Cut="9.3206536769866943e-01" cType="1" res="-5.0936982734128833e-04" rms="4.1699969768524170e-01" purity="4.5087274909019470e-01" nType="0">
                <Node pos="l" depth="5" NCoef="0" IVar="-1" Cut="0.0000000000000000e+00" cType="1" res="2.0625013858079910e-03" rms="4.1113162040710449e-01" purity="5.3699827194213867e-01" nType="-99"/>
                <Node pos="r" depth="5" NCoef="0" IVar="-1" Cut="0.0000000000000000e+00" cType="1" res="-2.9767777305096388e-03" rms="4.2214524745941162e-01" purity="3.7378829717636108e-01" nType="-99"/>
              </Node>
              <Node pos="r" depth="4" NCoef="0" IVar="-1" Cut="0.0000000000000000e+00" cType="1" res="4.9793487414717674e-03" rms="4.3414062261581421e-01" purity="5.3089690208435059e-01" nType="-99"/>
            </Node>
          </Node>
        </Node>
        <Node pos="r" depth="1" NCoef="0" IVar="-1" Cut="0.0000000000000000e+00" cType="1" res="1.6757639823481441e-03" rms="4.2942526936531067e-01" purity="6.4245134592056274e-01" nType="-99"/>
      </Node>
    </BinaryTree>
    <BinaryTree type="DecisionTree" boostWeight="1.0000000000000000e+00" itree="145">
      <Node pos="s" depth="0" NCoef="0" IVar="6" Cut="1.1814180755615234e+02" cType="1" res="1.6362361202482134e-04" rms="4.1952124238014221e-01" purity="5.0000000000000000e-01" nType="0">
        <Node pos="l" depth="1" NCoef="0" IVar="3" Cut="2.0000000000000000e+00" cType="1" res="6.6419329959899187e-04" rms="4.1274356842041016e-01" purity="4.7068229317665100e-01" nType="0">
          <Node pos="l" depth="2" NCoef="0" IVar="5" Cut="1.0866986846923828e+02" cType="1" res="5.4955179803073406e-04" rms="4.1651955246925354e-01" purity="5.0974237918853760e-01" nType="0">
            <Node pos="l" depth="3" NCoef="0" IVar="-1" Cut="0.0000000000000000e+00" cType="1" res="-1.9092921866104007e-03" rms="3.9630872011184692e-01" purity="4.5794811844825745e-01" nType="-99"/>
            <Node pos="r" depth="3" NCoef="0" IVar="4" Cut="5.2380955219268799e-01" cType="1" res="2.3101856932044029e-03" rms="4.2636460065841675e-01" purity="5.3593432903289795e-01" nType="0">
              <Node pos="l" depth="4" NCoef="0" IVar="-1" Cut="0.0000000000000000e+00" cType="1" res="5.5959476158022881e-03" rms="4.2545619606971741e-01" purity="3.7016370892524719e-01" nType="-99"/>
              <Node pos="r" depth="4" NCoef="0" IVar="6" Cut="6.0481971740722656e+01" cType="1" res="1.5335015632444993e-05" rms="4.2667871713638306e-01" purity="5.9750109910964966e-01" nType="0">
                <Node pos="l" depth="5" NCoef="0" IVar="-1" Cut="0.0000000000000000e+00" cType="1" res="1.2908482458442450e-03" rms="4.1759124398231506e-01" purity="5.9286463260650635e-01" nType="-99"/>
                <Node pos="r" depth="5" NCoef="0" IVar="-1" Cut="0.0000000000000000e+00" cType="1" res="-1.0276971152052283e-03" rms="4.3462005257606506e-01" purity="6.0164064168930054e-01" nType="-99"/>
              </Node>
            </Node>
          </Node>
          <Node pos="r" depth="2" NCoef="0" IVar="5" Cut="1.4449981689453125e+02" cType="1" res="-2.7796174399554729e-03" rms="4.1969841718673706e-01" purity="3.7553235888481140e-01" nType="0">
            <Node pos="l" depth="3" NCoef="0" IVar="-1" Cut="0.0000000000000000e+00" cType="1" res="1.4653113903477788e-03" rms="4.2262929677963257e-01" purity="4.2416253685951233e-01" nType="-99"/>
            <Node pos="r" depth="3" NCoef="0" IVar="-1" Cut="0.0000000000000000e+00" cType="1" res="-5.8434321545064449e-03" rms="4.1690072417259216e-01" purity="3.3036094903945923e-01" nType="-99"/>
          </Node>
        </Node>
        <Node pos="r" depth="1" NCoef="0" IVar="-1" Cut="0.0000000000000000e+00" cType="1" res="1.3846473302692175e-03" rms="4.2943203449249268e-01" purity="6.4245134592056274e-01" nType="-99"/>
      </Node>
    </BinaryTree>
    <BinaryTree type="DecisionTree" boostWeight="1.0000000000000000e+00" itree="146">
      <Node pos="s" depth="0" NCoef="0" IVar="4" Cut="7.1428573131561279e-01" cType="1" res="1.6060640336945653e-04" rms="4.1951128840446472e-01" purity="5.0000000000000000e-01" nType="0">
        <Node pos="l" depth="1" NCoef="0" IVar="7" Cut="8.3542404174804688e+01" cType="1" res="-2.5086647365242243e-03" rms="4.2012685537338257e-01" purity="4.4392177462577820e-01" nType="0">
          <Node pos="l" depth="2" NCoef="0" IVar="-1" Cut="0.0000000000000000e+00" cType="1" res="-3.0383241828531027e-03" rms="4.2486655712127686e-01" purity="4.6566841006278992e-01" nType="-99"/>
          <Node pos="r" depth="2" NCoef="0" IVar="-1" Cut="0.0000000000000000e+00" cType="1" res="6.4028787892311811e-04" rms="4.1388675570487976e-01" purity="4.1578555107116699e-01" nType="-99"/>
        </Node>
        <Node pos="r" depth="1" NCoef="0" IVar="2" Cut="1.9642339944839478e+00" cType="1" res="1.2650104472413659e-03" rms="4.1925135254859924e-01" purity="5.2320218086242676e-01" nType="0">
          <Node pos="l" depth="2" NCoef="0" IVar="5" Cut="1.5334861755371094e+02" cType="1" res="2.1620363986585289e-04" rms="4.2179626226425171e-01" purity="5.9118366241455078e-01" nType="0">
            <Node pos="l" depth="3" NCoef="0" IVar="7" Cut="9.2861343383789062e+01" cType="1" res="2.0969526376575232e-03" rms="4.1553178429603577e-01" purity="5.6828635931015015e-01" nType="0">
              <Node pos="l" depth="4" NCoef="0" IVar="5" Cut="9.3078269958496094e+01" cType="1" res="-1.9060076447203755e-03" rms="4.4314298033714294e-01" purity="5.3691989183425903e-01" nType="0">
                <Node pos="l" depth="5" NCoef="0" IVar="-1" Cut="0.0000000000000000e+00" cType="1" res="3.6046775057911873e-03" rms="4.3748280405998230e-01" purity="4.0408316254615784e-01" nType="-99"/>
                <Node pos="r" depth="5" NCoef="0" IVar="-1" Cut="0.0000000000000000e+00" cType="1" res="-3.6515993997454643e-03" rms="4.4749307632446289e-01" purity="6.4246857166290283e-01" nType="-99"/>
              </Node>
              <Node pos="r" depth="4" NCoef="0" IVar="-1" Cut="0.0000000000000000e+00" cType="1" res="4.5913690701127052e-03" rms="3.7111285328865051e-01" purity="6.1443650722503662e-01" nType="-99"/>
            </Node>
            <Node pos="r" depth="3" NCoef="0" IVar="-1" Cut="0.0000000000000000e+00" cType="1" res="-3.0544730834662914e-03" rms="4.4523614645004272e-01" purity="6.8019145727157593e-01" nType="-99"/>
          </Node>
          <Node pos="r" depth="2" NCoef="0" IVar="-1" Cut="0.0000000000000000e+00" cType="1" res="5.2183023653924465e-03" rms="4.0903642773628235e-01" purity="2.5515639781951904e-01" nType="-99"/>
        </Node>
      </Node>
    </BinaryTree>
    <BinaryTree type="DecisionTree" boostWeight="1.0000000000000000e+00" itree="147">
      <Node pos="s" depth="0" NCoef="0" IVar="4" Cut="7.1428573131561279e-01" cType="1" res="-4.2506908926043252e-07" rms="4.1949194669723511e-01" purity="5.0000000000000000e-01" nType="0">
        <Node pos="l" depth="1" NCoef="0" IVar="7" Cut="8.3542404174804688e+01" cType="1" res="-1.9805687479674816e-03" rms="4.2012047767639160e-01" purity="4.4392177462577820e-01" nType="0">
          <Node pos="l" depth="2" NCoef="0" IVar="-1" Cut="0.0000000000000000e+00" cType="1" res="-2.3915842175483704e-03" rms="4.2486461997032166e-01" purity="4.6566841006278992e-01" nType="-99"/>
          <Node pos="r" depth="2" NCoef="0" IVar="-1" Cut="0.0000000000000000e+00" cType="1" res="4.9934152048081160e-04" rms="4.1388490796089172e-01" purity="4.1578555107116699e-01" nType="-99"/>
        </Node>
        <Node pos="r" depth="1" NCoef="0" IVar="3" Cut="1.0000000000000000e+00" cType="1" res="2.0517797674983740e-03" rms="4.1369959712028503e-01" purity="5.2320218086242676e-01" nType="0">
          <Node pos="l" depth="2" NCoef="0" IVar="4" Cut="1.6666666269302368e+00" cType="1" res="3.2439006026834249e-03" rms="4.1815012693405151e-01" purity="6.2480080127716064e-01" nType="0">
            <Node pos="l" depth="3" NCoef="0" IVar="-1" Cut="0.0000000000000000e+00" cType="1" res="3.7550642155110836e-03" rms="4.3124669790267944e-01" purity="5.2127516269683838e-01" nType="-99"/>
            <Node pos="r" depth="3" NCoef="0" IVar="-1" Cut="0.0000000000000000e+00" cType="1" res="1.2813006469514221e-04" rms="4.0790098905563354e-01" purity="7.0339965820312500e-01" nType="-99"/>
          </Node>
          <Node pos="r" depth="2" NCoef="0" IVar="2" Cut="1.9642339944839478e+00" cType="1" res="-6.8453158019110560e-04" rms="4.1988921165466309e-01" purity="4.6021705865859985e-01" nType="0">
            <Node pos="l" depth="3" NCoef="0" IVar="1" Cut="1.5652085542678833e+00" cType="1" res="-1.9265940645709634e-03" rms="4.2529791593551636e-01" purity="5.3463691473007202e-01" nType="0">
              <Node pos="l" depth="4" NCoef="0" IVar="2" Cut="7.4828159809112549e-01" cType="1" res="-5.0530117005109787e-04" rms="4.1431543231010437e-01" purity="5.0629383325576782e-01" nType="0">
                <Node pos="l" depth="5" NCoef="0" IVar="-1" Cut="0.0000000000000000e+00" cType="1" res="-3.3734990283846855e-03" rms="3.8543558120727539e-01" purity="4.8202782869338989e-01" nType="-99"/>
                <Node pos="r" depth="5" NCoef="0" IVar="-1" Cut="0.0000000000000000e+00" cType="1" res="2.2078941110521555e-03" rms="4.4148483872413635e-01" purity="5.3077107667922974e-01" nType="-99"/>
              </Node>
              <Node pos="r" depth="4" NCoef="0" IVar="-1" Cut="0.0000000000000000e+00" cType="1" res="-2.0810042042285204e-03" rms="4.4270950555801392e-01" purity="5.8111852407455444e-01" nType="-99"/>
            </Node>
            <Node pos="r" depth="3" NCoef="0" IVar="-1" Cut="0.0000000000000000e+00" cType="1" res="3.1385999172925949e-03" rms="4.0336164832115173e-01" purity="2.3900909721851349e-01" nType="-99"/>
          </Node>
        </Node>
      </Node>
    </BinaryTree>
    <BinaryTree type="DecisionTree" boostWeight="1.0000000000000000e+00" itree="148">
      <Node pos="s" depth="0" NCoef="0" IVar="6" Cut="1.1814180755615234e+02" cType="1" res="-4.3199590436415747e-05" rms="4.1948452591896057e-01" purity="5.0000000000000000e-01" nType="0">
        <Node pos="l" depth="1" NCoef="0" IVar="1" Cut="1.0924954414367676e+00" cType="1" res="-6.3095800578594208e-04" rms="4.1741535067558289e-01" purity="4.7068229317665100e-01" nType="0">
          <Node pos="l" depth="2" NCoef="0" IVar="5" Cut="1.4083737182617188e+02" cType="1" res="-2.6727775111794472e-03" rms="4.0810883045196533e-01" purity="4.5949295163154602e-01" nType="0">
            <Node pos="l" depth="3" NCoef="0" IVar="2" Cut="8.0527579784393311e-01" cType="1" res="-4.5818402431905270e-03" rms="3.9716532826423645e-01" purity="4.6714970469474792e-01" nType="0">
              <Node pos="l" depth="4" NCoef="0" IVar="-1" Cut="0.0000000000000000e+00" cType="1" res="-5.6767673231661320e-03" rms="3.7638729810714722e-01" purity="4.5760461688041687e-01" nType="-99"/>
              <Node pos="r" depth="4" NCoef="0" IVar="-1" Cut="0.0000000000000000e+00" cType="1" res="-3.3122903550975025e-04" rms="4.1924664378166199e-01" purity="4.7787377238273621e-01" nType="-99"/>
            </Node>
            <Node pos="r" depth="3" NCoef="0" IVar="-1" Cut="0.0000000000000000e+00" cType="1" res="7.6222833013162017e-04" rms="4.2983943223953247e-01" purity="4.4365179538726807e-01" nType="-99"/>
          </Node>
          <Node pos="r" depth="2" NCoef="0" IVar="6" Cut="4.2741149902343750e+01" cType="1" res="7.3389860335737467e-04" rms="4.2351678013801575e-01" purity="4.7816184163093567e-01" nType="0">
            <Node pos="l" depth="3" NCoef="0" IVar="-1" Cut="0.0000000000000000e+00" cType="1" res="-2.8372702654451132e-03" rms="4.2348301410675049e-01" purity="4.9299371242523193e-01" nType="-99"/>
            <Node pos="r" depth="3" NCoef="0" IVar="1" Cut="2.2359762191772461e+00" cType="1" res="2.9388025868684053e-03" rms="4.2351007461547852e-01" purity="4.7225394845008850e-01" nType="0">
              <Node pos="l" depth="4" NCoef="0" IVar="2" Cut="1.1687307357788086e+00" cType="1" res="-5.4852833272889256e-04" rms="4.1727584600448608e-01" purity="4.4320434331893921e-01" nType="0">
                <Node pos="l" depth="5" NCoef="0" IVar="-1" Cut="0.0000000000000000e+00" cType="1" res="1.8539301818236709e-03" rms="4.1601863503456116e-01" purity="5.2532726526260376e-01" nType="-99"/>
                <Node pos="r" depth="5" NCoef="0" IVar="-1" Cut="0.0000000000000000e+00" cType="1" res="-4.4386889785528183e-03" rms="4.1892212629318237e-01" purity="3.3130738139152527e-01" nType="-99"/>
              </Node>
              <Node pos="r" depth="4" NCoef="0" IVar="-1" Cut="0.0000000000000000e+00" cType="1" res="5.1295803859829903e-03" rms="4.3560755252838135e-01" purity="5.3025704622268677e-01" nType="-99"/>
            </Node>
          </Node>
        </Node>
        <Node pos="r" depth="1" NCoef="0" IVar="-1" Cut="0.0000000000000000e+00" cType="1" res="1.2994152493774891e-03" rms="4.2938512563705444e-01" purity="6.4245134592056274e-01" nType="-99"/>
      </Node>
    </BinaryTree>
    <BinaryTree type="DecisionTree" boostWeight="1.0000000000000000e+00" itree="149">
      <Node pos="s" depth="0" NCoef="0" IVar="4" Cut="7.1428573131561279e-01" cType="1" res="4.1445837268838659e-05" rms="4.1947430372238159e-01" purity="5.0000000000000000e-01" nType="0">
        <Node pos="l" depth="1" NCoef="0" IVar="7" Cut="8.3542404174804688e+01" cType="1" res="-1.9275385420769453e-03" rms="4.2010584473609924e-01" purity="4.4392177462577820e-01" nType="0">
          <Node pos="l" depth="2" NCoef="0" IVar="-1" Cut="0.0000000000000000e+00" cType="1" res="-2.1463343873620033e-03" rms="4.2485889792442322e-01" purity="4.6566841006278992e-01" nType="-99"/>
          <Node pos="r" depth="2" NCoef="0" IVar="-1" Cut="0.0000000000000000e+00" cType="1" res="2.3991533089429140e-04" rms="4.1386368870735168e-01" purity="4.1578555107116699e-01" nType="-99"/>
        </Node>
        <Node pos="r" depth="1" NCoef="0" IVar="5" Cut="2.0012669372558594e+02" cType="1" res="8.5610809037461877e-04" rms="4.1921001672744751e-01" purity="5.2320218086242676e-01" nType="0">
          <Node pos="l" depth="2" NCoef="0" IVar="5" Cut="1.2873257446289062e+02" cType="1" res="1.7378366319462657e-03" rms="4.2138886451721191e-01" purity="5.4759806394577026e-01" nType="0">
            <Node pos="l" depth="3" NCoef="0" IVar="5" Cut="1.0111006164550781e+02" cType="1" res="5.0625372678041458e-03" rms="4.1234746575355530e-01" purity="5.5349183082580566e-01" nType="0">
              <Node pos="l" depth="4" NCoef="0" IVar="5" Cut="7.5855041503906250e+01" cType="1" res="-1.6405856003984809e-03" rms="4.1716966032981873e-01" purity="4.3813791871070862e-01" nType="0">
                <Node pos="l" depth="5" NCoef="0" IVar="-1" Cut="0.0000000000000000e+00" cType="1" res="-8.7675377726554871e-03" rms="3.8833791017532349e-01" purity="2.3110151290893555e-01" nType="-99"/>
                <Node pos="r" depth="5" NCoef="0" IVar="-1" Cut="0.0000000000000000e+00" cType="1" res="1.9954470917582512e-03" rms="4.3887516856193542e-01" purity="6.0445207357406616e-01" nType="-99"/>
              </Node>
              <Node pos="r" depth="4" NCoef="0" IVar="-1" Cut="0.0000000000000000e+00" cType="1" res="6.7621269263327122e-03" rms="4.0540584921836853e-01" purity="7.1292459964752197e-01" nType="-99"/>
            </Node>
            <Node pos="r" depth="3" NCoef="0" IVar="-1" Cut="0.0000000000000000e+00" cType="1" res="-3.3980284351855516e-03" rms="4.4300156831741333e-01" purity="5.3291654586791992e-01" nType="-99"/>
          </Node>
          <Node pos="r" depth="2" NCoef="0" IVar="-1" Cut="0.0000000000000000e+00" cType="1" res="-2.0378651097416878e-03" rms="4.0964639186859131e-01" purity="4.1785478591918945e-01" nType="-99"/>
        </Node>
      </Node>
    </BinaryTree>
    <BinaryTree type="DecisionTree" boostWeight="1.0000000000000000e+00" itree="150">
      <Node pos="s" depth="0" NCoef="0" IVar="4" Cut="7.1428573131561279e-01" cType="1" res="2.5276423548348248e-04" rms="4.1945621371269226e-01" purity="5.0000000000000000e-01" nType="0">
        <Node pos="l" depth="1" NCoef="0" IVar="6" Cut="1.1854922485351562e+02" cType="1" res="-1.5210300916805863e-03" rms="4.2010298371315002e-01" purity="4.4392177462577820e-01" nType="0">
          <Node pos="l" depth="2" NCoef="0" IVar="-1" Cut="0.0000000000000000e+00" cType="1" res="1.2318346125539392e-04" rms="4.0210050344467163e-01" purity="3.2457759976387024e-01" nType="-99"/>
          <Node pos="r" depth="2" NCoef="0" IVar="-1" Cut="0.0000000000000000e+00" cType="1" res="-1.6971838194876909e-03" rms="4.4239118695259094e-01" purity="5.9898626804351807e-01" nType="-99"/>
        </Node>
        <Node pos="r" depth="1" NCoef="0" IVar="5" Cut="2.0012669372558594e+02" cType="1" res="9.8666711710393429e-04" rms="4.1918611526489258e-01" purity="5.2320218086242676e-01" nType="0">
          <Node pos="l" depth="2" NCoef="0" IVar="5" Cut="1.2873257446289062e+02" cType="1" res="1.7398009076714516e-03" rms="4.2135939002037048e-01" purity="5.4759806394577026e-01" nType="0">
            <Node pos="l" depth="3" NCoef="0" IVar="5" Cut="1.0111006164550781e+02" cType="1" res="4.5475824736058712e-03" rms="4.1232091188430786e-01" purity="5.5349183082580566e-01" nType="0">
              <Node pos="l" depth="4" NCoef="0" IVar="5" Cut="7.5855041503906250e+01" cType="1" res="-8.3953206194564700e-04" rms="4.1715797781944275e-01" purity="4.3813791871070862e-01" nType="0">
                <Node pos="l" depth="5" NCoef="0" IVar="-1" Cut="0.0000000000000000e+00" cType="1" res="-6.0843019746243954e-03" rms="3.8836917281150818e-01" purity="2.3110151290893555e-01" nType="-99"/>
                <Node pos="r" depth="5" NCoef="0" IVar="-1" Cut="0.0000000000000000e+00" cType="1" res="1.6342389862984419e-03" rms="4.3887281417846680e-01" purity="6.0445207357406616e-01" nType="-99"/>
              </Node>
              <Node pos="r" depth="4" NCoef="0" IVar="-1" Cut="0.0000000000000000e+00" cType="1" res="5.6919660419225693e-03" rms="4.0542271733283997e-01" purity="7.1292459964752197e-01" nType="-99"/>
            </Node>
            <Node pos="r" depth="3" NCoef="0" IVar="-1" Cut="0.0000000000000000e+00" cType="1" res="-2.7240763884037733e-03" rms="4.4299638271331787e-01" purity="5.3291654586791992e-01" nType="-99"/>
          </Node>
          <Node pos="r" depth="2" NCoef="0" IVar="-1" Cut="0.0000000000000000e+00" cType="1" res="-1.5634574228897691e-03" rms="4.0965306758880615e-01" purity="4.1785478591918945e-01" nType="-99"/>
        </Node>
      </Node>
    </BinaryTree>
    <BinaryTree type="DecisionTree" boostWeight="1.0000000000000000e+00" itree="151">
      <Node pos="s" depth="0" NCoef="0" IVar="6" Cut="1.1814180755615234e+02" cType="1" res="3.5436198231764138e-04" rms="4.1944503784179688e-01" purity="5.0000000000000000e-01" nType="0">
        <Node pos="l" depth="1" NCoef="0" IVar="1" Cut="1.0924954414367676e+00" cType="1" res="-2.2283243015408516e-04" rms="4.1737443208694458e-01" purity="4.7068229317665100e-01" nType="0">
          <Node pos="l" depth="2" NCoef="0" IVar="5" Cut="1.4083737182617188e+02" cType="1" res="-1.8345891730859876e-03" rms="4.0809759497642517e-01" purity="4.5949295163154602e-01" nType="0">
            <Node pos="l" depth="3" NCoef="0" IVar="1" Cut="5.2023518085479736e-01" cType="1" res="-3.8938319776207209e-03" rms="3.9714428782463074e-01" purity="4.6714970469474792e-01" nType="0">
              <Node pos="l" depth="4" NCoef="0" IVar="-1" Cut="0.0000000000000000e+00" cType="1" res="-5.5386079475283623e-04" rms="3.9551255106925964e-01" purity="4.6852529048919678e-01" nType="-99"/>
              <Node pos="r" depth="4" NCoef="0" IVar="-1" Cut="0.0000000000000000e+00" cType="1" res="-4.3408186174929142e-03" rms="3.9861518144607544e-01" purity="4.6588757634162903e-01" nType="-99"/>
            </Node>
            <Node pos="r" depth="3" NCoef="0" IVar="-1" Cut="0.0000000000000000e+00" cType="1" res="1.4462884282693267e-03" rms="4.2984247207641602e-01" purity="4.4365179538726807e-01" nType="-99"/>
          </Node>
          <Node pos="r" depth="2" NCoef="0" IVar="7" Cut="4.6039363861083984e+01" cType="1" res="8.5454812506213784e-04" rms="4.2345881462097168e-01" purity="4.7816184163093567e-01" nType="0">
            <Node pos="l" depth="3" NCoef="0" IVar="-1" Cut="0.0000000000000000e+00" cType="1" res="-2.1046712063252926e-03" rms="4.4549006223678589e-01" purity="4.6050509810447693e-01" nType="-99"/>
            <Node pos="r" depth="3" NCoef="0" IVar="1" Cut="1.8291386365890503e+00" cType="1" res="2.7147771324962378e-03" rms="4.1430979967117310e-01" purity="4.8521992564201355e-01" nType="0">
              <Node pos="l" depth="4" NCoef="0" IVar="-1" Cut="0.0000000000000000e+00" cType="1" res="1.1635543160082307e-05" rms="4.1092184185981750e-01" purity="4.5616295933723450e-01" nType="-99"/>
              <Node pos="r" depth="4" NCoef="0" IVar="-1" Cut="0.0000000000000000e+00" cType="1" res="3.2073662150651217e-03" rms="4.1796764731407166e-01" purity="5.1703268289566040e-01" nType="-99"/>
            </Node>
          </Node>
        </Node>
        <Node pos="r" depth="1" NCoef="0" IVar="-1" Cut="0.0000000000000000e+00" cType="1" res="1.4590539503842592e-03" rms="4.2935276031494141e-01" purity="6.4245134592056274e-01" nType="-99"/>
      </Node>
    </BinaryTree>
    <BinaryTree type="DecisionTree" boostWeight="1.0000000000000000e+00" itree="152">
      <Node pos="s" depth="0" NCoef="0" IVar="0" Cut="2.1080249547958374e-01" cType="1" res="3.0770368175581098e-04" rms="4.1943970322608948e-01" purity="5.0000000000000000e-01" nType="0">
        <Node pos="l" depth="1" NCoef="0" IVar="-1" Cut="0.0000000000000000e+00" cType="1" res="1.9455731380730867e-03" rms="4.2484197020530701e-01" purity="5.3687304258346558e-01" nType="-99"/>
        <Node pos="r" depth="1" NCoef="0" IVar="0" Cut="2.4191899299621582e+00" cType="1" res="-1.2981562758795917e-04" rms="4.1872164607048035e-01" purity="4.9514785408973694e-01" nType="0">
          <Node pos="l" depth="2" NCoef="0" IVar="0" Cut="1.7882151603698730e+00" cType="1" res="-1.5821480192244053e-03" rms="4.2100223898887634e-01" purity="4.9564701318740845e-01" nType="0">
            <Node pos="l" depth="3" NCoef="0" IVar="2" Cut="6.1131036281585693e-01" cType="1" res="9.3099646619521081e-05" rms="4.2174193263053894e-01" purity="5.0978726148605347e-01" nType="0">
              <Node pos="l" depth="4" NCoef="0" IVar="0" Cut="8.1171476840972900e-01" cType="1" res="3.5138763487339020e-03" rms="4.0291765332221985e-01" purity="5.9232860803604126e-01" nType="0">
                <Node pos="l" depth="5" NCoef="0" IVar="-1" Cut="0.0000000000000000e+00" cType="1" res="2.7042471338063478e-03" rms="4.0048784017562866e-01" purity="5.9957844018936157e-01" nType="-99"/>
                <Node pos="r" depth="5" NCoef="0" IVar="-1" Cut="0.0000000000000000e+00" cType="1" res="9.7179377917200327e-04" rms="4.0543845295906067e-01" purity="5.8474045991897583e-01" nType="-99"/>
              </Node>
              <Node pos="r" depth="4" NCoef="0" IVar="3" Cut="2.0000000000000000e+00" cType="1" res="-2.9323699418455362e-03" rms="3.9086431264877319e-01" purity="4.6055397391319275e-01" nType="0">
                <Node pos="l" depth="5" NCoef="0" IVar="6" Cut="8.0099113464355469e+01" cType="1" res="-4.4621014967560768e-03" rms="4.2759630084037781e-01" purity="4.6587023138999939e-01" nType="0">
                  <Node pos="l" depth="6" NCoef="0" IVar="-1" Cut="0.0000000000000000e+00" cType="1" res="-1.6875728033483028e-03" rms="4.2696297168731689e-01" purity="4.7065329551696777e-01" nType="-99"/>
                  <Node pos="r" depth="6" NCoef="0" IVar="-1" Cut="0.0000000000000000e+00" cType="1" res="-3.9262832142412663e-03" rms="4.2851319909095764e-01" purity="4.5885208249092102e-01" nType="-99"/>
                </Node>
                <Node pos="r" depth="5" NCoef="0" IVar="-1" Cut="0.0000000000000000e+00" cType="1" res="2.1492775995284319e-03" rms="4.4358992576599121e-01" purity="4.4848826527595520e-01" nType="-99"/>
              </Node>
            </Node>
            <Node pos="r" depth="3" NCoef="0" IVar="-1" Cut="0.0000000000000000e+00" cType="1" res="-6.8655745126307011e-03" rms="4.1688996553421021e-01" purity="4.1966801881790161e-01" nType="-99"/>
          </Node>
          <Node pos="r" depth="2" NCoef="0" IVar="-1" Cut="0.0000000000000000e+00" cType="1" res="6.8914061412215233e-03" rms="4.0042394399642944e-01" purity="4.9127826094627380e-01" nType="-99"/>
        </Node>
      </Node>
    </BinaryTree>
    <BinaryTree type="DecisionTree" boostWeight="1.0000000000000000e+00" itree="153">
      <Node pos="s" depth="0" NCoef="0" IVar="4" Cut="7.1428573131561279e-01" cType="1" res="3.0146280187182128e-04" rms="4.1942003369331360e-01" purity="5.0000000000000000e-01" nType="0">
        <Node pos="l" depth="1" NCoef="0" IVar="6" Cut="1.1854922485351562e+02" cType="1" res="-1.3740892754867673e-03" rms="4.2007839679718018e-01" purity="4.4392177462577820e-01" nType="0">
          <Node pos="l" depth="2" NCoef="0" IVar="-1" Cut="0.0000000000000000e+00" cType="1" res="2.6194608653895557e-04" rms="4.0206190943717957e-01" purity="3.2457759976387024e-01" nType="-99"/>
          <Node pos="r" depth="2" NCoef="0" IVar="-1" Cut="0.0000000000000000e+00" cType="1" res="-1.6524599632248282e-03" rms="4.4238266348838806e-01" purity="5.9898626804351807e-01" nType="-99"/>
        </Node>
        <Node pos="r" depth="1" NCoef="0" IVar="0" Cut="2.1080079078674316e+00" cType="1" res="9.9471816793084145e-04" rms="4.1914537549018860e-01" purity="5.2320218086242676e-01" nType="0">
          <Node pos="l" depth="2" NCoef="0" IVar="7" Cut="1.2642032623291016e+02" cType="1" res="1.8458804115653038e-03" rms="4.2248490452766418e-01" purity="5.3525328636169434e-01" nType="0">
            <Node pos="l" depth="3" NCoef="0" IVar="5" Cut="8.8140670776367188e+01" cType="1" res="3.9852228946983814e-03" rms="4.2890772223472595e-01" purity="4.9797955155372620e-01" nType="0">
              <Node pos="l" depth="4" NCoef="0" IVar="-1" Cut="0.0000000000000000e+00" cType="1" res="1.1410376057028770e-02" rms="4.0488955378532410e-01" purity="3.2183426618576050e-01" nType="-99"/>
              <Node pos="r" depth="4" NCoef="0" IVar="4" Cut="1.5238095521926880e+00" cType="1" res="-3.1303384457714856e-04" rms="4.3774023652076721e-01" purity="5.6589204072952271e-01" nType="0">
                <Node pos="l" depth="5" NCoef="0" IVar="-1" Cut="0.0000000000000000e+00" cType="1" res="5.9547647833824158e-03" rms="4.4609779119491577e-01" purity="4.9452617764472961e-01" nType="-99"/>
                <Node pos="r" depth="5" NCoef="0" IVar="-1" Cut="0.0000000000000000e+00" cType="1" res="-5.3311572410166264e-03" rms="4.2984390258789062e-01" purity="6.2987273931503296e-01" nType="-99"/>
              </Node>
            </Node>
            <Node pos="r" depth="3" NCoef="0" IVar="-1" Cut="0.0000000000000000e+00" cType="1" res="-3.1183275859802961e-03" rms="3.9779350161552429e-01" purity="6.7276990413665771e-01" nType="-99"/>
          </Node>
          <Node pos="r" depth="2" NCoef="0" IVar="-1" Cut="0.0000000000000000e+00" cType="1" res="-1.6434232238680124e-03" rms="4.0474843978881836e-01" purity="4.7241267561912537e-01" nType="-99"/>
        </Node>
      </Node>
    </BinaryTree>
    <BinaryTree type="DecisionTree" boostWeight="1.0000000000000000e+00" itree="154">
      <Node pos="s" depth="0" NCoef="0" IVar="6" Cut="1.1814180755615234e+02" cType="1" res="6.2694649386685342e-05" rms="4.1936883330345154e-01" purity="5.0000000000000000e-01" nType="0">
        <Node pos="l" depth="1" NCoef="0" IVar="5" Cut="1.4449981689453125e+02" cType="1" res="-5.8842863654717803e-04" rms="4.1728135943412781e-01" purity="4.7068229317665100e-01" nType="0">
          <Node pos="l" depth="2" NCoef="0" IVar="6" Cut="4.7176486968994141e+01" cType="1" res="-1.6146802809089422e-03" rms="4.1077300906181335e-01" purity="4.9815762042999268e-01" nType="0">
            <Node pos="l" depth="3" NCoef="0" IVar="-1" Cut="0.0000000000000000e+00" cType="1" res="2.0920671522617340e-03" rms="4.2966169118881226e-01" purity="6.1020928621292114e-01" nType="-99"/>
            <Node pos="r" depth="3" NCoef="0" IVar="0" Cut="1.0374462604522705e+00" cType="1" res="-5.2385707385838032e-03" rms="3.9835524559020996e-01" purity="4.2747646570205688e-01" nType="0">
              <Node pos="l" depth="4" NCoef="0" IVar="-1" Cut="0.0000000000000000e+00" cType="1" res="-6.3280630856752396e-03" rms="3.9968457818031311e-01" purity="3.9975947141647339e-01" nType="-99"/>
              <Node pos="r" depth="4" NCoef="0" IVar="-1" Cut="0.0000000000000000e+00" cType="1" res="5.3692603250965476e-04" rms="3.9617642760276794e-01" purity="4.7111198306083679e-01" nType="-99"/>
            </Node>
          </Node>
          <Node pos="r" depth="2" NCoef="0" IVar="4" Cut="6.6666668653488159e-01" cType="1" res="1.0573280742391944e-03" rms="4.2750656604766846e-01" purity="4.2662125825881958e-01" nType="0">
            <Node pos="l" depth="3" NCoef="0" IVar="-1" Cut="0.0000000000000000e+00" cType="1" res="7.5070774182677269e-03" rms="4.3122556805610657e-01" purity="4.2465534806251526e-01" nType="-99"/>
            <Node pos="r" depth="3" NCoef="0" IVar="0" Cut="1.2648055553436279e+00" cType="1" res="-4.4733001850545406e-03" rms="4.2566064000129700e-01" purity="4.2753118276596069e-01" nType="0">
              <Node pos="l" depth="4" NCoef="0" IVar="-1" Cut="0.0000000000000000e+00" cType="1" res="-1.8077481945510954e-04" rms="4.4384646415710449e-01" purity="5.4695767164230347e-01" nType="-99"/>
              <Node pos="r" depth="4" NCoef="0" IVar="-1" Cut="0.0000000000000000e+00" cType="1" res="-6.9119706749916077e-03" rms="4.0794304013252258e-01" purity="3.1621405482292175e-01" nType="-99"/>
            </Node>
          </Node>
        </Node>
        <Node pos="r" depth="1" NCoef="0" IVar="-1" Cut="0.0000000000000000e+00" cType="1" res="1.4906605938449502e-03" rms="4.2935323715209961e-01" purity="6.4245134592056274e-01" nType="-99"/>
      </Node>
    </BinaryTree>
    <BinaryTree type="DecisionTree" boostWeight="1.0000000000000000e+00" itree="155">
      <Node pos="s" depth="0" NCoef="0" IVar="4" Cut="7.1428573131561279e-01" cType="1" res="1.6396272985730320e-04" rms="4.1934791207313538e-01" purity="5.0000000000000000e-01" nType="0">
        <Node pos="l" depth="1" NCoef="0" IVar="7" Cut="8.3542404174804688e+01" cType="1" res="-2.1552634425461292e-03" rms="4.2003157734870911e-01" purity="4.4392177462577820e-01" nType="0">
          <Node pos="l" depth="2" NCoef="0" IVar="-1" Cut="0.0000000000000000e+00" cType="1" res="-2.2530418355017900e-03" rms="4.2478722333908081e-01" purity="4.6566841006278992e-01" nType="-99"/>
          <Node pos="r" depth="2" NCoef="0" IVar="-1" Cut="0.0000000000000000e+00" cType="1" res="6.7559376475401223e-05" rms="4.1378656029701233e-01" purity="4.1578555107116699e-01" nType="-99"/>
        </Node>
        <Node pos="r" depth="1" NCoef="0" IVar="2" Cut="2.2916061878204346e+00" cType="1" res="1.1235366109758615e-03" rms="4.1906094551086426e-01" purity="5.2320218086242676e-01" nType="0">
          <Node pos="l" depth="2" NCoef="0" IVar="1" Cut="2.0901491641998291e+00" cType="1" res="3.4256358048878610e-04" rms="4.2494967579841614e-01" purity="5.7922440767288208e-01" nType="0">
            <Node pos="l" depth="3" NCoef="0" IVar="3" Cut="2.0000000000000000e+00" cType="1" res="1.5575003344565630e-03" rms="4.0953847765922546e-01" purity="5.6681406497955322e-01" nType="0">
              <Node pos="l" depth="4" NCoef="0" IVar="4" Cut="1.6666666269302368e+00" cType="1" res="3.4529517870396376e-03" rms="4.1420632600784302e-01" purity="5.9778225421905518e-01" nType="0">
                <Node pos="l" depth="5" NCoef="0" IVar="-1" Cut="0.0000000000000000e+00" cType="1" res="3.7283383426256478e-04" rms="4.1306164860725403e-01" purity="4.6609449386596680e-01" nType="-99"/>
                <Node pos="r" depth="5" NCoef="0" IVar="-1" Cut="0.0000000000000000e+00" cType="1" res="2.7747454587370157e-03" rms="4.1521111130714417e-01" purity="7.1555298566818237e-01" nType="-99"/>
              </Node>
              <Node pos="r" depth="4" NCoef="0" IVar="-1" Cut="0.0000000000000000e+00" cType="1" res="-2.0669638179242611e-03" rms="4.3557521700859070e-01" purity="4.7860154509544373e-01" nType="-99"/>
            </Node>
            <Node pos="r" depth="3" NCoef="0" IVar="-1" Cut="0.0000000000000000e+00" cType="1" res="-1.9002819899469614e-03" rms="4.4235828518867493e-01" purity="6.2300509214401245e-01" nType="-99"/>
          </Node>
          <Node pos="r" depth="2" NCoef="0" IVar="-1" Cut="0.0000000000000000e+00" cType="1" res="8.1034600734710693e-03" rms="3.8229751586914062e-01" purity="1.9141060113906860e-01" nType="-99"/>
        </Node>
      </Node>
    </BinaryTree>
    <BinaryTree type="DecisionTree" boostWeight="1.0000000000000000e+00" itree="156">
      <Node pos="s" depth="0" NCoef="0" IVar="7" Cut="1.2635140228271484e+02" cType="1" res="5.0512793677626178e-05" rms="4.1933819651603699e-01" purity="5.0000000000000000e-01" nType="0">
        <Node pos="l" depth="1" NCoef="0" IVar="6" Cut="9.1677116394042969e+01" cType="1" res="-6.0746097005903721e-04" rms="4.2277002334594727e-01" purity="4.7062867879867554e-01" nType="0">
          <Node pos="l" depth="2" NCoef="0" IVar="0" Cut="2.1069586277008057e+00" cType="1" res="1.6116379993036389e-03" rms="4.1734039783477783e-01" purity="4.4442299008369446e-01" nType="0">
            <Node pos="l" depth="3" NCoef="0" IVar="5" Cut="1.4955754089355469e+02" cType="1" res="4.0593626908957958e-03" rms="4.2107036709785461e-01" purity="4.4806027412414551e-01" nType="0">
              <Node pos="l" depth="4" NCoef="0" IVar="5" Cut="8.4395675659179688e+01" cType="1" res="-5.1387189887464046e-04" rms="4.1857251524925232e-01" purity="4.5989856123924255e-01" nType="0">
                <Node pos="l" depth="5" NCoef="0" IVar="-1" Cut="0.0000000000000000e+00" cType="1" res="9.8672350868582726e-03" rms="3.8976931571960449e-01" purity="2.7874922752380371e-01" nType="-99"/>
                <Node pos="r" depth="5" NCoef="0" IVar="-1" Cut="0.0000000000000000e+00" cType="1" res="-3.5261495504528284e-03" rms="4.3233221769332886e-01" purity="5.5186861753463745e-01" nType="-99"/>
              </Node>
              <Node pos="r" depth="4" NCoef="0" IVar="-1" Cut="0.0000000000000000e+00" cType="1" res="1.1004947125911713e-02" rms="4.2810955643653870e-01" purity="4.1292968392372131e-01" nType="-99"/>
            </Node>
            <Node pos="r" depth="3" NCoef="0" IVar="-1" Cut="0.0000000000000000e+00" cType="1" res="-5.3802514448761940e-03" rms="4.0207105875015259e-01" purity="4.3000754714012146e-01" nType="-99"/>
          </Node>
          <Node pos="r" depth="2" NCoef="0" IVar="1" Cut="1.4746018648147583e+00" cType="1" res="-6.2152696773409843e-03" rms="4.3613967299461365e-01" purity="5.3685206174850464e-01" nType="0">
            <Node pos="l" depth="3" NCoef="0" IVar="-1" Cut="0.0000000000000000e+00" cType="1" res="-5.5275158956646919e-03" rms="4.3415769934654236e-01" purity="4.8643982410430908e-01" nType="-99"/>
            <Node pos="r" depth="3" NCoef="0" IVar="-1" Cut="0.0000000000000000e+00" cType="1" res="-1.4272966654971242e-03" rms="4.3781515955924988e-01" purity="5.8032685518264771e-01" nType="-99"/>
          </Node>
        </Node>
        <Node pos="r" depth="1" NCoef="0" IVar="-1" Cut="0.0000000000000000e+00" cType="1" res="1.4779919292777777e-03" rms="4.0431845188140869e-01" purity="6.2562984228134155e-01" nType="-99"/>
      </Node>
    </BinaryTree>
    <BinaryTree type="DecisionTree" boostWeight="1.0000000000000000e+00" itree="157">
      <Node pos="s" depth="0" NCoef="0" IVar="6" Cut="1.1814180755615234e+02" cType="1" res="-6.5954118326772004e-05" rms="4.1928181052207947e-01" purity="5.0000000000000000e-01" nType="0">
        <Node pos="l" depth="1" NCoef="0" IVar="6" Cut="3.3870597839355469e+01" cType="1" res="-7.8516331268474460e-04" rms="4.1719639301300049e-01" purity="4.7068229317665100e-01" nType="0">
          <Node pos="l" depth="2" NCoef="0" IVar="-1" Cut="0.0000000000000000e+00" cType="1" res="-2.6373432483524084e-03" rms="4.2588844895362854e-01" purity="4.9608421325683594e-01" nType="-99"/>
          <Node pos="r" depth="2" NCoef="0" IVar="0" Cut="1.8940577507019043e+00" cType="1" res="-3.7314475775929168e-05" rms="4.1540873050689697e-01" purity="4.6553438901901245e-01" nType="0">
            <Node pos="l" depth="3" NCoef="0" IVar="5" Cut="1.4333969116210938e+02" cType="1" res="-1.7029962036758661e-03" rms="4.1799148917198181e-01" purity="4.6574503183364868e-01" nType="0">
              <Node pos="l" depth="4" NCoef="0" IVar="3" Cut="1.0000000000000000e+00" cType="1" res="-3.0938119161874056e-03" rms="3.4218937158584595e-01" purity="4.5133835077285767e-01" nType="0">
                <Node pos="l" depth="5" NCoef="0" IVar="-1" Cut="0.0000000000000000e+00" cType="1" res="-5.7330969721078873e-03" rms="4.1380700469017029e-01" purity="5.0347971916198730e-01" nType="-99"/>
                <Node pos="r" depth="5" NCoef="0" IVar="-1" Cut="0.0000000000000000e+00" cType="1" res="-2.7468000189401209e-04" rms="3.9350512623786926e-01" purity="4.0062910318374634e-01" nType="-99"/>
              </Node>
              <Node pos="r" depth="4" NCoef="0" IVar="7" Cut="7.5569625854492188e+01" cType="1" res="3.0866484157741070e-03" rms="4.3822523951530457e-01" purity="4.8700046539306641e-01" nType="0">
                <Node pos="l" depth="5" NCoef="0" IVar="-1" Cut="0.0000000000000000e+00" cType="1" res="4.4836592860519886e-03" rms="4.4538033008575439e-01" purity="4.8210197687149048e-01" nType="-99"/>
                <Node pos="r" depth="5" NCoef="0" IVar="-1" Cut="0.0000000000000000e+00" cType="1" res="-1.5799319371581078e-03" rms="4.2996084690093994e-01" purity="4.9250775575637817e-01" nType="-99"/>
              </Node>
            </Node>
            <Node pos="r" depth="3" NCoef="0" IVar="-1" Cut="0.0000000000000000e+00" cType="1" res="4.4484334066510201e-03" rms="4.0408065915107727e-01" purity="4.6463194489479065e-01" nType="-99"/>
          </Node>
        </Node>
        <Node pos="r" depth="1" NCoef="0" IVar="-1" Cut="0.0000000000000000e+00" cType="1" res="1.5834290534257889e-03" rms="4.2925325036048889e-01" purity="6.4245134592056274e-01" nType="-99"/>
      </Node>
    </BinaryTree>
    <BinaryTree type="DecisionTree" boostWeight="1.0000000000000000e+00" itree="158">
      <Node pos="s" depth="0" NCoef="0" IVar="6" Cut="1.1814180755615234e+02" cType="1" res="-3.7922269257251173e-05" rms="4.1926431655883789e-01" purity="5.0000000000000000e-01" nType="0">
        <Node pos="l" depth="1" NCoef="0" IVar="3" Cut="2.0000000000000000e+00" cType="1" res="5.0014880253002048e-04" rms="4.1247043013572693e-01" purity="4.7068229317665100e-01" nType="0">
          <Node pos="l" depth="2" NCoef="0" IVar="2" Cut="1.2772881984710693e+00" cType="1" res="4.2718916665762663e-04" rms="4.1625651717185974e-01" purity="5.0974237918853760e-01" nType="0">
            <Node pos="l" depth="3" NCoef="0" IVar="5" Cut="1.0864112091064453e+02" cType="1" res="2.1598343737423420e-03" rms="4.0981611609458923e-01" purity="5.7445889711380005e-01" nType="0">
              <Node pos="l" depth="4" NCoef="0" IVar="-1" Cut="0.0000000000000000e+00" cType="1" res="-1.6661832341924310e-03" rms="3.8421893119812012e-01" purity="4.5071953535079956e-01" nType="-99"/>
              <Node pos="r" depth="4" NCoef="0" IVar="-1" Cut="0.0000000000000000e+00" cType="1" res="2.5027154479175806e-03" rms="4.2682203650474548e-01" purity="6.6123139858245850e-01" nType="-99"/>
            </Node>
            <Node pos="r" depth="3" NCoef="0" IVar="6" Cut="6.0481891632080078e+01" cType="1" res="-2.6169959455728531e-03" rms="4.2732006311416626e-01" purity="3.9603817462921143e-01" nType="0">
              <Node pos="l" depth="4" NCoef="0" IVar="-1" Cut="0.0000000000000000e+00" cType="1" res="2.0371368154883385e-03" rms="4.3726366758346558e-01" purity="4.7548803687095642e-01" nType="-99"/>
              <Node pos="r" depth="4" NCoef="0" IVar="-1" Cut="0.0000000000000000e+00" cType="1" res="-7.6047498732805252e-03" rms="4.1573312878608704e-01" purity="3.0664581060409546e-01" nType="-99"/>
            </Node>
          </Node>
          <Node pos="r" depth="2" NCoef="0" IVar="5" Cut="1.4449981689453125e+02" cType="1" res="-3.1986034009605646e-03" rms="4.1939294338226318e-01" purity="3.7553235888481140e-01" nType="0">
            <Node pos="l" depth="3" NCoef="0" IVar="-1" Cut="0.0000000000000000e+00" cType="1" res="7.0707808481529355e-04" rms="4.2217183113098145e-01" purity="4.2416253685951233e-01" nType="-99"/>
            <Node pos="r" depth="3" NCoef="0" IVar="-1" Cut="0.0000000000000000e+00" cType="1" res="-5.5719353258609772e-03" rms="4.1675463318824768e-01" purity="3.3036094903945923e-01" nType="-99"/>
          </Node>
        </Node>
        <Node pos="r" depth="1" NCoef="0" IVar="-1" Cut="0.0000000000000000e+00" cType="1" res="1.3081394135951996e-03" rms="4.2925962805747986e-01" purity="6.4245134592056274e-01" nType="-99"/>
      </Node>
    </BinaryTree>
    <BinaryTree type="DecisionTree" boostWeight="1.0000000000000000e+00" itree="159">
      <Node pos="s" depth="0" NCoef="0" IVar="2" Cut="1.3094892501831055e+00" cType="1" res="1.4705298235639930e-04" rms="4.1925469040870667e-01" purity="5.0000000000000000e-01" nType="0">
        <Node pos="l" depth="1" NCoef="0" IVar="3" Cut="2.0000000000000000e+00" cType="1" res="-2.0544549915939569e-03" rms="4.0877917408943176e-01" purity="5.7867580652236938e-01" nType="0">
          <Node pos="l" depth="2" NCoef="0" IVar="2" Cut="8.7299293279647827e-01" cType="1" res="6.5495970193296671e-04" rms="4.1100057959556580e-01" purity="5.9402871131896973e-01" nType="0">
            <Node pos="l" depth="3" NCoef="0" IVar="0" Cut="9.5997357368469238e-01" cType="1" res="2.2213971242308617e-03" rms="4.0442633628845215e-01" purity="6.0648912191390991e-01" nType="0">
              <Node pos="l" depth="4" NCoef="0" IVar="-1" Cut="0.0000000000000000e+00" cType="1" res="2.3674077820032835e-03" rms="4.0398159623146057e-01" purity="6.0659348964691162e-01" nType="-99"/>
              <Node pos="r" depth="4" NCoef="0" IVar="-1" Cut="0.0000000000000000e+00" cType="1" res="-6.5235665533691645e-04" rms="4.0506947040557861e-01" purity="6.0633212327957153e-01" nType="-99"/>
            </Node>
            <Node pos="r" depth="3" NCoef="0" IVar="-1" Cut="0.0000000000000000e+00" cType="1" res="-1.6833975678309798e-03" rms="4.2693164944648743e-01" purity="5.6295090913772583e-01" nType="-99"/>
          </Node>
          <Node pos="r" depth="2" NCoef="0" IVar="-1" Cut="0.0000000000000000e+00" cType="1" res="-2.3362610954791307e-03" rms="4.2422142624855042e-01" purity="5.3867614269256592e-01" nType="-99"/>
        </Node>
        <Node pos="r" depth="1" NCoef="0" IVar="2" Cut="1.8395206928253174e+00" cType="1" res="1.7257056897506118e-03" rms="4.2701783776283264e-01" purity="3.6335864663124084e-01" nType="0">
          <Node pos="l" depth="2" NCoef="0" IVar="-1" Cut="0.0000000000000000e+00" cType="1" res="3.3228057436645031e-03" rms="4.5283877849578857e-01" purity="5.0349330902099609e-01" nType="-99"/>
          <Node pos="r" depth="2" NCoef="0" IVar="3" Cut="2.0000000000000000e+00" cType="1" res="9.8896527197211981e-04" rms="3.9134523272514343e-01" purity="2.6029297709465027e-01" nType="0">
            <Node pos="l" depth="3" NCoef="0" IVar="-1" Cut="0.0000000000000000e+00" cType="1" res="-8.2794837653636932e-03" rms="4.1347214579582214e-01" purity="2.8424692153930664e-01" nType="-99"/>
            <Node pos="r" depth="3" NCoef="0" IVar="-1" Cut="0.0000000000000000e+00" cType="1" res="6.8636215291917324e-03" rms="3.9988499879837036e-01" purity="2.3542001843452454e-01" nType="-99"/>
          </Node>
        </Node>
      </Node>
    </BinaryTree>
    <BinaryTree type="DecisionTree" boostWeight="1.0000000000000000e+00" itree="160">
      <Node pos="s" depth="0" NCoef="0" IVar="4" Cut="7.1428573131561279e-01" cType="1" res="1.2524168414529413e-04" rms="4.1923743486404419e-01" purity="5.0000000000000000e-01" nType="0">
        <Node pos="l" depth="1" NCoef="0" IVar="0" Cut="1.0416620969772339e+00" cType="1" res="-1.7187690827995539e-03" rms="4.1996163129806519e-01" purity="4.4392177462577820e-01" nType="0">
          <Node pos="l" depth="2" NCoef="0" IVar="-1" Cut="0.0000000000000000e+00" cType="1" res="-1.0639375977916643e-04" rms="4.2415913939476013e-01" purity="4.7049841284751892e-01" nType="-99"/>
          <Node pos="r" depth="2" NCoef="0" IVar="-1" Cut="0.0000000000000000e+00" cType="1" res="-2.7587101794779301e-03" rms="4.1275092959403992e-01" purity="3.9896386861801147e-01" nType="-99"/>
        </Node>
        <Node pos="r" depth="1" NCoef="0" IVar="3" Cut="1.0000000000000000e+00" cType="1" res="2.1583340130746365e-03" rms="4.1341057419776917e-01" purity="5.2320218086242676e-01" nType="0">
          <Node pos="l" depth="2" NCoef="0" IVar="4" Cut="1.6666666269302368e+00" cType="1" res="3.2448552083224058e-03" rms="4.1784676909446716e-01" purity="6.2480080127716064e-01" nType="0">
            <Node pos="l" depth="3" NCoef="0" IVar="-1" Cut="0.0000000000000000e+00" cType="1" res="3.0996031127870083e-03" rms="4.3087932467460632e-01" purity="5.2127516269683838e-01" nType="-99"/>
            <Node pos="r" depth="3" NCoef="0" IVar="-1" Cut="0.0000000000000000e+00" cType="1" res="6.0489954194054008e-04" rms="4.0766265988349915e-01" purity="7.0339965820312500e-01" nType="-99"/>
          </Node>
          <Node pos="r" depth="2" NCoef="0" IVar="4" Cut="1.6190476417541504e+00" cType="1" res="-5.7279330212622881e-04" rms="4.1960164904594421e-01" purity="4.6021705865859985e-01" nType="0">
            <Node pos="l" depth="3" NCoef="0" IVar="-1" Cut="0.0000000000000000e+00" cType="1" res="-1.9783801399171352e-03" rms="3.9430856704711914e-01" purity="3.8697573542594910e-01" nType="-99"/>
            <Node pos="r" depth="3" NCoef="0" IVar="7" Cut="7.5651176452636719e+01" cType="1" res="7.5338210444897413e-04" rms="4.3426933884620667e-01" purity="5.0479221343994141e-01" nType="0">
              <Node pos="l" depth="4" NCoef="0" IVar="-1" Cut="0.0000000000000000e+00" cType="1" res="-1.0617646621540189e-03" rms="4.3978482484817505e-01" purity="4.6426427364349365e-01" nType="-99"/>
              <Node pos="r" depth="4" NCoef="0" IVar="-1" Cut="0.0000000000000000e+00" cType="1" res="2.3167352192103863e-03" rms="4.2672002315521240e-01" purity="5.5925488471984863e-01" nType="-99"/>
            </Node>
          </Node>
        </Node>
      </Node>
    </BinaryTree>
    <BinaryTree type="DecisionTree" boostWeight="1.0000000000000000e+00" itree="161">
      <Node pos="s" depth="0" NCoef="0" IVar="2" Cut="1.6368615627288818e+00" cType="1" res="1.3841096370015293e-04" rms="4.1923612356185913e-01" purity="5.0000000000000000e-01" nType="0">
        <Node pos="l" depth="1" NCoef="0" IVar="0" Cut="7.8262639045715332e-01" cType="1" res="-5.6144292466342449e-04" rms="4.1984507441520691e-01" purity="5.7055962085723877e-01" nType="0">
          <Node pos="l" depth="2" NCoef="0" IVar="0" Cut="4.0994578599929810e-01" cType="1" res="1.4154685195535421e-03" rms="4.1966104507446289e-01" purity="5.6612902879714966e-01" nType="0">
            <Node pos="l" depth="3" NCoef="0" IVar="-1" Cut="0.0000000000000000e+00" cType="1" res="-5.7193436077795923e-05" rms="4.1942888498306274e-01" purity="5.6477230787277222e-01" nType="-99"/>
            <Node pos="r" depth="3" NCoef="0" IVar="-1" Cut="0.0000000000000000e+00" cType="1" res="1.6573705943301320e-03" rms="4.1992399096488953e-01" purity="5.6770735979080200e-01" nType="-99"/>
          </Node>
          <Node pos="r" depth="2" NCoef="0" IVar="0" Cut="1.4161801338195801e+00" cType="1" res="-2.4012755602598190e-03" rms="4.2000788450241089e-01" purity="5.7468295097351074e-01" nType="0">
            <Node pos="l" depth="3" NCoef="0" IVar="-1" Cut="0.0000000000000000e+00" cType="1" res="-2.5398375000804663e-03" rms="4.2155355215072632e-01" purity="5.5243092775344849e-01" nType="-99"/>
            <Node pos="r" depth="3" NCoef="0" IVar="-1" Cut="0.0000000000000000e+00" cType="1" res="2.6625127065926790e-04" rms="4.1812080144882202e-01" purity="6.0147047042846680e-01" nType="-99"/>
          </Node>
        </Node>
        <Node pos="r" depth="1" NCoef="0" IVar="5" Cut="2.3420921325683594e+02" cType="1" res="2.1158622112125158e-03" rms="4.1750440001487732e-01" purity="3.0063235759735107e-01" nType="0">
          <Node pos="l" depth="2" NCoef="0" IVar="-1" Cut="0.0000000000000000e+00" cType="1" res="4.8694396391510963e-03" rms="4.2839354276657104e-01" purity="3.3556798100471497e-01" nType="-99"/>
          <Node pos="r" depth="2" NCoef="0" IVar="-1" Cut="0.0000000000000000e+00" cType="1" res="-4.7125285491347313e-03" rms="3.9999073743820190e-01" purity="2.4663858115673065e-01" nType="-99"/>
        </Node>
      </Node>
    </BinaryTree>
    <BinaryTree type="DecisionTree" boostWeight="1.0000000000000000e+00" itree="162">
      <Node pos="s" depth="0" NCoef="0" IVar="6" Cut="1.1814180755615234e+02" cType="1" res="1.0225362348137423e-04" rms="4.1923278570175171e-01" purity="5.0000000000000000e-01" nType="0">
        <Node pos="l" depth="1" NCoef="0" IVar="6" Cut="3.3870597839355469e+01" cType="1" res="-4.5463818241842091e-04" rms="4.1714245080947876e-01" purity="4.7068229317665100e-01" nType="0">
          <Node pos="l" depth="2" NCoef="0" IVar="-1" Cut="0.0000000000000000e+00" cType="1" res="-2.2319986019283533e-03" rms="4.2586681246757507e-01" purity="4.9608421325683594e-01" nType="-99"/>
          <Node pos="r" depth="2" NCoef="0" IVar="1" Cut="1.7327347993850708e+00" cType="1" res="2.2056135640013963e-04" rms="4.1534879803657532e-01" purity="4.6553438901901245e-01" nType="0">
            <Node pos="l" depth="3" NCoef="0" IVar="2" Cut="1.5534386634826660e+00" cType="1" res="-2.0053079351782799e-03" rms="4.0788358449935913e-01" purity="4.4336575269699097e-01" nType="0">
              <Node pos="l" depth="4" NCoef="0" IVar="1" Cut="8.2511210441589355e-01" cType="1" res="7.7517697354778647e-04" rms="4.0753608942031860e-01" purity="5.0092762708663940e-01" nType="0">
                <Node pos="l" depth="5" NCoef="0" IVar="-1" Cut="0.0000000000000000e+00" cType="1" res="-1.5527701471000910e-03" rms="4.0058475732803345e-01" purity="4.8636499047279358e-01" nType="-99"/>
                <Node pos="r" depth="5" NCoef="0" IVar="-1" Cut="0.0000000000000000e+00" cType="1" res="2.1789660677313805e-03" rms="4.1389909386634827e-01" purity="5.1452928781509399e-01" nType="-99"/>
              </Node>
              <Node pos="r" depth="4" NCoef="0" IVar="-1" Cut="0.0000000000000000e+00" cType="1" res="-8.8248327374458313e-03" rms="4.0877953171730042e-01" purity="2.7709972858428955e-01" nType="-99"/>
            </Node>
            <Node pos="r" depth="3" NCoef="0" IVar="0" Cut="1.8940987586975098e+00" cType="1" res="4.2382501997053623e-03" rms="4.2846509814262390e-01" purity="5.0554865598678589e-01" nType="0">
              <Node pos="l" depth="4" NCoef="0" IVar="-1" Cut="0.0000000000000000e+00" cType="1" res="-6.8922690115869045e-04" rms="4.4462880492210388e-01" purity="5.1748788356781006e-01" nType="-99"/>
              <Node pos="r" depth="4" NCoef="0" IVar="-1" Cut="0.0000000000000000e+00" cType="1" res="6.5521774813532829e-03" rms="4.0805935859680176e-01" purity="4.9117729067802429e-01" nType="-99"/>
            </Node>
          </Node>
        </Node>
        <Node pos="r" depth="1" NCoef="0" IVar="-1" Cut="0.0000000000000000e+00" cType="1" res="1.2982576154172421e-03" rms="4.2923432588577271e-01" purity="6.4245134592056274e-01" nType="-99"/>
      </Node>
    </BinaryTree>
    <BinaryTree type="DecisionTree" boostWeight="1.0000000000000000e+00" itree="163">
      <Node pos="s" depth="0" NCoef="0" IVar="2" Cut="1.6368615627288818e+00" cType="1" res="2.0911644969601184e-04" rms="4.1921603679656982e-01" purity="5.0000000000000000e-01" nType="0">
        <Node pos="l" depth="1" NCoef="0" IVar="1" Cut="2.0901491641998291e+00" cType="1" res="-6.2305177561938763e-04" rms="4.1983377933502197e-01" purity="5.7055962085723877e-01" nType="0">
          <Node pos="l" depth="2" NCoef="0" IVar="0" Cut="7.8206455707550049e-01" cType="1" res="4.2019592365249991e-04" rms="4.1483461856842041e-01" purity="5.5187791585922241e-01" nType="0">
            <Node pos="l" depth="3" NCoef="0" IVar="1" Cut="3.9812588691711426e-01" cType="1" res="1.9458599854260683e-03" rms="4.1730877757072449e-01" purity="5.6177890300750732e-01" nType="0">
              <Node pos="l" depth="4" NCoef="0" IVar="-1" Cut="0.0000000000000000e+00" cType="1" res="-1.6988096758723259e-03" rms="3.9997741580009460e-01" purity="5.2638542652130127e-01" nType="-99"/>
              <Node pos="r" depth="4" NCoef="0" IVar="2" Cut="7.0151358842849731e-01" cType="1" res="4.0785614401102066e-03" rms="4.2463546991348267e-01" purity="5.7723003625869751e-01" nType="0">
                <Node pos="l" depth="5" NCoef="0" IVar="-1" Cut="0.0000000000000000e+00" cType="1" res="3.1375691760331392e-03" rms="4.0896904468536377e-01" purity="6.1027854681015015e-01" nType="-99"/>
                <Node pos="r" depth="5" NCoef="0" IVar="-1" Cut="0.0000000000000000e+00" cType="1" res="8.5769331781193614e-04" rms="4.4210681319236755e-01" purity="5.3888231515884399e-01" nType="-99"/>
              </Node>
            </Node>
            <Node pos="r" depth="3" NCoef="0" IVar="2" Cut="7.0151495933532715e-01" cType="1" res="-1.7671453533694148e-03" rms="4.1125154495239258e-01" purity="5.3768277168273926e-01" nType="0">
              <Node pos="l" depth="4" NCoef="0" IVar="-1" Cut="0.0000000000000000e+00" cType="1" res="-2.8191646561026573e-03" rms="3.9081546664237976e-01" purity="5.3550332784652710e-01" nType="-99"/>
              <Node pos="r" depth="4" NCoef="0" IVar="-1" Cut="0.0000000000000000e+00" cType="1" res="4.5342350495047867e-04" rms="4.2805987596511841e-01" purity="5.3956061601638794e-01" nType="-99"/>
            </Node>
          </Node>
          <Node pos="r" depth="2" NCoef="0" IVar="-1" Cut="0.0000000000000000e+00" cType="1" res="-1.9047794630751014e-03" rms="4.3606004118919373e-01" purity="6.3280916213989258e-01" nType="-99"/>
        </Node>
        <Node pos="r" depth="1" NCoef="0" IVar="2" Cut="2.1357152462005615e+00" cType="1" res="2.5604246184229851e-03" rms="4.1745677590370178e-01" purity="3.0063235759735107e-01" nType="0">
          <Node pos="l" depth="2" NCoef="0" IVar="-1" Cut="0.0000000000000000e+00" cType="1" res="4.3667857535183430e-03" rms="4.5864495635032654e-01" purity="4.3601503968238831e-01" nType="-99"/>
          <Node pos="r" depth="2" NCoef="0" IVar="-1" Cut="0.0000000000000000e+00" cType="1" res="-1.7774236621335149e-03" rms="3.8535967469215393e-01" purity="2.0409870147705078e-01" nType="-99"/>
        </Node>
      </Node>
    </BinaryTree>
    <BinaryTree type="DecisionTree" boostWeight="1.0000000000000000e+00" itree="164">
      <Node pos="s" depth="0" NCoef="0" IVar="2" Cut="1.6368615627288818e+00" cType="1" res="1.7978156392928213e-04" rms="4.1920778155326843e-01" purity="5.0000000000000000e-01" nType="0">
        <Node pos="l" depth="1" NCoef="0" IVar="3" Cut="2.0000000000000000e+00" cType="1" res="-7.9707906115800142e-04" rms="4.1484460234642029e-01" purity="5.7055962085723877e-01" nType="0">
          <Node pos="l" depth="2" NCoef="0" IVar="0" Cut="1.3695946931838989e+00" cType="1" res="5.5852351943030953e-04" rms="4.1527763009071350e-01" purity="5.8234053850173950e-01" nType="0">
            <Node pos="l" depth="3" NCoef="0" IVar="1" Cut="7.4604457616806030e-01" cType="1" res="-7.2910438757389784e-04" rms="4.1694888472557068e-01" purity="5.6766939163208008e-01" nType="0">
              <Node pos="l" depth="4" NCoef="0" IVar="-1" Cut="0.0000000000000000e+00" cType="1" res="1.9367695786058903e-03" rms="4.0243533253669739e-01" purity="5.6598865985870361e-01" nType="-99"/>
              <Node pos="r" depth="4" NCoef="0" IVar="2" Cut="7.0151233673095703e-01" cType="1" res="-3.3126350026577711e-03" rms="4.2556506395339966e-01" purity="5.6869786977767944e-01" nType="0">
                <Node pos="l" depth="5" NCoef="0" IVar="-1" Cut="0.0000000000000000e+00" cType="1" res="-1.9851906108669937e-04" rms="4.1076090931892395e-01" purity="6.1611324548721313e-01" nType="-99"/>
                <Node pos="r" depth="5" NCoef="0" IVar="-1" Cut="0.0000000000000000e+00" cType="1" res="-3.4376720432192087e-03" rms="4.4184318184852600e-01" purity="5.1454389095306396e-01" nType="-99"/>
              </Node>
            </Node>
            <Node pos="r" depth="3" NCoef="0" IVar="-1" Cut="0.0000000000000000e+00" cType="1" res="2.2605920676141977e-03" rms="4.1010978817939758e-01" purity="6.2711715698242188e-01" nType="-99"/>
          </Node>
          <Node pos="r" depth="2" NCoef="0" IVar="-1" Cut="0.0000000000000000e+00" cType="1" res="-1.6728945774957538e-03" rms="4.3149426579475403e-01" purity="5.3973025083541870e-01" nType="-99"/>
        </Node>
        <Node pos="r" depth="1" NCoef="0" IVar="3" Cut="2.0000000000000000e+00" cType="1" res="4.8717488534748554e-03" rms="4.0411245822906494e-01" purity="3.0063235759735107e-01" nType="0">
          <Node pos="l" depth="2" NCoef="0" IVar="-1" Cut="0.0000000000000000e+00" cType="1" res="-1.7496877117082477e-03" rms="4.2238372564315796e-01" purity="3.2753676176071167e-01" nType="-99"/>
          <Node pos="r" depth="2" NCoef="0" IVar="-1" Cut="0.0000000000000000e+00" cType="1" res="6.9654253311455250e-03" rms="4.1125962138175964e-01" purity="2.6772224903106689e-01" nType="-99"/>
        </Node>
      </Node>
    </BinaryTree>
    <BinaryTree type="DecisionTree" boostWeight="1.0000000000000000e+00" itree="165">
      <Node pos="s" depth="0" NCoef="0" IVar="7" Cut="1.2635140228271484e+02" cType="1" res="8.5749161371495575e-05" rms="4.1919633746147156e-01" purity="5.0000000000000000e-01" nType="0">
        <Node pos="l" depth="1" NCoef="0" IVar="6" Cut="9.1677116394042969e+01" cType="1" res="-4.2151362868025899e-04" rms="4.2264190316200256e-01" purity="4.7062867879867554e-01" nType="0">
          <Node pos="l" depth="2" NCoef="0" IVar="0" Cut="2.1069586277008057e+00" cType="1" res="1.4456085627898574e-03" rms="4.1718256473541260e-01" purity="4.4442299008369446e-01" nType="0">
            <Node pos="l" depth="3" NCoef="0" IVar="5" Cut="1.4955754089355469e+02" cType="1" res="3.9275712333619595e-03" rms="4.2093250155448914e-01" purity="4.4806027412414551e-01" nType="0">
              <Node pos="l" depth="4" NCoef="0" IVar="5" Cut="8.4395675659179688e+01" cType="1" res="3.8616219535470009e-04" rms="4.1847202181816101e-01" purity="4.5989856123924255e-01" nType="0">
                <Node pos="l" depth="5" NCoef="0" IVar="-1" Cut="0.0000000000000000e+00" cType="1" res="8.3669209852814674e-03" rms="3.8967353105545044e-01" purity="2.7874922752380371e-01" nType="-99"/>
                <Node pos="r" depth="5" NCoef="0" IVar="-1" Cut="0.0000000000000000e+00" cType="1" res="-2.3332845885306597e-03" rms="4.3228009343147278e-01" purity="5.5186861753463745e-01" nType="-99"/>
              </Node>
              <Node pos="r" depth="4" NCoef="0" IVar="-1" Cut="0.0000000000000000e+00" cType="1" res="9.0449238196015358e-03" rms="4.2797836661338806e-01" purity="4.1292968392372131e-01" nType="-99"/>
            </Node>
            <Node pos="r" depth="3" NCoef="0" IVar="-1" Cut="0.0000000000000000e+00" cType="1" res="-5.5939527228474617e-03" rms="4.0182596445083618e-01" purity="4.3000754714012146e-01" nType="-99"/>
          </Node>
          <Node pos="r" depth="2" NCoef="0" IVar="2" Cut="8.8788229227066040e-01" cType="1" res="-5.1398538053035736e-03" rms="4.3609791994094849e-01" purity="5.3685206174850464e-01" nType="0">
            <Node pos="l" depth="3" NCoef="0" IVar="-1" Cut="0.0000000000000000e+00" cType="1" res="-3.9670295082032681e-03" rms="4.2851558327674866e-01" purity="6.3046509027481079e-01" nType="-99"/>
            <Node pos="r" depth="3" NCoef="0" IVar="-1" Cut="0.0000000000000000e+00" cType="1" res="-6.1946536879986525e-04" rms="4.4525951147079468e-01" purity="4.2112198472023010e-01" nType="-99"/>
          </Node>
        </Node>
        <Node pos="r" depth="1" NCoef="0" IVar="-1" Cut="0.0000000000000000e+00" cType="1" res="1.1665039928629994e-03" rms="4.0411999821662903e-01" purity="6.2562984228134155e-01" nType="-99"/>
      </Node>
    </BinaryTree>
    <BinaryTree type="DecisionTree" boostWeight="1.0000000000000000e+00" itree="166">
      <Node pos="s" depth="0" NCoef="0" IVar="6" Cut="1.1814180755615234e+02" cType="1" res="-4.3332522182026878e-05" rms="4.1915506124496460e-01" purity="5.0000000000000000e-01" nType="0">
        <Node pos="l" depth="1" NCoef="0" IVar="3" Cut="2.0000000000000000e+00" cType="1" res="5.3086341358721256e-04" rms="4.1236829757690430e-01" purity="4.7068229317665100e-01" nType="0">
          <Node pos="l" depth="2" NCoef="0" IVar="5" Cut="1.0866986846923828e+02" cType="1" res="6.2957953196018934e-04" rms="4.1615191102027893e-01" purity="5.0974237918853760e-01" nType="0">
            <Node pos="l" depth="3" NCoef="0" IVar="-1" Cut="0.0000000000000000e+00" cType="1" res="-1.7424100078642368e-03" rms="3.9598515629768372e-01" purity="4.5794811844825745e-01" nType="-99"/>
            <Node pos="r" depth="3" NCoef="0" IVar="4" Cut="5.2380955219268799e-01" cType="1" res="2.3024731781333685e-03" rms="4.2597696185112000e-01" purity="5.3593432903289795e-01" nType="0">
              <Node pos="l" depth="4" NCoef="0" IVar="-1" Cut="0.0000000000000000e+00" cType="1" res="5.8473502285778522e-03" rms="4.2512968182563782e-01" purity="3.7016370892524719e-01" nType="-99"/>
              <Node pos="r" depth="4" NCoef="0" IVar="6" Cut="6.0481971740722656e+01" cType="1" res="-1.2024436000501737e-04" rms="4.2626580595970154e-01" purity="5.9750109910964966e-01" nType="0">
                <Node pos="l" depth="5" NCoef="0" IVar="-1" Cut="0.0000000000000000e+00" cType="1" res="1.0432191193103790e-03" rms="4.1729542613029480e-01" purity="5.9286463260650635e-01" nType="-99"/>
                <Node pos="r" depth="5" NCoef="0" IVar="-1" Cut="0.0000000000000000e+00" cType="1" res="-9.5126836095005274e-04" rms="4.3410950899124146e-01" purity="6.0164064168930054e-01" nType="-99"/>
              </Node>
            </Node>
          </Node>
          <Node pos="r" depth="2" NCoef="0" IVar="1" Cut="1.6387456655502319e+00" cType="1" res="-3.5767701920121908e-03" rms="4.1928523778915405e-01" purity="3.7553235888481140e-01" nType="0">
            <Node pos="l" depth="3" NCoef="0" IVar="-1" Cut="0.0000000000000000e+00" cType="1" res="-5.1023531705141068e-03" rms="4.1525259613990784e-01" purity="3.6489474773406982e-01" nType="-99"/>
            <Node pos="r" depth="3" NCoef="0" IVar="-1" Cut="0.0000000000000000e+00" cType="1" res="7.0813519414514303e-04" rms="4.2429479956626892e-01" purity="3.8901168107986450e-01" nType="-99"/>
          </Node>
        </Node>
        <Node pos="r" depth="1" NCoef="0" IVar="-1" Cut="0.0000000000000000e+00" cType="1" res="1.2172593269497156e-03" rms="4.2912888526916504e-01" purity="6.4245134592056274e-01" nType="-99"/>
      </Node>
    </BinaryTree>
    <BinaryTree type="DecisionTree" boostWeight="1.0000000000000000e+00" itree="167">
      <Node pos="s" depth="0" NCoef="0" IVar="4" Cut="7.1428573131561279e-01" cType="1" res="-2.4092811145237647e-05" rms="4.1914719343185425e-01" purity="5.0000000000000000e-01" nType="0">
        <Node pos="l" depth="1" NCoef="0" IVar="7" Cut="8.3542404174804688e+01" cType="1" res="-1.9010788528248668e-03" rms="4.1988933086395264e-01" purity="4.4392177462577820e-01" nType="0">
          <Node pos="l" depth="2" NCoef="0" IVar="-1" Cut="0.0000000000000000e+00" cType="1" res="-1.9624847918748856e-03" rms="4.2466285824775696e-01" purity="4.6566841006278992e-01" nType="-99"/>
          <Node pos="r" depth="2" NCoef="0" IVar="-1" Cut="0.0000000000000000e+00" cType="1" res="3.0106548365438357e-05" rms="4.1362336277961731e-01" purity="4.1578555107116699e-01" nType="-99"/>
        </Node>
        <Node pos="r" depth="1" NCoef="0" IVar="5" Cut="2.0012669372558594e+02" cType="1" res="7.5250538066029549e-04" rms="4.1883730888366699e-01" purity="5.2320218086242676e-01" nType="0">
          <Node pos="l" depth="2" NCoef="0" IVar="5" Cut="7.5187438964843750e+01" cType="1" res="1.6000877367332578e-03" rms="4.2104664444923401e-01" purity="5.4759806394577026e-01" nType="0">
            <Node pos="l" depth="3" NCoef="0" IVar="-1" Cut="0.0000000000000000e+00" cType="1" res="-8.5371769964694977e-03" rms="3.8617187738418579e-01" purity="2.2592766582965851e-01" nType="-99"/>
            <Node pos="r" depth="3" NCoef="0" IVar="5" Cut="1.2278312683105469e+02" cType="1" res="3.8073232863098383e-03" rms="4.2830386757850647e-01" purity="6.1833846569061279e-01" nType="0">
              <Node pos="l" depth="4" NCoef="0" IVar="-1" Cut="0.0000000000000000e+00" cType="1" res="4.6991552226245403e-03" rms="4.2119580507278442e-01" purity="6.6179168224334717e-01" nType="-99"/>
              <Node pos="r" depth="4" NCoef="0" IVar="-1" Cut="0.0000000000000000e+00" cType="1" res="-2.4308674037456512e-03" rms="4.3800538778305054e-01" purity="5.5696058273315430e-01" nType="-99"/>
            </Node>
          </Node>
          <Node pos="r" depth="2" NCoef="0" IVar="-1" Cut="0.0000000000000000e+00" cType="1" res="-2.0066527649760246e-03" rms="4.0913972258567810e-01" purity="4.1785478591918945e-01" nType="-99"/>
        </Node>
      </Node>
    </BinaryTree>
    <BinaryTree type="DecisionTree" boostWeight="1.0000000000000000e+00" itree="168">
      <Node pos="s" depth="0" NCoef="0" IVar="4" Cut="7.1428573131561279e-01" cType="1" res="1.6806516214273870e-04" rms="4.1913270950317383e-01" purity="5.0000000000000000e-01" nType="0">
        <Node pos="l" depth="1" NCoef="0" IVar="2" Cut="6.3215118646621704e-01" cType="1" res="-1.4995879027992487e-03" rms="4.1988706588745117e-01" purity="4.4392177462577820e-01" nType="0">
          <Node pos="l" depth="2" NCoef="0" IVar="-1" Cut="0.0000000000000000e+00" cType="1" res="1.8434447702020407e-04" rms="4.1772785782814026e-01" purity="5.5165416002273560e-01" nType="-99"/>
          <Node pos="r" depth="2" NCoef="0" IVar="-1" Cut="0.0000000000000000e+00" cType="1" res="-1.7697189468890429e-03" rms="4.2125612497329712e-01" purity="3.7510904669761658e-01" nType="-99"/>
        </Node>
        <Node pos="r" depth="1" NCoef="0" IVar="2" Cut="1.9642339944839478e+00" cType="1" res="8.5805234266445041e-04" rms="4.1881823539733887e-01" purity="5.2320218086242676e-01" nType="0">
          <Node pos="l" depth="2" NCoef="0" IVar="5" Cut="1.5334861755371094e+02" cType="1" res="6.5930886194109917e-05" rms="4.2137876152992249e-01" purity="5.9118366241455078e-01" nType="0">
            <Node pos="l" depth="3" NCoef="0" IVar="7" Cut="9.2861343383789062e+01" cType="1" res="1.7418486531823874e-03" rms="4.1509446501731873e-01" purity="5.6828635931015015e-01" nType="0">
              <Node pos="l" depth="4" NCoef="0" IVar="5" Cut="9.3078269958496094e+01" cType="1" res="-1.6566650010645390e-03" rms="4.4272634387016296e-01" purity="5.3691989183425903e-01" nType="0">
                <Node pos="l" depth="5" NCoef="0" IVar="-1" Cut="0.0000000000000000e+00" cType="1" res="2.8257884550839663e-03" rms="4.3706941604614258e-01" purity="4.0408316254615784e-01" nType="-99"/>
                <Node pos="r" depth="5" NCoef="0" IVar="-1" Cut="0.0000000000000000e+00" cType="1" res="-2.9846343677490950e-03" rms="4.4710803031921387e-01" purity="6.4246857166290283e-01" nType="-99"/>
              </Node>
              <Node pos="r" depth="4" NCoef="0" IVar="-1" Cut="0.0000000000000000e+00" cType="1" res="3.9194743148982525e-03" rms="3.7065669894218445e-01" purity="6.1443650722503662e-01" nType="-99"/>
            </Node>
            <Node pos="r" depth="3" NCoef="0" IVar="-1" Cut="0.0000000000000000e+00" cType="1" res="-2.7740439400076866e-03" rms="4.4490522146224976e-01" purity="6.8019145727157593e-01" nType="-99"/>
          </Node>
          <Node pos="r" depth="2" NCoef="0" IVar="-1" Cut="0.0000000000000000e+00" cType="1" res="3.8374275900423527e-03" rms="4.0855091810226440e-01" purity="2.5515639781951904e-01" nType="-99"/>
        </Node>
      </Node>
    </BinaryTree>
    <BinaryTree type="DecisionTree" boostWeight="1.0000000000000000e+00" itree="169">
      <Node pos="s" depth="0" NCoef="0" IVar="6" Cut="1.1814180755615234e+02" cType="1" res="4.7652742068748921e-05" rms="4.1912102699279785e-01" purity="5.0000000000000000e-01" nType="0">
        <Node pos="l" depth="1" NCoef="0" IVar="6" Cut="9.1529441833496094e+01" cType="1" res="-5.0794333219528198e-04" rms="4.1703355312347412e-01" purity="4.7068229317665100e-01" nType="0">
          <Node pos="l" depth="2" NCoef="0" IVar="3" Cut="1.0000000000000000e+00" cType="1" res="9.6748306532390416e-05" rms="4.0906682610511780e-01" purity="4.6658635139465332e-01" nType="0">
            <Node pos="l" depth="3" NCoef="0" IVar="7" Cut="7.5377700805664062e+01" cType="1" res="1.3873612042516470e-03" rms="4.1603687405586243e-01" purity="5.5590009689331055e-01" nType="0">
              <Node pos="l" depth="4" NCoef="0" IVar="-1" Cut="0.0000000000000000e+00" cType="1" res="-2.7997765573672950e-04" rms="4.3564054369926453e-01" purity="4.7185489535331726e-01" nType="-99"/>
              <Node pos="r" depth="4" NCoef="0" IVar="-1" Cut="0.0000000000000000e+00" cType="1" res="1.6196840442717075e-03" rms="3.9816650748252869e-01" purity="6.2911409139633179e-01" nType="-99"/>
            </Node>
            <Node pos="r" depth="3" NCoef="0" IVar="5" Cut="1.4449981689453125e+02" cType="1" res="-3.0537729617208242e-03" rms="4.1399613022804260e-01" purity="4.0842643380165100e-01" nType="0">
              <Node pos="l" depth="4" NCoef="0" IVar="6" Cut="5.0344287872314453e+01" cType="1" res="-7.7592761954292655e-05" rms="4.1149500012397766e-01" purity="4.5426928997039795e-01" nType="0">
                <Node pos="l" depth="5" NCoef="0" IVar="-1" Cut="0.0000000000000000e+00" cType="1" res="1.9439519383013248e-03" rms="4.4286429882049561e-01" purity="5.5544584989547729e-01" nType="-99"/>
                <Node pos="r" depth="5" NCoef="0" IVar="-1" Cut="0.0000000000000000e+00" cType="1" res="-3.3350274898111820e-03" rms="3.7494355440139771e-01" purity="3.4587773680686951e-01" nType="-99"/>
              </Node>
              <Node pos="r" depth="4" NCoef="0" IVar="-1" Cut="0.0000000000000000e+00" cType="1" res="-5.9259524568915367e-03" rms="4.1792371869087219e-01" purity="3.3505973219871521e-01" nType="-99"/>
            </Node>
          </Node>
          <Node pos="r" depth="2" NCoef="0" IVar="-1" Cut="0.0000000000000000e+00" cType="1" res="1.5985283534973860e-03" rms="4.2630475759506226e-01" purity="4.8801064491271973e-01" nType="-99"/>
        </Node>
        <Node pos="r" depth="1" NCoef="0" IVar="-1" Cut="0.0000000000000000e+00" cType="1" res="1.2690537841990590e-03" rms="4.2910897731781006e-01" purity="6.4245134592056274e-01" nType="-99"/>
      </Node>
    </BinaryTree>
    <BinaryTree type="DecisionTree" boostWeight="1.0000000000000000e+00" itree="170">
      <Node pos="s" depth="0" NCoef="0" IVar="4" Cut="7.1428573131561279e-01" cType="1" res="1.5009305207058787e-04" rms="4.1911634802818298e-01" purity="5.0000000000000000e-01" nType="0">
        <Node pos="l" depth="1" NCoef="0" IVar="6" Cut="1.1854922485351562e+02" cType="1" res="-1.3965095859020948e-03" rms="4.1988846659660339e-01" purity="4.4392177462577820e-01" nType="0">
          <Node pos="l" depth="2" NCoef="0" IVar="-1" Cut="0.0000000000000000e+00" cType="1" res="5.5382904974976555e-05" rms="4.0186610817909241e-01" purity="3.2457759976387024e-01" nType="-99"/>
          <Node pos="r" depth="2" NCoef="0" IVar="-1" Cut="0.0000000000000000e+00" cType="1" res="-1.5093059046193957e-03" rms="4.4220191240310669e-01" purity="5.9898626804351807e-01" nType="-99"/>
        </Node>
        <Node pos="r" depth="1" NCoef="0" IVar="2" Cut="2.2916061878204346e+00" cType="1" res="7.8999594552442431e-04" rms="4.1879481077194214e-01" purity="5.2320218086242676e-01" nType="0">
          <Node pos="l" depth="2" NCoef="0" IVar="7" Cut="1.2642032623291016e+02" cType="1" res="1.5704544784966856e-04" rms="4.2470589280128479e-01" purity="5.7922440767288208e-01" nType="0">
            <Node pos="l" depth="3" NCoef="0" IVar="4" Cut="1.5238095521926880e+00" cType="1" res="1.6103478847071528e-03" rms="4.3277511000633240e-01" purity="5.4520303010940552e-01" nType="0">
              <Node pos="l" depth="4" NCoef="0" IVar="-1" Cut="0.0000000000000000e+00" cType="1" res="4.7631976194679737e-03" rms="4.1900268197059631e-01" purity="4.3412435054779053e-01" nType="-99"/>
              <Node pos="r" depth="4" NCoef="0" IVar="7" Cut="6.6262405395507812e+01" cType="1" res="-2.7084087487310171e-03" rms="4.4187104701995850e-01" purity="6.2096965312957764e-01" nType="0">
                <Node pos="l" depth="5" NCoef="0" IVar="-1" Cut="0.0000000000000000e+00" cType="1" res="-4.0842094458639622e-03" rms="4.6102371811866760e-01" purity="5.7335776090621948e-01" nType="-99"/>
                <Node pos="r" depth="5" NCoef="0" IVar="-1" Cut="0.0000000000000000e+00" cType="1" res="1.8811200279742479e-03" rms="4.1983270645141602e-01" purity="6.7302340269088745e-01" nType="-99"/>
              </Node>
            </Node>
            <Node pos="r" depth="3" NCoef="0" IVar="-1" Cut="0.0000000000000000e+00" cType="1" res="-2.6099102105945349e-03" rms="3.9363777637481689e-01" purity="7.0405709743499756e-01" nType="-99"/>
          </Node>
          <Node pos="r" depth="2" NCoef="0" IVar="-1" Cut="0.0000000000000000e+00" cType="1" res="6.3582132570445538e-03" rms="3.8189396262168884e-01" purity="1.9141060113906860e-01" nType="-99"/>
        </Node>
      </Node>
    </BinaryTree>
    <BinaryTree type="DecisionTree" boostWeight="1.0000000000000000e+00" itree="171">
      <Node pos="s" depth="0" NCoef="0" IVar="6" Cut="1.1814180755615234e+02" cType="1" res="-2.2299880583886988e-05" rms="4.1909188032150269e-01" purity="5.0000000000000000e-01" nType="0">
        <Node pos="l" depth="1" NCoef="0" IVar="0" Cut="1.8972072601318359e+00" cType="1" res="-5.9513375163078308e-04" rms="4.1699916124343872e-01" purity="4.7068229317665100e-01" nType="0">
          <Node pos="l" depth="2" NCoef="0" IVar="5" Cut="1.4124215698242188e+02" cType="1" res="2.1114102855790406e-04" rms="4.2037379741668701e-01" purity="4.7791203856468201e-01" nType="0">
            <Node pos="l" depth="3" NCoef="0" IVar="6" Cut="4.7176486968994141e+01" cType="1" res="-2.5427660439163446e-03" rms="4.0927207469940186e-01" purity="4.7496497631072998e-01" nType="0">
              <Node pos="l" depth="4" NCoef="0" IVar="-1" Cut="0.0000000000000000e+00" cType="1" res="2.8580643702298403e-03" rms="4.2942512035369873e-01" purity="6.0706502199172974e-01" nType="-99"/>
              <Node pos="r" depth="4" NCoef="0" IVar="3" Cut="1.0000000000000000e+00" cType="1" res="-3.2897735945880413e-03" rms="3.1580710411071777e-01" purity="4.0406152606010437e-01" nType="0">
                <Node pos="l" depth="5" NCoef="0" IVar="-1" Cut="0.0000000000000000e+00" cType="1" res="-7.2806719690561295e-03" rms="4.1683405637741089e-01" purity="4.6145525574684143e-01" nType="-99"/>
                <Node pos="r" depth="5" NCoef="0" IVar="-1" Cut="0.0000000000000000e+00" cType="1" res="-1.3793738326057792e-03" rms="3.7718155980110168e-01" purity="3.4410855174064636e-01" nType="-99"/>
              </Node>
            </Node>
            <Node pos="r" depth="3" NCoef="0" IVar="7" Cut="7.5554244995117188e+01" cType="1" res="4.8447363078594208e-03" rms="4.3838009238243103e-01" purity="4.8287075757980347e-01" nType="0">
              <Node pos="l" depth="4" NCoef="0" IVar="-1" Cut="0.0000000000000000e+00" cType="1" res="4.4375932775437832e-03" rms="4.4403532147407532e-01" purity="4.7224980592727661e-01" nType="-99"/>
              <Node pos="r" depth="4" NCoef="0" IVar="-1" Cut="0.0000000000000000e+00" cType="1" res="6.8278098478913307e-04" rms="4.3206009268760681e-01" purity="4.9452644586563110e-01" nType="-99"/>
            </Node>
          </Node>
          <Node pos="r" depth="2" NCoef="0" IVar="-1" Cut="0.0000000000000000e+00" cType="1" res="-2.2486741654574871e-03" rms="4.0481567382812500e-01" purity="4.4509232044219971e-01" nType="-99"/>
        </Node>
        <Node pos="r" depth="1" NCoef="0" IVar="-1" Cut="0.0000000000000000e+00" cType="1" res="1.2751932954415679e-03" rms="4.2910408973693848e-01" purity="6.4245134592056274e-01" nType="-99"/>
      </Node>
    </BinaryTree>
    <BinaryTree type="DecisionTree" boostWeight="1.0000000000000000e+00" itree="172">
      <Node pos="s" depth="0" NCoef="0" IVar="7" Cut="1.2635140228271484e+02" cType="1" res="4.2122654122067615e-05" rms="4.1907563805580139e-01" purity="5.0000000000000000e-01" nType="0">
        <Node pos="l" depth="1" NCoef="0" IVar="6" Cut="9.1677116394042969e+01" cType="1" res="-5.1384343532845378e-04" rms="4.2253321409225464e-01" purity="4.7062867879867554e-01" nType="0">
          <Node pos="l" depth="2" NCoef="0" IVar="7" Cut="3.6114326477050781e+01" cType="1" res="1.2937198625877500e-03" rms="4.1705676913261414e-01" purity="4.4442299008369446e-01" nType="0">
            <Node pos="l" depth="3" NCoef="0" IVar="-1" Cut="0.0000000000000000e+00" cType="1" res="-4.7470219433307648e-03" rms="4.4771301746368408e-01" purity="4.3195515871047974e-01" nType="-99"/>
            <Node pos="r" depth="3" NCoef="0" IVar="4" Cut="2.4761905670166016e+00" cType="1" res="3.2988353632390499e-03" rms="4.1033974289894104e-01" purity="4.4702580571174622e-01" nType="0">
              <Node pos="l" depth="4" NCoef="0" IVar="3" Cut="1.0000000000000000e+00" cType="1" res="3.5545888822525740e-03" rms="3.8803064823150635e-01" purity="4.0669009089469910e-01" nType="0">
                <Node pos="l" depth="5" NCoef="0" IVar="-1" Cut="0.0000000000000000e+00" cType="1" res="6.3986168242990971e-03" rms="4.1967895627021790e-01" purity="4.8961728811264038e-01" nType="-99"/>
                <Node pos="r" depth="5" NCoef="0" IVar="6" Cut="6.3101387023925781e+01" cType="1" res="2.5913622230291367e-03" rms="3.9496165513992310e-01" purity="3.4864041209220886e-01" nType="0">
                  <Node pos="l" depth="6" NCoef="0" IVar="-1" Cut="0.0000000000000000e+00" cType="1" res="4.5377570204436779e-03" rms="3.9824032783508301e-01" purity="3.6759391427040100e-01" nType="-99"/>
                  <Node pos="r" depth="6" NCoef="0" IVar="-1" Cut="0.0000000000000000e+00" cType="1" res="-7.2284217458218336e-04" rms="3.9168456196784973e-01" purity="3.3003467321395874e-01" nType="-99"/>
                </Node>
              </Node>
              <Node pos="r" depth="4" NCoef="0" IVar="-1" Cut="0.0000000000000000e+00" cType="1" res="-2.7142046019434929e-03" rms="4.2476326227188110e-01" purity="5.6716579198837280e-01" nType="-99"/>
            </Node>
          </Node>
          <Node pos="r" depth="2" NCoef="0" IVar="2" Cut="8.8788229227066040e-01" cType="1" res="-5.0816745497286320e-03" rms="4.3603274226188660e-01" purity="5.3685206174850464e-01" nType="0">
            <Node pos="l" depth="3" NCoef="0" IVar="-1" Cut="0.0000000000000000e+00" cType="1" res="-3.7081365007907152e-03" rms="4.2843410372734070e-01" purity="6.3046509027481079e-01" nType="-99"/>
            <Node pos="r" depth="3" NCoef="0" IVar="-1" Cut="0.0000000000000000e+00" cType="1" res="-9.3378755263984203e-04" rms="4.4522288441658020e-01" purity="4.2112198472023010e-01" nType="-99"/>
          </Node>
        </Node>
        <Node pos="r" depth="1" NCoef="0" IVar="-1" Cut="0.0000000000000000e+00" cType="1" res="1.2528635561466217e-03" rms="4.0394401550292969e-01" purity="6.2562984228134155e-01" nType="-99"/>
      </Node>
    </BinaryTree>
    <BinaryTree type="DecisionTree" boostWeight="1.0000000000000000e+00" itree="173">
      <Node pos="s" depth="0" NCoef="0" IVar="6" Cut="1.1814180755615234e+02" cType="1" res="1.0382254913565703e-05" rms="4.1905221343040466e-01" purity="5.0000000000000000e-01" nType="0">
        <Node pos="l" depth="1" NCoef="0" IVar="6" Cut="9.1529441833496094e+01" cType="1" res="-5.3815433057025075e-04" rms="4.1696184873580933e-01" purity="4.7068229317665100e-01" nType="0">
          <Node pos="l" depth="2" NCoef="0" IVar="6" Cut="3.1336139678955078e+01" cType="1" res="-1.2690115254372358e-03" rms="4.1471919417381287e-01" purity="4.6658635139465332e-01" nType="0">
            <Node pos="l" depth="3" NCoef="0" IVar="-1" Cut="0.0000000000000000e+00" cType="1" res="-3.7588826380670071e-03" rms="4.2694735527038574e-01" purity="4.8146098852157593e-01" nType="-99"/>
            <Node pos="r" depth="3" NCoef="0" IVar="4" Cut="2.2857143878936768e+00" cType="1" res="-3.0069192871451378e-04" rms="4.1229349374771118e-01" purity="4.6369537711143494e-01" nType="0">
              <Node pos="l" depth="4" NCoef="0" IVar="7" Cut="7.5449737548828125e+01" cType="1" res="-3.3657939638942480e-03" rms="4.1054040193557739e-01" purity="4.1867312788963318e-01" nType="0">
                <Node pos="l" depth="5" NCoef="0" IVar="7" Cut="5.0356132507324219e+01" cType="1" res="4.8929614422377199e-05" rms="4.3668568134307861e-01" purity="4.2375612258911133e-01" nType="0">
                  <Node pos="l" depth="6" NCoef="0" IVar="-1" Cut="0.0000000000000000e+00" cType="1" res="-3.4770562779158354e-03" rms="4.4733709096908569e-01" purity="4.2989444732666016e-01" nType="-99"/>
                  <Node pos="r" depth="6" NCoef="0" IVar="-1" Cut="0.0000000000000000e+00" cType="1" res="4.1460916399955750e-03" rms="4.2481458187103271e-01" purity="4.1714206337928772e-01" nType="-99"/>
                </Node>
                <Node pos="r" depth="5" NCoef="0" IVar="1" Cut="1.0282340049743652e+00" cType="1" res="-6.6833915188908577e-03" rms="3.8340598344802856e-01" purity="4.1373476386070251e-01" nType="0">
                  <Node pos="l" depth="6" NCoef="0" IVar="-1" Cut="0.0000000000000000e+00" cType="1" res="-8.5823135450482368e-03" rms="3.7559548020362854e-01" purity="3.7892082333564758e-01" nType="-99"/>
                  <Node pos="r" depth="6" NCoef="0" IVar="-1" Cut="0.0000000000000000e+00" cType="1" res="-1.3100170763209462e-03" rms="3.9107578992843628e-01" purity="4.4887307286262512e-01" nType="-99"/>
                </Node>
              </Node>
              <Node pos="r" depth="4" NCoef="0" IVar="-1" Cut="0.0000000000000000e+00" cType="1" res="5.6981653906404972e-03" rms="4.1865581274032593e-01" purity="6.3400524854660034e-01" nType="-99"/>
            </Node>
          </Node>
          <Node pos="r" depth="2" NCoef="0" IVar="-1" Cut="0.0000000000000000e+00" cType="1" res="1.4321154449135065e-03" rms="4.2630529403686523e-01" purity="4.8801064491271973e-01" nType="-99"/>
        </Node>
        <Node pos="r" depth="1" NCoef="0" IVar="-1" Cut="0.0000000000000000e+00" cType="1" res="1.2356842635199428e-03" rms="4.2905405163764954e-01" purity="6.4245134592056274e-01" nType="-99"/>
      </Node>
    </BinaryTree>
    <BinaryTree type="DecisionTree" boostWeight="1.0000000000000000e+00" itree="174">
      <Node pos="s" depth="0" NCoef="0" IVar="7" Cut="1.2635140228271484e+02" cType="1" res="9.6532363386359066e-05" rms="4.1903534531593323e-01" purity="5.0000000000000000e-01" nType="0">
        <Node pos="l" depth="1" NCoef="0" IVar="6" Cut="9.1677116394042969e+01" cType="1" res="-3.7209977745078504e-04" rms="4.2249614000320435e-01" purity="4.7062867879867554e-01" nType="0">
          <Node pos="l" depth="2" NCoef="0" IVar="0" Cut="2.1069586277008057e+00" cType="1" res="1.3258686522021890e-03" rms="4.1700980067253113e-01" purity="4.4442299008369446e-01" nType="0">
            <Node pos="l" depth="3" NCoef="0" IVar="5" Cut="1.4955754089355469e+02" cType="1" res="3.2266476191580296e-03" rms="4.2077171802520752e-01" purity="4.4806027412414551e-01" nType="0">
              <Node pos="l" depth="4" NCoef="0" IVar="5" Cut="8.4395675659179688e+01" cType="1" res="3.1310616759583354e-04" rms="4.1832733154296875e-01" purity="4.5989856123924255e-01" nType="0">
                <Node pos="l" depth="5" NCoef="0" IVar="-1" Cut="0.0000000000000000e+00" cType="1" res="7.3122624307870865e-03" rms="3.8955342769622803e-01" purity="2.7874922752380371e-01" nType="-99"/>
                <Node pos="r" depth="5" NCoef="0" IVar="-1" Cut="0.0000000000000000e+00" cType="1" res="-2.0538612734526396e-03" rms="4.3214258551597595e-01" purity="5.5186861753463745e-01" nType="-99"/>
              </Node>
              <Node pos="r" depth="4" NCoef="0" IVar="-1" Cut="0.0000000000000000e+00" cType="1" res="7.4371513910591602e-03" rms="4.2782658338546753e-01" purity="4.1292968392372131e-01" nType="-99"/>
            </Node>
            <Node pos="r" depth="3" NCoef="0" IVar="-1" Cut="0.0000000000000000e+00" cType="1" res="-4.1342736221849918e-03" rms="4.0166556835174561e-01" purity="4.3000754714012146e-01" nType="-99"/>
          </Node>
          <Node pos="r" depth="2" NCoef="0" IVar="1" Cut="1.4746018648147583e+00" cType="1" res="-4.6629775315523148e-03" rms="4.3602353334426880e-01" purity="5.3685206174850464e-01" nType="0">
            <Node pos="l" depth="3" NCoef="0" IVar="-1" Cut="0.0000000000000000e+00" cType="1" res="-4.3395245447754860e-03" rms="4.3409994244575500e-01" purity="4.8643982410430908e-01" nType="-99"/>
            <Node pos="r" depth="3" NCoef="0" IVar="-1" Cut="0.0000000000000000e+00" cType="1" res="-9.1958261327818036e-04" rms="4.3765673041343689e-01" purity="5.8032685518264771e-01" nType="-99"/>
          </Node>
        </Node>
        <Node pos="r" depth="1" NCoef="0" IVar="-1" Cut="0.0000000000000000e+00" cType="1" res="1.0888171382248402e-03" rms="4.0389180183410645e-01" purity="6.2562984228134155e-01" nType="-99"/>
      </Node>
    </BinaryTree>
    <BinaryTree type="DecisionTree" boostWeight="1.0000000000000000e+00" itree="175">
      <Node pos="s" depth="0" NCoef="0" IVar="6" Cut="1.1814180755615234e+02" cType="1" res="1.6620763290120522e-06" rms="4.1900473833084106e-01" purity="5.0000000000000000e-01" nType="0">
        <Node pos="l" depth="1" NCoef="0" IVar="6" Cut="9.1529441833496094e+01" cType="1" res="-5.3425860824063420e-04" rms="4.1691419482231140e-01" purity="4.7068229317665100e-01" nType="0">
          <Node pos="l" depth="2" NCoef="0" IVar="3" Cut="1.0000000000000000e+00" cType="1" res="3.1454255804419518e-05" rms="4.0892618894577026e-01" purity="4.6658635139465332e-01" nType="0">
            <Node pos="l" depth="3" NCoef="0" IVar="0" Cut="8.4020167589187622e-01" cType="1" res="1.2444350868463516e-03" rms="4.1582557559013367e-01" purity="5.5590009689331055e-01" nType="0">
              <Node pos="l" depth="4" NCoef="0" IVar="-1" Cut="0.0000000000000000e+00" cType="1" res="1.6607895959168673e-03" rms="4.1971361637115479e-01" purity="5.4564249515533447e-01" nType="-99"/>
              <Node pos="r" depth="4" NCoef="0" IVar="-1" Cut="0.0000000000000000e+00" cType="1" res="-1.2872538354713470e-04" rms="4.1250702738761902e-01" purity="5.6456446647644043e-01" nType="-99"/>
            </Node>
            <Node pos="r" depth="3" NCoef="0" IVar="5" Cut="1.4449981689453125e+02" cType="1" res="-2.9663348104804754e-03" rms="4.1388741135597229e-01" purity="4.0842643380165100e-01" nType="0">
              <Node pos="l" depth="4" NCoef="0" IVar="1" Cut="1.1739071607589722e+00" cType="1" res="-2.5353598175570369e-05" rms="4.1136473417282104e-01" purity="4.5426928997039795e-01" nType="0">
                <Node pos="l" depth="5" NCoef="0" IVar="-1" Cut="0.0000000000000000e+00" cType="1" res="-2.6746285147964954e-03" rms="3.9385798573493958e-01" purity="4.0360769629478455e-01" nType="-99"/>
                <Node pos="r" depth="5" NCoef="0" IVar="-1" Cut="0.0000000000000000e+00" cType="1" res="2.0116397645324469e-03" rms="4.2742964625358582e-01" purity="5.0279599428176880e-01" nType="-99"/>
              </Node>
              <Node pos="r" depth="4" NCoef="0" IVar="-1" Cut="0.0000000000000000e+00" cType="1" res="-5.8173644356429577e-03" rms="4.1784995794296265e-01" purity="3.3505973219871521e-01" nType="-99"/>
            </Node>
          </Node>
          <Node pos="r" depth="2" NCoef="0" IVar="-1" Cut="0.0000000000000000e+00" cType="1" res="1.5308775473386049e-03" rms="4.2631185054779053e-01" purity="4.8801064491271973e-01" nType="-99"/>
        </Node>
        <Node pos="r" depth="1" NCoef="0" IVar="-1" Cut="0.0000000000000000e+00" cType="1" res="1.2037594569846988e-03" rms="4.2900791764259338e-01" purity="6.4245134592056274e-01" nType="-99"/>
      </Node>
    </BinaryTree>
    <BinaryTree type="DecisionTree" boostWeight="1.0000000000000000e+00" itree="176">
      <Node pos="s" depth="0" NCoef="0" IVar="0" Cut="2.3188085556030273e+00" cType="1" res="9.5434916147496551e-05" rms="4.1899925470352173e-01" purity="5.0000000000000000e-01" nType="0">
        <Node pos="l" depth="1" NCoef="0" IVar="4" Cut="1.4285714626312256e+00" cType="1" res="-2.9697644640691578e-04" rms="4.2100673913955688e-01" purity="5.0221854448318481e-01" nType="0">
          <Node pos="l" depth="2" NCoef="0" IVar="5" Cut="2.3178877258300781e+02" cType="1" res="-1.9547427073121071e-03" rms="4.1424122452735901e-01" purity="4.4193390011787415e-01" nType="0">
            <Node pos="l" depth="3" NCoef="0" IVar="5" Cut="1.2858827209472656e+02" cType="1" res="-4.3438402935862541e-03" rms="4.1582247614860535e-01" purity="3.9971092343330383e-01" nType="0">
              <Node pos="l" depth="4" NCoef="0" IVar="-1" Cut="0.0000000000000000e+00" cType="1" res="-9.1251824051141739e-03" rms="3.7397223711013794e-01" purity="2.8782999515533447e-01" nType="-99"/>
              <Node pos="r" depth="4" NCoef="0" IVar="5" Cut="1.7281719970703125e+02" cType="1" res="3.2724259654060006e-04" rms="4.4630977511405945e-01" purity="4.8884609341621399e-01" nType="0">
                <Node pos="l" depth="5" NCoef="0" IVar="-1" Cut="0.0000000000000000e+00" cType="1" res="-2.3748055100440979e-03" rms="4.5186501741409302e-01" purity="4.2614424228668213e-01" nType="-99"/>
                <Node pos="r" depth="5" NCoef="0" IVar="-1" Cut="0.0000000000000000e+00" cType="1" res="2.2006917279213667e-03" rms="4.4091981649398804e-01" purity="5.4848283529281616e-01" nType="-99"/>
              </Node>
            </Node>
            <Node pos="r" depth="3" NCoef="0" IVar="-1" Cut="0.0000000000000000e+00" cType="1" res="2.6710084639489651e-03" rms="4.0945607423782349e-01" purity="5.6658619642257690e-01" nType="-99"/>
          </Node>
          <Node pos="r" depth="2" NCoef="0" IVar="2" Cut="9.1416978836059570e-01" cType="1" res="2.4700488429516554e-03" rms="4.3204915523529053e-01" purity="6.0284137725830078e-01" nType="0">
            <Node pos="l" depth="3" NCoef="0" IVar="-1" Cut="0.0000000000000000e+00" cType="1" res="-4.5565704931505024e-04" rms="4.1326859593391418e-01" purity="6.7333066463470459e-01" nType="-99"/>
            <Node pos="r" depth="3" NCoef="0" IVar="-1" Cut="0.0000000000000000e+00" cType="1" res="2.9166350141167641e-03" rms="4.4957816600799561e-01" purity="5.3412622213363647e-01" nType="-99"/>
          </Node>
        </Node>
        <Node pos="r" depth="1" NCoef="0" IVar="-1" Cut="0.0000000000000000e+00" cType="1" res="1.9991940353065729e-03" rms="4.0284156799316406e-01" purity="4.8254388570785522e-01" nType="-99"/>
      </Node>
    </BinaryTree>
    <BinaryTree type="DecisionTree" boostWeight="1.0000000000000000e+00" itree="177">
      <Node pos="s" depth="0" NCoef="0" IVar="4" Cut="2.1428570747375488e+00" cType="1" res="2.2636941866949201e-04" rms="4.1898804903030396e-01" purity="5.0000000000000000e-01" nType="0">
        <Node pos="l" depth="1" NCoef="0" IVar="4" Cut="9.5238097012042999e-02" cType="1" res="6.9817824987694621e-04" rms="4.1864374279975891e-01" purity="4.7926604747772217e-01" nType="0">
          <Node pos="l" depth="2" NCoef="0" IVar="6" Cut="1.1854922485351562e+02" cType="1" res="-1.1527994647622108e-03" rms="4.1980516910552979e-01" purity="4.4392177462577820e-01" nType="0">
            <Node pos="l" depth="3" NCoef="0" IVar="-1" Cut="0.0000000000000000e+00" cType="1" res="4.6245890553109348e-04" rms="4.0179234743118286e-01" purity="3.2457759976387024e-01" nType="-99"/>
            <Node pos="r" depth="3" NCoef="0" IVar="-1" Cut="0.0000000000000000e+00" cType="1" res="-1.5726044075563550e-03" rms="4.4210395216941833e-01" purity="5.9898626804351807e-01" nType="-99"/>
          </Node>
          <Node pos="r" depth="2" NCoef="0" IVar="2" Cut="1.3092019557952881e+00" cType="1" res="1.7463098047301173e-03" rms="4.1798099875450134e-01" purity="4.9928006529808044e-01" nType="0">
            <Node pos="l" depth="3" NCoef="0" IVar="3" Cut="1.0000000000000000e+00" cType="1" res="-2.1076463162899017e-03" rms="4.0230682492256165e-01" purity="5.7622319459915161e-01" nType="0">
              <Node pos="l" depth="4" NCoef="0" IVar="-1" Cut="0.0000000000000000e+00" cType="1" res="7.9330662265419960e-04" rms="4.1560322046279907e-01" purity="6.8002355098724365e-01" nType="-99"/>
              <Node pos="r" depth="4" NCoef="0" IVar="-1" Cut="0.0000000000000000e+00" cType="1" res="-1.7934659263119102e-04" rms="4.0272378921508789e-01" purity="4.9548354744911194e-01" nType="-99"/>
            </Node>
            <Node pos="r" depth="3" NCoef="0" IVar="-1" Cut="0.0000000000000000e+00" cType="1" res="2.4893772788345814e-03" rms="4.3373996019363403e-01" purity="3.6864611506462097e-01" nType="-99"/>
          </Node>
        </Node>
        <Node pos="r" depth="1" NCoef="0" IVar="-1" Cut="0.0000000000000000e+00" cType="1" res="-9.5087738009169698e-04" rms="4.2044207453727722e-01" purity="5.8810079097747803e-01" nType="-99"/>
      </Node>
    </BinaryTree>
    <BinaryTree type="DecisionTree" boostWeight="1.0000000000000000e+00" itree="178">
      <Node pos="s" depth="0" NCoef="0" IVar="6" Cut="1.1814180755615234e+02" cType="1" res="1.3461412163451314e-04" rms="4.1898441314697266e-01" purity="5.0000000000000000e-01" nType="0">
        <Node pos="l" depth="1" NCoef="0" IVar="6" Cut="4.2741188049316406e+01" cType="1" res="-3.1694726203568280e-04" rms="4.1689378023147583e-01" purity="4.7068229317665100e-01" nType="0">
          <Node pos="l" depth="2" NCoef="0" IVar="1" Cut="1.6387506723403931e+00" cType="1" res="-3.1774172093719244e-03" rms="4.2315873503684998e-01" purity="5.2372550964355469e-01" nType="0">
            <Node pos="l" depth="3" NCoef="0" IVar="-1" Cut="0.0000000000000000e+00" cType="1" res="2.6750747929327190e-04" rms="4.2461055517196655e-01" purity="5.6510776281356812e-01" nType="-99"/>
            <Node pos="r" depth="3" NCoef="0" IVar="-1" Cut="0.0000000000000000e+00" cType="1" res="-4.5168516226112843e-03" rms="4.2142236232757568e-01" purity="4.7555559873580933e-01" nType="-99"/>
          </Node>
          <Node pos="r" depth="2" NCoef="0" IVar="1" Cut="2.1659178733825684e+00" cType="1" res="7.1810669032856822e-04" rms="4.1459861397743225e-01" purity="4.5148873329162598e-01" nType="0">
            <Node pos="l" depth="3" NCoef="0" IVar="2" Cut="1.4609115123748779e+00" cType="1" res="-8.8394095655530691e-04" rms="4.0930137038230896e-01" purity="4.3122646212577820e-01" nType="0">
              <Node pos="l" depth="4" NCoef="0" IVar="6" Cut="8.2237258911132812e+01" cType="1" res="1.7255025450140238e-03" rms="4.0833607316017151e-01" purity="4.9260473251342773e-01" nType="0">
                <Node pos="l" depth="5" NCoef="0" IVar="-1" Cut="0.0000000000000000e+00" cType="1" res="-3.5337478038854897e-04" rms="4.0061700344085693e-01" purity="4.7759056091308594e-01" nType="-99"/>
                <Node pos="r" depth="5" NCoef="0" IVar="-1" Cut="0.0000000000000000e+00" cType="1" res="2.8506731614470482e-03" rms="4.1970837116241455e-01" purity="5.1529550552368164e-01" nType="-99"/>
              </Node>
              <Node pos="r" depth="4" NCoef="0" IVar="-1" Cut="0.0000000000000000e+00" cType="1" res="-6.2774391844868660e-03" rms="4.1158518195152283e-01" purity="2.8096172213554382e-01" nType="-99"/>
            </Node>
            <Node pos="r" depth="3" NCoef="0" IVar="-1" Cut="0.0000000000000000e+00" cType="1" res="3.4845161717385054e-03" rms="4.3362134695053101e-01" purity="5.2660745382308960e-01" nType="-99"/>
          </Node>
        </Node>
        <Node pos="r" depth="1" NCoef="0" IVar="-1" Cut="0.0000000000000000e+00" cType="1" res="1.0769441723823547e-03" rms="4.2899078130722046e-01" purity="6.4245134592056274e-01" nType="-99"/>
      </Node>
    </BinaryTree>
    <BinaryTree type="DecisionTree" boostWeight="1.0000000000000000e+00" itree="179">
      <Node pos="s" depth="0" NCoef="0" IVar="4" Cut="7.1428573131561279e-01" cType="1" res="2.3058529768604785e-04" rms="4.1897293925285339e-01" purity="5.0000000000000000e-01" nType="0">
        <Node pos="l" depth="1" NCoef="0" IVar="6" Cut="1.1854922485351562e+02" cType="1" res="-1.3469650875777006e-03" rms="4.1979852318763733e-01" purity="4.4392177462577820e-01" nType="0">
          <Node pos="l" depth="2" NCoef="0" IVar="-1" Cut="0.0000000000000000e+00" cType="1" res="8.5784246039111167e-05" rms="4.0178433060646057e-01" purity="3.2457759976387024e-01" nType="-99"/>
          <Node pos="r" depth="2" NCoef="0" IVar="-1" Cut="0.0000000000000000e+00" cType="1" res="-1.4815350295975804e-03" rms="4.4210222363471985e-01" purity="5.9898626804351807e-01" nType="-99"/>
        </Node>
        <Node pos="r" depth="1" NCoef="0" IVar="5" Cut="2.0012669372558594e+02" cType="1" res="8.8329275604337454e-04" rms="4.1862913966178894e-01" purity="5.2320218086242676e-01" nType="0">
          <Node pos="l" depth="2" NCoef="0" IVar="5" Cut="7.5187438964843750e+01" cType="1" res="1.7699322197586298e-03" rms="4.2084077000617981e-01" purity="5.4759806394577026e-01" nType="0">
            <Node pos="l" depth="3" NCoef="0" IVar="-1" Cut="0.0000000000000000e+00" cType="1" res="-7.5432709418237209e-03" rms="3.8605025410652161e-01" purity="2.2592766582965851e-01" nType="-99"/>
            <Node pos="r" depth="3" NCoef="0" IVar="5" Cut="1.2278312683105469e+02" cType="1" res="3.7955262232571840e-03" rms="4.2808607220649719e-01" purity="6.1833846569061279e-01" nType="0">
              <Node pos="l" depth="4" NCoef="0" IVar="-1" Cut="0.0000000000000000e+00" cType="1" res="4.4107604771852493e-03" rms="4.2099249362945557e-01" purity="6.6179168224334717e-01" nType="-99"/>
              <Node pos="r" depth="4" NCoef="0" IVar="-1" Cut="0.0000000000000000e+00" cType="1" res="-1.9848160445690155e-03" rms="4.3779551982879639e-01" purity="5.5696058273315430e-01" nType="-99"/>
            </Node>
          </Node>
          <Node pos="r" depth="2" NCoef="0" IVar="-1" Cut="0.0000000000000000e+00" cType="1" res="-2.0343493670225143e-03" rms="4.0891936421394348e-01" purity="4.1785478591918945e-01" nType="-99"/>
        </Node>
      </Node>
    </BinaryTree>
    <BinaryTree type="DecisionTree" boostWeight="1.0000000000000000e+00" itree="180">
      <Node pos="s" depth="0" NCoef="0" IVar="6" Cut="1.1814180755615234e+02" cType="1" res="3.4147684345953166e-04" rms="4.1896092891693115e-01" purity="5.0000000000000000e-01" nType="0">
        <Node pos="l" depth="1" NCoef="0" IVar="6" Cut="4.2741188049316406e+01" cType="1" res="-9.0626221208367497e-05" rms="4.1686674952507019e-01" purity="4.7068229317665100e-01" nType="0">
          <Node pos="l" depth="2" NCoef="0" IVar="1" Cut="1.6387506723403931e+00" cType="1" res="-2.3490809835493565e-03" rms="4.2313444614410400e-01" purity="5.2372550964355469e-01" nType="0">
            <Node pos="l" depth="3" NCoef="0" IVar="-1" Cut="0.0000000000000000e+00" cType="1" res="3.7314716610126197e-04" rms="4.2458343505859375e-01" purity="5.6510776281356812e-01" nType="-99"/>
            <Node pos="r" depth="3" NCoef="0" IVar="-1" Cut="0.0000000000000000e+00" cType="1" res="-3.5672720987349749e-03" rms="4.2141413688659668e-01" purity="4.7555559873580933e-01" nType="-99"/>
          </Node>
          <Node pos="r" depth="2" NCoef="0" IVar="0" Cut="1.8906105756759644e+00" cType="1" res="7.2658999124541879e-04" rms="4.1457244753837585e-01" purity="4.5148873329162598e-01" nType="0">
            <Node pos="l" depth="3" NCoef="0" IVar="5" Cut="1.4413626098632812e+02" cType="1" res="-5.6763278553262353e-04" rms="4.1684770584106445e-01" purity="4.5085045695304871e-01" nType="0">
              <Node pos="l" depth="4" NCoef="0" IVar="3" Cut="1.0000000000000000e+00" cType="1" res="-1.0249094339087605e-03" rms="3.1645229458808899e-01" purity="4.2100450396537781e-01" nType="0">
                <Node pos="l" depth="5" NCoef="0" IVar="-1" Cut="0.0000000000000000e+00" cType="1" res="-4.3482584878802299e-03" rms="4.1642498970031738e-01" purity="4.7451996803283691e-01" nType="-99"/>
                <Node pos="r" depth="5" NCoef="0" IVar="-1" Cut="0.0000000000000000e+00" cType="1" res="1.5094080299604684e-04" rms="3.8331070542335510e-01" purity="3.6545729637145996e-01" nType="-99"/>
              </Node>
              <Node pos="r" depth="4" NCoef="0" IVar="7" Cut="7.5569625854492188e+01" cType="1" res="3.4005842171609402e-03" rms="4.3762791156768799e-01" purity="4.9065813422203064e-01" nType="0">
                <Node pos="l" depth="5" NCoef="0" IVar="-1" Cut="0.0000000000000000e+00" cType="1" res="2.9912882018834352e-03" rms="4.4607943296432495e-01" purity="4.8906451463699341e-01" nType="-99"/>
                <Node pos="r" depth="5" NCoef="0" IVar="-1" Cut="0.0000000000000000e+00" cType="1" res="4.6413933159783483e-04" rms="4.2779302597045898e-01" purity="4.9247163534164429e-01" nType="-99"/>
              </Node>
            </Node>
            <Node pos="r" depth="3" NCoef="0" IVar="-1" Cut="0.0000000000000000e+00" cType="1" res="4.5335069298744202e-03" rms="4.0306937694549561e-01" purity="4.5464560389518738e-01" nType="-99"/>
          </Node>
        </Node>
        <Node pos="r" depth="1" NCoef="0" IVar="-1" Cut="0.0000000000000000e+00" cType="1" res="1.1289532994851470e-03" rms="4.2898461222648621e-01" purity="6.4245134592056274e-01" nType="-99"/>
      </Node>
    </BinaryTree>
    <BinaryTree type="DecisionTree" boostWeight="1.0000000000000000e+00" itree="181">
      <Node pos="s" depth="0" NCoef="0" IVar="4" Cut="7.1428573131561279e-01" cType="1" res="2.8938573086634278e-04" rms="4.1894945502281189e-01" purity="5.0000000000000000e-01" nType="0">
        <Node pos="l" depth="1" NCoef="0" IVar="7" Cut="8.3542404174804688e+01" cType="1" res="-1.5030705835670233e-03" rms="4.1979506611824036e-01" purity="4.4392177462577820e-01" nType="0">
          <Node pos="l" depth="2" NCoef="0" IVar="-1" Cut="0.0000000000000000e+00" cType="1" res="-1.8265679245814681e-03" rms="4.2458495497703552e-01" purity="4.6566841006278992e-01" nType="-99"/>
          <Node pos="r" depth="2" NCoef="0" IVar="-1" Cut="0.0000000000000000e+00" cType="1" res="3.9474797085858881e-04" rms="4.1350555419921875e-01" purity="4.1578555107116699e-01" nType="-99"/>
        </Node>
        <Node pos="r" depth="1" NCoef="0" IVar="5" Cut="2.0012669372558594e+02" cType="1" res="1.0310099460184574e-03" rms="4.1859683394432068e-01" purity="5.2320218086242676e-01" nType="0">
          <Node pos="l" depth="2" NCoef="0" IVar="5" Cut="1.3765676879882812e+02" cType="1" res="1.9028027309104800e-03" rms="4.2080792784690857e-01" purity="5.4759806394577026e-01" nType="0">
            <Node pos="l" depth="3" NCoef="0" IVar="5" Cut="1.0195924377441406e+02" cType="1" res="4.0187262929975986e-03" rms="4.1376495361328125e-01" purity="5.5730897188186646e-01" nType="0">
              <Node pos="l" depth="4" NCoef="0" IVar="3" Cut="2.0000000000000000e+00" cType="1" res="-1.0615346254780889e-03" rms="3.9866694808006287e-01" purity="4.4428208470344543e-01" nType="0">
                <Node pos="l" depth="5" NCoef="0" IVar="-1" Cut="0.0000000000000000e+00" cType="1" res="-4.3815374374389648e-03" rms="4.0451163053512573e-01" purity="4.5258954167366028e-01" nType="-99"/>
                <Node pos="r" depth="5" NCoef="0" IVar="-1" Cut="0.0000000000000000e+00" cType="1" res="3.8153533823788166e-03" rms="4.3263792991638184e-01" purity="4.3250852823257446e-01" nType="-99"/>
              </Node>
              <Node pos="r" depth="4" NCoef="0" IVar="-1" Cut="0.0000000000000000e+00" cType="1" res="5.0395787693560123e-03" rms="4.1040998697280884e-01" purity="6.9463306665420532e-01" nType="-99"/>
            </Node>
            <Node pos="r" depth="3" NCoef="0" IVar="-1" Cut="0.0000000000000000e+00" cType="1" res="-2.8092775028198957e-03" rms="4.4382733106613159e-01" purity="5.1460498571395874e-01" nType="-99"/>
          </Node>
          <Node pos="r" depth="2" NCoef="0" IVar="-1" Cut="0.0000000000000000e+00" cType="1" res="-1.8876625690609217e-03" rms="4.0889021754264832e-01" purity="4.1785478591918945e-01" nType="-99"/>
        </Node>
      </Node>
    </BinaryTree>
    <BinaryTree type="DecisionTree" boostWeight="1.0000000000000000e+00" itree="182">
      <Node pos="s" depth="0" NCoef="0" IVar="4" Cut="7.1428573131561279e-01" cType="1" res="3.1411706004291773e-04" rms="4.1893556714057922e-01" purity="5.0000000000000000e-01" nType="0">
        <Node pos="l" depth="1" NCoef="0" IVar="2" Cut="6.3215118646621704e-01" cType="1" res="-1.1883713304996490e-03" rms="4.1979199647903442e-01" purity="4.4392177462577820e-01" nType="0">
          <Node pos="l" depth="2" NCoef="0" IVar="-1" Cut="0.0000000000000000e+00" cType="1" res="5.0793896662071347e-04" rms="4.1755464673042297e-01" purity="5.5165416002273560e-01" nType="-99"/>
          <Node pos="r" depth="2" NCoef="0" IVar="-1" Cut="0.0000000000000000e+00" cType="1" res="-1.7051016911864281e-03" rms="4.2120888829231262e-01" purity="3.7510904669761658e-01" nType="-99"/>
        </Node>
        <Node pos="r" depth="1" NCoef="0" IVar="5" Cut="2.0012669372558594e+02" cType="1" res="9.3576777726411819e-04" rms="4.1857910156250000e-01" purity="5.2320218086242676e-01" nType="0">
          <Node pos="l" depth="2" NCoef="0" IVar="5" Cut="1.2873257446289062e+02" cType="1" res="1.6385774360969663e-03" rms="4.2078638076782227e-01" purity="5.4759806394577026e-01" nType="0">
            <Node pos="l" depth="3" NCoef="0" IVar="5" Cut="1.0111006164550781e+02" cType="1" res="3.7618454080075026e-03" rms="4.1171550750732422e-01" purity="5.5349183082580566e-01" nType="0">
              <Node pos="l" depth="4" NCoef="0" IVar="0" Cut="8.4090298414230347e-01" cType="1" res="-1.5407835599035025e-03" rms="4.1651949286460876e-01" purity="4.3813791871070862e-01" nType="0">
                <Node pos="l" depth="5" NCoef="0" IVar="-1" Cut="0.0000000000000000e+00" cType="1" res="1.4363192021846771e-03" rms="4.1057470440864563e-01" purity="4.1798084974288940e-01" nType="-99"/>
                <Node pos="r" depth="5" NCoef="0" IVar="-1" Cut="0.0000000000000000e+00" cType="1" res="-2.9333832208067179e-03" rms="4.2172420024871826e-01" purity="4.5611989498138428e-01" nType="-99"/>
              </Node>
              <Node pos="r" depth="4" NCoef="0" IVar="-1" Cut="0.0000000000000000e+00" cType="1" res="5.3094555623829365e-03" rms="4.0486773848533630e-01" purity="7.1292459964752197e-01" nType="-99"/>
            </Node>
            <Node pos="r" depth="3" NCoef="0" IVar="-1" Cut="0.0000000000000000e+00" cType="1" res="-1.8952514510601759e-03" rms="4.4253051280975342e-01" purity="5.3291654586791992e-01" nType="-99"/>
          </Node>
          <Node pos="r" depth="2" NCoef="0" IVar="-1" Cut="0.0000000000000000e+00" cType="1" res="-1.4488154556602240e-03" rms="4.0889686346054077e-01" purity="4.1785478591918945e-01" nType="-99"/>
        </Node>
      </Node>
    </BinaryTree>
    <BinaryTree type="DecisionTree" boostWeight="1.0000000000000000e+00" itree="183">
      <Node pos="s" depth="0" NCoef="0" IVar="6" Cut="1.1814180755615234e+02" cType="1" res="3.5044230753555894e-04" rms="4.1892695426940918e-01" purity="5.0000000000000000e-01" nType="0">
        <Node pos="l" depth="1" NCoef="0" IVar="6" Cut="6.9352966308593750e+01" cType="1" res="-8.6315609223674983e-05" rms="4.1682866215705872e-01" purity="4.7068229317665100e-01" nType="0">
          <Node pos="l" depth="2" NCoef="0" IVar="1" Cut="2.1849880218505859e+00" cType="1" res="-1.2229634448885918e-03" rms="4.1590219736099243e-01" purity="4.8710140585899353e-01" nType="0">
            <Node pos="l" depth="3" NCoef="0" IVar="2" Cut="9.4643020629882812e-01" cType="1" res="4.4317953870631754e-04" rms="4.1397789120674133e-01" purity="4.8906722664833069e-01" nType="0">
              <Node pos="l" depth="4" NCoef="0" IVar="-1" Cut="0.0000000000000000e+00" cType="1" res="-3.1282422132790089e-03" rms="3.9487928152084351e-01" purity="5.4026347398757935e-01" nType="-99"/>
              <Node pos="r" depth="4" NCoef="0" IVar="-1" Cut="0.0000000000000000e+00" cType="1" res="3.0538463033735752e-03" rms="4.2875301837921143e-01" purity="4.4764709472656250e-01" nType="-99"/>
            </Node>
            <Node pos="r" depth="3" NCoef="0" IVar="-1" Cut="0.0000000000000000e+00" cType="1" res="-3.6874609068036079e-03" rms="4.2158463597297668e-01" purity="4.8120236396789551e-01" nType="-99"/>
          </Node>
          <Node pos="r" depth="2" NCoef="0" IVar="1" Cut="1.8391916751861572e+00" cType="1" res="1.4232654357329011e-03" rms="4.1805112361907959e-01" purity="4.4887605309486389e-01" nType="0">
            <Node pos="l" depth="3" NCoef="0" IVar="2" Cut="1.0684064626693726e+00" cType="1" res="-4.9843773012980819e-04" rms="4.0973120927810669e-01" purity="4.2201387882232666e-01" nType="0">
              <Node pos="l" depth="4" NCoef="0" IVar="-1" Cut="0.0000000000000000e+00" cType="1" res="1.9767628982663155e-03" rms="4.0645420551300049e-01" purity="4.9879598617553711e-01" nType="-99"/>
              <Node pos="r" depth="4" NCoef="0" IVar="-1" Cut="0.0000000000000000e+00" cType="1" res="-4.6797231771051884e-03" rms="4.1425046324729919e-01" purity="3.1360813975334167e-01" nType="-99"/>
            </Node>
            <Node pos="r" depth="3" NCoef="0" IVar="-1" Cut="0.0000000000000000e+00" cType="1" res="3.0943725723773241e-03" rms="4.3667137622833252e-01" purity="5.1106131076812744e-01" nType="-99"/>
          </Node>
        </Node>
        <Node pos="r" depth="1" NCoef="0" IVar="-1" Cut="0.0000000000000000e+00" cType="1" res="1.1439911322668195e-03" rms="4.2897000908851624e-01" purity="6.4245134592056274e-01" nType="-99"/>
      </Node>
    </BinaryTree>
    <BinaryTree type="DecisionTree" boostWeight="1.0000000000000000e+00" itree="184">
      <Node pos="s" depth="0" NCoef="0" IVar="0" Cut="2.3188085556030273e+00" cType="1" res="3.1931875855661929e-04" rms="4.1891753673553467e-01" purity="5.0000000000000000e-01" nType="0">
        <Node pos="l" depth="1" NCoef="0" IVar="1" Cut="2.2381279468536377e+00" cType="1" res="-4.2406700231367722e-05" rms="4.2097863554954529e-01" purity="5.0221854448318481e-01" nType="0">
          <Node pos="l" depth="2" NCoef="0" IVar="4" Cut="1.4285714626312256e+00" cType="1" res="9.1722107026726007e-04" rms="4.1677281260490417e-01" purity="4.9431180953979492e-01" nType="0">
            <Node pos="l" depth="3" NCoef="0" IVar="0" Cut="1.2145982980728149e+00" cType="1" res="-9.0053904568776488e-04" rms="4.0911871194839478e-01" purity="4.2078712582588196e-01" nType="0">
              <Node pos="l" depth="4" NCoef="0" IVar="1" Cut="1.1723436117172241e+00" cType="1" res="1.7930241301655769e-03" rms="4.1507995128631592e-01" purity="4.4963252544403076e-01" nType="0">
                <Node pos="l" depth="5" NCoef="0" IVar="1" Cut="5.0243526697158813e-01" cType="1" res="4.0663811378180981e-03" rms="4.0532931685447693e-01" purity="4.2316600680351257e-01" nType="0">
                  <Node pos="l" depth="6" NCoef="0" IVar="-1" Cut="0.0000000000000000e+00" cType="1" res="8.6497323354706168e-04" rms="4.0038579702377319e-01" purity="4.1067901253700256e-01" nType="-99"/>
                  <Node pos="r" depth="6" NCoef="0" IVar="-1" Cut="0.0000000000000000e+00" cType="1" res="3.8285821210592985e-03" rms="4.0898686647415161e-01" purity="4.3253460526466370e-01" nType="-99"/>
                </Node>
                <Node pos="r" depth="5" NCoef="0" IVar="-1" Cut="0.0000000000000000e+00" cType="1" res="-1.3816766440868378e-03" rms="4.3306243419647217e-01" purity="5.0018811225891113e-01" nType="-99"/>
              </Node>
              <Node pos="r" depth="4" NCoef="0" IVar="-1" Cut="0.0000000000000000e+00" cType="1" res="-8.4552941843867302e-03" rms="3.8710352778434753e-01" purity="3.1856143474578857e-01" nType="-99"/>
            </Node>
            <Node pos="r" depth="3" NCoef="0" IVar="2" Cut="9.1418349742889404e-01" cType="1" res="3.8072140887379646e-03" rms="4.2864468693733215e-01" purity="6.1120611429214478e-01" nType="0">
              <Node pos="l" depth="4" NCoef="0" IVar="-1" Cut="0.0000000000000000e+00" cType="1" res="-5.1666930085048079e-04" rms="4.0668484568595886e-01" purity="6.7537146806716919e-01" nType="-99"/>
              <Node pos="r" depth="4" NCoef="0" IVar="-1" Cut="0.0000000000000000e+00" cType="1" res="4.2018452659249306e-03" rms="4.4849759340286255e-01" purity="5.5014330148696899e-01" nType="-99"/>
            </Node>
          </Node>
          <Node pos="r" depth="2" NCoef="0" IVar="-1" Cut="0.0000000000000000e+00" cType="1" res="-2.7711035218089819e-03" rms="4.4439399242401123e-01" purity="5.4777008295059204e-01" nType="-99"/>
        </Node>
        <Node pos="r" depth="1" NCoef="0" IVar="-1" Cut="0.0000000000000000e+00" cType="1" res="1.9990794826298952e-03" rms="4.0232053399085999e-01" purity="4.8254388570785522e-01" nType="-99"/>
      </Node>
    </BinaryTree>
    <BinaryTree type="DecisionTree" boostWeight="1.0000000000000000e+00" itree="185">
      <Node pos="s" depth="0" NCoef="0" IVar="2" Cut="2.2916061878204346e+00" cType="1" res="2.9901298694312572e-04" rms="4.1890442371368408e-01" purity="5.0000000000000000e-01" nType="0">
        <Node pos="l" depth="1" NCoef="0" IVar="2" Cut="1.7459816932678223e+00" cType="1" res="-6.0861348174512386e-05" rms="4.2549583315849304e-01" purity="5.4748231172561646e-01" nType="0">
          <Node pos="l" depth="2" NCoef="0" IVar="2" Cut="1.3302615880966187e+00" cType="1" res="7.5254385592415929e-04" rms="4.2105928063392639e-01" purity="5.6724691390991211e-01" nType="0">
            <Node pos="l" depth="3" NCoef="0" IVar="2" Cut="9.5018643140792847e-01" cType="1" res="8.0983947555068880e-05" rms="4.1470625996589661e-01" purity="5.7814222574234009e-01" nType="0">
              <Node pos="l" depth="4" NCoef="0" IVar="3" Cut="2.0000000000000000e+00" cType="1" res="6.0219480656087399e-04" rms="4.0081492066383362e-01" purity="5.8452987670898438e-01" nType="0">
                <Node pos="l" depth="5" NCoef="0" IVar="3" Cut="1.0000000000000000e+00" cType="1" res="1.0364722693338990e-03" rms="1.8974019587039948e-01" purity="6.0435426235198975e-01" nType="0">
                  <Node pos="l" depth="6" NCoef="0" IVar="-1" Cut="0.0000000000000000e+00" cType="1" res="-2.0638624846469611e-04" rms="4.1157299280166626e-01" purity="6.2453275918960571e-01" nType="-99"/>
                  <Node pos="r" depth="6" NCoef="0" IVar="-1" Cut="0.0000000000000000e+00" cType="1" res="2.5013934355229139e-03" rms="3.9764457941055298e-01" purity="5.8080905675888062e-01" nType="-99"/>
                </Node>
                <Node pos="r" depth="5" NCoef="0" IVar="-1" Cut="0.0000000000000000e+00" cType="1" res="-8.8015676010400057e-04" rms="4.1439208388328552e-01" purity="5.3365302085876465e-01" nType="-99"/>
              </Node>
              <Node pos="r" depth="4" NCoef="0" IVar="-1" Cut="0.0000000000000000e+00" cType="1" res="-1.3794952537864447e-03" rms="4.3623888492584229e-01" purity="5.5749541521072388e-01" nType="-99"/>
            </Node>
            <Node pos="r" depth="3" NCoef="0" IVar="-1" Cut="0.0000000000000000e+00" cType="1" res="2.0864533726125956e-03" rms="4.5212638378143311e-01" purity="5.1155292987823486e-01" nType="-99"/>
          </Node>
          <Node pos="r" depth="2" NCoef="0" IVar="-1" Cut="0.0000000000000000e+00" cType="1" res="-3.4767088945955038e-03" rms="4.5687270164489746e-01" purity="4.0157175064086914e-01" nType="-99"/>
        </Node>
        <Node pos="r" depth="1" NCoef="0" IVar="-1" Cut="0.0000000000000000e+00" cType="1" res="4.1617378592491150e-03" rms="3.7122404575347900e-01" purity="1.7866016924381256e-01" nType="-99"/>
      </Node>
    </BinaryTree>
    <BinaryTree type="DecisionTree" boostWeight="1.0000000000000000e+00" itree="186">
      <Node pos="s" depth="0" NCoef="0" IVar="6" Cut="1.1814180755615234e+02" cType="1" res="1.9703844736795872e-04" rms="4.1889610886573792e-01" purity="5.0000000000000000e-01" nType="0">
        <Node pos="l" depth="1" NCoef="0" IVar="6" Cut="4.2741188049316406e+01" cType="1" res="-2.3094793141353875e-04" rms="4.1679647564888000e-01" purity="4.7068229317665100e-01" nType="0">
          <Node pos="l" depth="2" NCoef="0" IVar="6" Cut="3.0913730621337891e+01" cType="1" res="-2.6395262684673071e-03" rms="4.2304301261901855e-01" purity="5.2372550964355469e-01" nType="0">
            <Node pos="l" depth="3" NCoef="0" IVar="-1" Cut="0.0000000000000000e+00" cType="1" res="-3.1129799317568541e-03" rms="4.2752316594123840e-01" purity="4.7890874743461609e-01" nType="-99"/>
            <Node pos="r" depth="3" NCoef="0" IVar="-1" Cut="0.0000000000000000e+00" cType="1" res="-2.2831480600871146e-04" rms="4.1901767253875732e-01" purity="5.6346571445465088e-01" nType="-99"/>
          </Node>
          <Node pos="r" depth="2" NCoef="0" IVar="0" Cut="1.8906105756759644e+00" cType="1" res="6.4059015130624175e-04" rms="4.1450956463813782e-01" purity="4.5148873329162598e-01" nType="0">
            <Node pos="l" depth="3" NCoef="0" IVar="5" Cut="1.4413626098632812e+02" cType="1" res="-3.9996861596591771e-04" rms="4.1681513190269470e-01" purity="4.5085045695304871e-01" nType="0">
              <Node pos="l" depth="4" NCoef="0" IVar="3" Cut="1.0000000000000000e+00" cType="1" res="-1.4989665942266583e-03" rms="3.1641927361488342e-01" purity="4.2100450396537781e-01" nType="0">
                <Node pos="l" depth="5" NCoef="0" IVar="-1" Cut="0.0000000000000000e+00" cType="1" res="-4.2254887521266937e-03" rms="4.1640195250511169e-01" purity="4.7451996803283691e-01" nType="-99"/>
                <Node pos="r" depth="5" NCoef="0" IVar="-1" Cut="0.0000000000000000e+00" cType="1" res="-3.3616530708968639e-04" rms="3.8328683376312256e-01" purity="3.6545729637145996e-01" nType="-99"/>
              </Node>
              <Node pos="r" depth="4" NCoef="0" IVar="6" Cut="8.5826957702636719e+01" cType="1" res="4.0672691538929939e-03" rms="4.3758016824722290e-01" purity="4.9065813422203064e-01" nType="0">
                <Node pos="l" depth="5" NCoef="0" IVar="-1" Cut="0.0000000000000000e+00" cType="1" res="3.6099802237004042e-03" rms="4.3805253505706787e-01" purity="4.4955530762672424e-01" nType="-99"/>
                <Node pos="r" depth="5" NCoef="0" IVar="-1" Cut="0.0000000000000000e+00" cType="1" res="1.0299700079485774e-03" rms="4.3713089823722839e-01" purity="5.2884405851364136e-01" nType="-99"/>
              </Node>
            </Node>
            <Node pos="r" depth="3" NCoef="0" IVar="-1" Cut="0.0000000000000000e+00" cType="1" res="3.6953710950911045e-03" rms="4.0287312865257263e-01" purity="4.5464560389518738e-01" nType="-99"/>
          </Node>
        </Node>
        <Node pos="r" depth="1" NCoef="0" IVar="-1" Cut="0.0000000000000000e+00" cType="1" res="1.0539398062974215e-03" rms="4.2894551157951355e-01" purity="6.4245134592056274e-01" nType="-99"/>
      </Node>
    </BinaryTree>
    <BinaryTree type="DecisionTree" boostWeight="1.0000000000000000e+00" itree="187">
      <Node pos="s" depth="0" NCoef="0" IVar="4" Cut="7.1428573131561279e-01" cType="1" res="1.7190200742334127e-04" rms="4.1888538002967834e-01" purity="5.0000000000000000e-01" nType="0">
        <Node pos="l" depth="1" NCoef="0" IVar="6" Cut="1.1854922485351562e+02" cType="1" res="-1.2062640162184834e-03" rms="4.1976830363273621e-01" purity="4.4392177462577820e-01" nType="0">
          <Node pos="l" depth="2" NCoef="0" IVar="-1" Cut="0.0000000000000000e+00" cType="1" res="2.3879591026343405e-04" rms="4.0174931287765503e-01" purity="3.2457759976387024e-01" nType="-99"/>
          <Node pos="r" depth="2" NCoef="0" IVar="-1" Cut="0.0000000000000000e+00" cType="1" res="-1.4531309716403484e-03" rms="4.4207698106765747e-01" purity="5.9898626804351807e-01" nType="-99"/>
        </Node>
        <Node pos="r" depth="1" NCoef="0" IVar="5" Cut="2.0012669372558594e+02" cType="1" res="7.4211467290297151e-04" rms="4.1851821541786194e-01" purity="5.2320218086242676e-01" nType="0">
          <Node pos="l" depth="2" NCoef="0" IVar="5" Cut="1.3765676879882812e+02" cType="1" res="1.5683731762692332e-03" rms="4.2072081565856934e-01" purity="5.4759806394577026e-01" nType="0">
            <Node pos="l" depth="3" NCoef="0" IVar="5" Cut="7.8161613464355469e+01" cType="1" res="3.3214222639799118e-03" rms="4.1368374228477478e-01" purity="5.5730897188186646e-01" nType="0">
              <Node pos="l" depth="4" NCoef="0" IVar="-1" Cut="0.0000000000000000e+00" cType="1" res="-3.9066928438842297e-03" rms="3.9294150471687317e-01" purity="2.5100040435791016e-01" nType="-99"/>
              <Node pos="r" depth="4" NCoef="0" IVar="2" Cut="1.1407691240310669e+00" cType="1" res="5.9604695998132229e-03" rms="4.2066362500190735e-01" purity="6.6441822052001953e-01" nType="0">
                <Node pos="l" depth="5" NCoef="0" IVar="-1" Cut="0.0000000000000000e+00" cType="1" res="5.5695129558444023e-03" rms="4.0750610828399658e-01" purity="7.2622138261795044e-01" nType="-99"/>
                <Node pos="r" depth="5" NCoef="0" IVar="-1" Cut="0.0000000000000000e+00" cType="1" res="-1.5431129140779376e-03" rms="4.4035714864730835e-01" purity="5.6747603416442871e-01" nType="-99"/>
              </Node>
            </Node>
            <Node pos="r" depth="3" NCoef="0" IVar="-1" Cut="0.0000000000000000e+00" cType="1" res="-2.3298130836337805e-03" rms="4.4374498724937439e-01" purity="5.1460498571395874e-01" nType="-99"/>
          </Node>
          <Node pos="r" depth="2" NCoef="0" IVar="-1" Cut="0.0000000000000000e+00" cType="1" res="-1.9496551249176264e-03" rms="4.0885150432586670e-01" purity="4.1785478591918945e-01" nType="-99"/>
        </Node>
      </Node>
    </BinaryTree>
    <BinaryTree type="DecisionTree" boostWeight="1.0000000000000000e+00" itree="188">
      <Node pos="s" depth="0" NCoef="0" IVar="6" Cut="1.1814180755615234e+02" cType="1" res="2.7786521241068840e-04" rms="4.1887250542640686e-01" purity="5.0000000000000000e-01" nType="0">
        <Node pos="l" depth="1" NCoef="0" IVar="0" Cut="1.8972072601318359e+00" cType="1" res="-1.4678618754260242e-04" rms="4.1676941514015198e-01" purity="4.7068229317665100e-01" nType="0">
          <Node pos="l" depth="2" NCoef="0" IVar="5" Cut="1.4124215698242188e+02" cType="1" res="5.3999235387891531e-04" rms="4.2022287845611572e-01" purity="4.7791203856468201e-01" nType="0">
            <Node pos="l" depth="3" NCoef="0" IVar="6" Cut="4.7176486968994141e+01" cType="1" res="-1.5795544022694230e-03" rms="4.0912356972694397e-01" purity="4.7496497631072998e-01" nType="0">
              <Node pos="l" depth="4" NCoef="0" IVar="-1" Cut="0.0000000000000000e+00" cType="1" res="2.1740775555372238e-03" rms="4.2933106422424316e-01" purity="6.0706502199172974e-01" nType="-99"/>
              <Node pos="r" depth="4" NCoef="0" IVar="0" Cut="7.2274506092071533e-01" cType="1" res="-4.6857888810336590e-03" rms="3.9781963825225830e-01" purity="4.0406152606010437e-01" nType="0">
                <Node pos="l" depth="5" NCoef="0" IVar="-1" Cut="0.0000000000000000e+00" cType="1" res="-9.6399540780112147e-04" rms="3.9843246340751648e-01" purity="4.0596294403076172e-01" nType="-99"/>
                <Node pos="r" depth="5" NCoef="0" IVar="-1" Cut="0.0000000000000000e+00" cType="1" res="-5.7501653209328651e-03" rms="3.9711943268775940e-01" purity="4.0198883414268494e-01" nType="-99"/>
              </Node>
            </Node>
            <Node pos="r" depth="3" NCoef="0" IVar="6" Cut="8.2658035278320312e+01" cType="1" res="4.1062426753342152e-03" rms="4.3824097514152527e-01" purity="4.8287075757980347e-01" nType="0">
              <Node pos="l" depth="4" NCoef="0" IVar="-1" Cut="0.0000000000000000e+00" cType="1" res="4.0505863726139069e-03" rms="4.3923547863960266e-01" purity="4.4034498929977417e-01" nType="-99"/>
              <Node pos="r" depth="4" NCoef="0" IVar="-1" Cut="0.0000000000000000e+00" cType="1" res="8.3139823982492089e-04" rms="4.3733134865760803e-01" purity="5.2103936672210693e-01" nType="-99"/>
            </Node>
          </Node>
          <Node pos="r" depth="2" NCoef="0" IVar="-1" Cut="0.0000000000000000e+00" cType="1" res="-1.6916217282414436e-03" rms="4.0429961681365967e-01" purity="4.4509232044219971e-01" nType="-99"/>
        </Node>
        <Node pos="r" depth="1" NCoef="0" IVar="-1" Cut="0.0000000000000000e+00" cType="1" res="1.0841545881703496e-03" rms="4.2893835902214050e-01" purity="6.4245134592056274e-01" nType="-99"/>
      </Node>
    </BinaryTree>
    <BinaryTree type="DecisionTree" boostWeight="1.0000000000000000e+00" itree="189">
      <Node pos="s" depth="0" NCoef="0" IVar="0" Cut="2.3188085556030273e+00" cType="1" res="2.6545755099505186e-04" rms="4.1886425018310547e-01" purity="5.0000000000000000e-01" nType="0">
        <Node pos="l" depth="1" NCoef="0" IVar="1" Cut="2.2381279468536377e+00" cType="1" res="-6.2594444898422807e-05" rms="4.2093902826309204e-01" purity="5.0221854448318481e-01" nType="0">
          <Node pos="l" depth="2" NCoef="0" IVar="4" Cut="1.4285714626312256e+00" cType="1" res="8.0008775694295764e-04" rms="4.1672754287719727e-01" purity="4.9431180953979492e-01" nType="0">
            <Node pos="l" depth="3" NCoef="0" IVar="0" Cut="1.2145982980728149e+00" cType="1" res="-6.9609459023922682e-04" rms="4.0906196832656860e-01" purity="4.2078712582588196e-01" nType="0">
              <Node pos="l" depth="4" NCoef="0" IVar="7" Cut="8.6280738830566406e+01" cType="1" res="1.3007022207602859e-03" rms="4.1502034664154053e-01" purity="4.4963252544403076e-01" nType="0">
                <Node pos="l" depth="5" NCoef="0" IVar="-1" Cut="0.0000000000000000e+00" cType="1" res="2.3205846082419157e-03" rms="4.3161252140998840e-01" purity="4.5047903060913086e-01" nType="-99"/>
                <Node pos="r" depth="5" NCoef="0" IVar="-1" Cut="0.0000000000000000e+00" cType="1" res="-7.2113034548237920e-04" rms="3.9898753166198730e-01" purity="4.4884681701660156e-01" nType="-99"/>
              </Node>
              <Node pos="r" depth="4" NCoef="0" IVar="-1" Cut="0.0000000000000000e+00" cType="1" res="-6.2922346405684948e-03" rms="3.8712555170059204e-01" purity="3.1856143474578857e-01" nType="-99"/>
            </Node>
            <Node pos="r" depth="3" NCoef="0" IVar="0" Cut="8.8334149122238159e-01" cType="1" res="3.1788155902177095e-03" rms="4.2862188816070557e-01" purity="6.1120611429214478e-01" nType="0">
              <Node pos="l" depth="4" NCoef="0" IVar="-1" Cut="0.0000000000000000e+00" cType="1" res="-6.0232408577576280e-04" rms="4.2972984910011292e-01" purity="6.4588135480880737e-01" nType="-99"/>
              <Node pos="r" depth="4" NCoef="0" IVar="-1" Cut="0.0000000000000000e+00" cType="1" res="4.3144440278410912e-03" rms="4.2732882499694824e-01" purity="5.7252168655395508e-01" nType="-99"/>
            </Node>
          </Node>
          <Node pos="r" depth="2" NCoef="0" IVar="-1" Cut="0.0000000000000000e+00" cType="1" res="-2.5029515381902456e-03" rms="4.4439253211021423e-01" purity="5.4777008295059204e-01" nType="-99"/>
        </Node>
        <Node pos="r" depth="1" NCoef="0" IVar="-1" Cut="0.0000000000000000e+00" cType="1" res="1.7993638757616282e-03" rms="4.0215680003166199e-01" purity="4.8254388570785522e-01" nType="-99"/>
      </Node>
    </BinaryTree>
    <BinaryTree type="DecisionTree" boostWeight="1.0000000000000000e+00" itree="190">
      <Node pos="s" depth="0" NCoef="0" IVar="7" Cut="1.2635140228271484e+02" cType="1" res="2.4567361106164753e-04" rms="4.1885679960250854e-01" purity="5.0000000000000000e-01" nType="0">
        <Node pos="l" depth="1" NCoef="0" IVar="6" Cut="9.1677116394042969e+01" cType="1" res="-2.1702838421333581e-04" rms="4.2234486341476440e-01" purity="4.7062867879867554e-01" nType="0">
          <Node pos="l" depth="2" NCoef="0" IVar="4" Cut="1.2380952835083008e+00" cType="1" res="1.3988922582939267e-03" rms="4.1684147715568542e-01" purity="4.4442299008369446e-01" nType="0">
            <Node pos="l" depth="3" NCoef="0" IVar="3" Cut="1.0000000000000000e+00" cType="1" res="5.2629723213613033e-03" rms="3.9239108562469482e-01" purity="3.1468063592910767e-01" nType="0">
              <Node pos="l" depth="4" NCoef="0" IVar="-1" Cut="0.0000000000000000e+00" cType="1" res="1.0104726999998093e-02" rms="4.2090278863906860e-01" purity="3.7947213649749756e-01" nType="-99"/>
              <Node pos="r" depth="4" NCoef="0" IVar="-1" Cut="0.0000000000000000e+00" cType="1" res="-1.4241224853321910e-03" rms="3.7457531690597534e-01" purity="2.6465925574302673e-01" nType="-99"/>
            </Node>
            <Node pos="r" depth="3" NCoef="0" IVar="7" Cut="6.6192909240722656e+01" cType="1" res="-1.8260882934555411e-03" rms="4.3162482976913452e-01" purity="5.3854566812515259e-01" nType="0">
              <Node pos="l" depth="4" NCoef="0" IVar="-1" Cut="0.0000000000000000e+00" cType="1" res="-4.0702414698898792e-03" rms="4.4270479679107666e-01" purity="4.8841062188148499e-01" nType="-99"/>
              <Node pos="r" depth="4" NCoef="0" IVar="-1" Cut="0.0000000000000000e+00" cType="1" res="2.5862860493361950e-03" rms="4.1798028349876404e-01" purity="5.9811526536941528e-01" nType="-99"/>
            </Node>
          </Node>
          <Node pos="r" depth="2" NCoef="0" IVar="2" Cut="8.8788229227066040e-01" cType="1" res="-4.3005659244954586e-03" rms="4.3591600656509399e-01" purity="5.3685206174850464e-01" nType="0">
            <Node pos="l" depth="3" NCoef="0" IVar="-1" Cut="0.0000000000000000e+00" cType="1" res="-3.3902858849614859e-03" rms="4.2828881740570068e-01" purity="6.3046509027481079e-01" nType="-99"/>
            <Node pos="r" depth="3" NCoef="0" IVar="-1" Cut="0.0000000000000000e+00" cType="1" res="-4.1429689736105502e-04" rms="4.4513845443725586e-01" purity="4.2112198472023010e-01" nType="-99"/>
          </Node>
        </Node>
        <Node pos="r" depth="1" NCoef="0" IVar="-1" Cut="0.0000000000000000e+00" cType="1" res="1.1596895055845380e-03" rms="4.0359127521514893e-01" purity="6.2562984228134155e-01" nType="-99"/>
      </Node>
    </BinaryTree>
    <BinaryTree type="DecisionTree" boostWeight="1.0000000000000000e+00" itree="191">
      <Node pos="s" depth="0" NCoef="0" IVar="6" Cut="1.1814180755615234e+02" cType="1" res="1.6609692829661071e-04" rms="4.1883102059364319e-01" purity="5.0000000000000000e-01" nType="0">
        <Node pos="l" depth="1" NCoef="0" IVar="6" Cut="9.1529441833496094e+01" cType="1" res="-3.4619707730598748e-04" rms="4.1672599315643311e-01" purity="4.7068229317665100e-01" nType="0">
          <Node pos="l" depth="2" NCoef="0" IVar="7" Cut="7.5651176452636719e+01" cType="1" res="-1.0931359138339758e-03" rms="4.1446205973625183e-01" purity="4.6658635139465332e-01" nType="0">
            <Node pos="l" depth="3" NCoef="0" IVar="4" Cut="1.2380952835083008e+00" cType="1" res="1.8779220408760011e-04" rms="4.3608689308166504e-01" purity="4.4416216015815735e-01" nType="0">
              <Node pos="l" depth="4" NCoef="0" IVar="-1" Cut="0.0000000000000000e+00" cType="1" res="5.9733376838266850e-03" rms="4.2798048257827759e-01" purity="3.5279542207717896e-01" nType="-99"/>
              <Node pos="r" depth="4" NCoef="0" IVar="7" Cut="4.6838798522949219e+01" cType="1" res="-4.7052935697138309e-03" rms="4.4065490365028381e-01" purity="4.9725300073623657e-01" nType="0">
                <Node pos="l" depth="5" NCoef="0" IVar="-1" Cut="0.0000000000000000e+00" cType="1" res="-3.0132301617413759e-03" rms="4.4691330194473267e-01" purity="4.7259470820426941e-01" nType="-99"/>
                <Node pos="r" depth="5" NCoef="0" IVar="-1" Cut="0.0000000000000000e+00" cType="1" res="-2.1003347355872393e-03" rms="4.3418243527412415e-01" purity="5.2238285541534424e-01" nType="-99"/>
              </Node>
            </Node>
            <Node pos="r" depth="3" NCoef="0" IVar="4" Cut="1.4285714626312256e+00" cType="1" res="-2.4267290718853474e-03" rms="3.9067396521568298e-01" purity="4.8993241786956787e-01" nType="0">
              <Node pos="l" depth="4" NCoef="0" IVar="-1" Cut="0.0000000000000000e+00" cType="1" res="-8.9108748361468315e-03" rms="3.6510261893272400e-01" purity="2.9223367571830750e-01" nType="-99"/>
              <Node pos="r" depth="4" NCoef="0" IVar="-1" Cut="0.0000000000000000e+00" cType="1" res="1.9183749100193381e-03" rms="4.0942499041557312e-01" purity="6.4425557851791382e-01" nType="-99"/>
            </Node>
          </Node>
          <Node pos="r" depth="2" NCoef="0" IVar="-1" Cut="0.0000000000000000e+00" cType="1" res="1.5856203390285373e-03" rms="4.2615613341331482e-01" purity="4.8801064491271973e-01" nType="-99"/>
        </Node>
        <Node pos="r" depth="1" NCoef="0" IVar="-1" Cut="0.0000000000000000e+00" cType="1" res="1.2290104059502482e-03" rms="4.2890343070030212e-01" purity="6.4245134592056274e-01" nType="-99"/>
      </Node>
    </BinaryTree>
    <BinaryTree type="DecisionTree" boostWeight="1.0000000000000000e+00" itree="192">
      <Node pos="s" depth="0" NCoef="0" IVar="3" Cut="1.0000000000000000e+00" cType="1" res="1.0224647121503949e-03" rms="4.1488614678382874e-01" purity="5.0000000000000000e-01" nType="0">
        <Node pos="l" depth="1" NCoef="0" IVar="1" Cut="1.6721335649490356e+00" cType="1" res="-1.1641181772574782e-03" rms="4.1693878173828125e-01" purity="5.4398608207702637e-01" nType="0">
          <Node pos="l" depth="2" NCoef="0" IVar="2" Cut="9.7312647104263306e-01" cType="1" res="6.1801481933798641e-05" rms="4.1216653585433960e-01" purity="5.4360496997833252e-01" nType="0">
            <Node pos="l" depth="3" NCoef="0" IVar="-1" Cut="0.0000000000000000e+00" cType="1" res="4.5678458263864741e-05" rms="4.0420141816139221e-01" purity="6.3081860542297363e-01" nType="-99"/>
            <Node pos="r" depth="3" NCoef="0" IVar="-1" Cut="0.0000000000000000e+00" cType="1" res="1.9895809600711800e-05" rms="4.2205446958541870e-01" purity="4.3297007679939270e-01" nType="-99"/>
          </Node>
          <Node pos="r" depth="2" NCoef="0" IVar="-1" Cut="0.0000000000000000e+00" cType="1" res="-1.8369789468124509e-03" rms="4.2566484212875366e-01" purity="5.4469484090805054e-01" nType="-99"/>
        </Node>
        <Node pos="r" depth="1" NCoef="0" IVar="1" Cut="2.1849880218505859e+00" cType="1" res="9.4087090110406280e-04" rms="4.1985571384429932e-01" purity="4.7559583187103271e-01" nType="0">
          <Node pos="l" depth="2" NCoef="0" IVar="0" Cut="1.4756060838699341e+00" cType="1" res="-4.8117034020833671e-04" rms="4.1606017947196960e-01" purity="4.6160712838172913e-01" nType="0">
            <Node pos="l" depth="3" NCoef="0" IVar="1" Cut="7.2832655906677246e-01" cType="1" res="4.5890361070632935e-04" rms="4.2102381587028503e-01" purity="4.9598845839500427e-01" nType="0">
              <Node pos="l" depth="4" NCoef="0" IVar="-1" Cut="0.0000000000000000e+00" cType="1" res="-9.5887028146535158e-04" rms="4.0988928079605103e-01" purity="4.6330907940864563e-01" nType="-99"/>
              <Node pos="r" depth="4" NCoef="0" IVar="3" Cut="2.0000000000000000e+00" cType="1" res="3.2555442885495722e-04" rms="3.3973336219787598e-01" purity="5.1752483844757080e-01" nType="0">
                <Node pos="l" depth="5" NCoef="0" IVar="-1" Cut="0.0000000000000000e+00" cType="1" res="-1.3382824836298823e-03" rms="4.2027053236961365e-01" purity="5.2241849899291992e-01" nType="-99"/>
                <Node pos="r" depth="5" NCoef="0" IVar="-1" Cut="0.0000000000000000e+00" cType="1" res="3.5987140145152807e-03" rms="4.3723055720329285e-01" purity="5.1180416345596313e-01" nType="-99"/>
              </Node>
            </Node>
            <Node pos="r" depth="3" NCoef="0" IVar="-1" Cut="0.0000000000000000e+00" cType="1" res="-3.2278238795697689e-03" rms="3.9688509702682495e-01" purity="3.3274856209754944e-01" nType="-99"/>
          </Node>
          <Node pos="r" depth="2" NCoef="0" IVar="-1" Cut="0.0000000000000000e+00" cType="1" res="2.8553991578519344e-03" rms="4.3123894929885864e-01" purity="5.1842230558395386e-01" nType="-99"/>
        </Node>
      </Node>
    </BinaryTree>
    <BinaryTree type="DecisionTree" boostWeight="1.0000000000000000e+00" itree="193">
      <Node pos="s" depth="0" NCoef="0" IVar="4" Cut="7.1428573131561279e-01" cType="1" res="1.7777275934349746e-04" rms="4.1881269216537476e-01" purity="5.0000000000000000e-01" nType="0">
        <Node pos="l" depth="1" NCoef="0" IVar="7" Cut="8.3542404174804688e+01" cType="1" res="-1.3919154880568385e-03" rms="4.1973200440406799e-01" purity="4.4392177462577820e-01" nType="0">
          <Node pos="l" depth="2" NCoef="0" IVar="-1" Cut="0.0000000000000000e+00" cType="1" res="-1.9693460781127214e-03" rms="4.2454531788825989e-01" purity="4.6566841006278992e-01" nType="-99"/>
          <Node pos="r" depth="2" NCoef="0" IVar="-1" Cut="0.0000000000000000e+00" cType="1" res="7.4507668614387512e-04" rms="4.1340664029121399e-01" purity="4.1578555107116699e-01" nType="-99"/>
        </Node>
        <Node pos="r" depth="1" NCoef="0" IVar="5" Cut="2.0012669372558594e+02" cType="1" res="8.2722725346684456e-04" rms="4.1843003034591675e-01" purity="5.2320218086242676e-01" nType="0">
          <Node pos="l" depth="2" NCoef="0" IVar="5" Cut="1.2873257446289062e+02" cType="1" res="1.6046346863731742e-03" rms="4.2062413692474365e-01" purity="5.4759806394577026e-01" nType="0">
            <Node pos="l" depth="3" NCoef="0" IVar="5" Cut="1.0111006164550781e+02" cType="1" res="3.7347704637795687e-03" rms="4.1157254576683044e-01" purity="5.5349183082580566e-01" nType="0">
              <Node pos="l" depth="4" NCoef="0" IVar="1" Cut="1.2541005611419678e+00" cType="1" res="-2.3269334633368999e-04" rms="4.1641080379486084e-01" purity="4.3813791871070862e-01" nType="0">
                <Node pos="l" depth="5" NCoef="0" IVar="-1" Cut="0.0000000000000000e+00" cType="1" res="-1.8383003771305084e-03" rms="3.9996534585952759e-01" purity="4.0619868040084839e-01" nType="-99"/>
                <Node pos="r" depth="5" NCoef="0" IVar="-1" Cut="0.0000000000000000e+00" cType="1" res="1.5409782063215971e-03" rms="4.3545070290565491e-01" purity="4.7676098346710205e-01" nType="-99"/>
              </Node>
              <Node pos="r" depth="4" NCoef="0" IVar="-1" Cut="0.0000000000000000e+00" cType="1" res="4.4421409256756306e-03" rms="4.0472626686096191e-01" purity="7.1292459964752197e-01" nType="-99"/>
            </Node>
            <Node pos="r" depth="3" NCoef="0" IVar="-1" Cut="0.0000000000000000e+00" cType="1" res="-1.9235629588365555e-03" rms="4.4232290983200073e-01" purity="5.3291654586791992e-01" nType="-99"/>
          </Node>
          <Node pos="r" depth="2" NCoef="0" IVar="-1" Cut="0.0000000000000000e+00" cType="1" res="-1.7458678921684623e-03" rms="4.0880325436592102e-01" purity="4.1785478591918945e-01" nType="-99"/>
        </Node>
      </Node>
    </BinaryTree>
    <BinaryTree type="DecisionTree" boostWeight="1.0000000000000000e+00" itree="194">
      <Node pos="s" depth="0" NCoef="0" IVar="3" Cut="1.0000000000000000e+00" cType="1" res="1.0580578818917274e-03" rms="4.1487374901771545e-01" purity="5.0000000000000000e-01" nType="0">
        <Node pos="l" depth="1" NCoef="0" IVar="1" Cut="1.6721335649490356e+00" cType="1" res="-1.1690023820847273e-03" rms="4.1693019866943359e-01" purity="5.4398608207702637e-01" nType="0">
          <Node pos="l" depth="2" NCoef="0" IVar="2" Cut="9.7312647104263306e-01" cType="1" res="-1.4095116057433188e-04" rms="4.1216853260993958e-01" purity="5.4360496997833252e-01" nType="0">
            <Node pos="l" depth="3" NCoef="0" IVar="-1" Cut="0.0000000000000000e+00" cType="1" res="-4.0835111576598138e-05" rms="4.0419340133666992e-01" purity="6.3081860542297363e-01" nType="-99"/>
            <Node pos="r" depth="3" NCoef="0" IVar="-1" Cut="0.0000000000000000e+00" cType="1" res="-1.4023810217622668e-04" rms="4.2206862568855286e-01" purity="4.3297007679939270e-01" nType="-99"/>
          </Node>
          <Node pos="r" depth="2" NCoef="0" IVar="-1" Cut="0.0000000000000000e+00" cType="1" res="-1.6439567552879453e-03" rms="4.2564001679420471e-01" purity="5.4469484090805054e-01" nType="-99"/>
        </Node>
        <Node pos="r" depth="1" NCoef="0" IVar="1" Cut="2.1849880218505859e+00" cType="1" res="9.8616746254265308e-04" rms="4.1984203457832336e-01" purity="4.7559583187103271e-01" nType="0">
          <Node pos="l" depth="2" NCoef="0" IVar="0" Cut="1.2648055553436279e+00" cType="1" res="-1.3541059161070734e-04" rms="4.1604980826377869e-01" purity="4.6160712838172913e-01" nType="0">
            <Node pos="l" depth="3" NCoef="0" IVar="0" Cut="7.2274458408355713e-01" cType="1" res="7.6626584632322192e-04" rms="4.2111453413963318e-01" purity="5.0123542547225952e-01" nType="0">
              <Node pos="l" depth="4" NCoef="0" IVar="2" Cut="7.6594537496566772e-01" cType="1" res="-2.9136191005818546e-04" rms="4.2109686136245728e-01" purity="5.2294802665710449e-01" nType="0">
                <Node pos="l" depth="5" NCoef="0" IVar="-1" Cut="0.0000000000000000e+00" cType="1" res="8.1048044376075268e-04" rms="3.9613831043243408e-01" purity="5.5887442827224731e-01" nType="-99"/>
                <Node pos="r" depth="5" NCoef="0" IVar="-1" Cut="0.0000000000000000e+00" cType="1" res="-1.1668389197438955e-03" rms="4.4620525836944580e-01" purity="4.8457947373390198e-01" nType="-99"/>
              </Node>
              <Node pos="r" depth="4" NCoef="0" IVar="-1" Cut="0.0000000000000000e+00" cType="1" res="1.4633841346949339e-03" rms="4.2113775014877319e-01" purity="4.6565130352973938e-01" nType="-99"/>
            </Node>
            <Node pos="r" depth="3" NCoef="0" IVar="-1" Cut="0.0000000000000000e+00" cType="1" res="-1.9106195541098714e-03" rms="4.0229684114456177e-01" purity="3.5649129748344421e-01" nType="-99"/>
          </Node>
          <Node pos="r" depth="2" NCoef="0" IVar="-1" Cut="0.0000000000000000e+00" cType="1" res="2.3867497220635414e-03" rms="4.3122652173042297e-01" purity="5.1842230558395386e-01" nType="-99"/>
        </Node>
      </Node>
    </BinaryTree>
    <BinaryTree type="DecisionTree" boostWeight="1.0000000000000000e+00" itree="195">
      <Node pos="s" depth="0" NCoef="0" IVar="2" Cut="1.6368615627288818e+00" cType="1" res="1.9247281306888908e-04" rms="4.1880321502685547e-01" purity="5.0000000000000000e-01" nType="0">
        <Node pos="l" depth="1" NCoef="0" IVar="2" Cut="1.0912386178970337e+00" cType="1" res="-3.8313938421197236e-04" rms="4.1945487260818481e-01" purity="5.7055962085723877e-01" nType="0">
          <Node pos="l" depth="2" NCoef="0" IVar="7" Cut="1.2642032623291016e+02" cType="1" res="7.0822768611833453e-04" rms="4.1028654575347900e-01" purity="5.8252233266830444e-01" nType="0">
            <Node pos="l" depth="3" NCoef="0" IVar="7" Cut="5.4232620239257812e+01" cType="1" res="-5.6905914789240342e-06" rms="4.1775426268577576e-01" purity="5.5136960744857788e-01" nType="0">
              <Node pos="l" depth="4" NCoef="0" IVar="-1" Cut="0.0000000000000000e+00" cType="1" res="4.9158623442053795e-03" rms="4.4717150926589966e-01" purity="6.0687690973281860e-01" nType="-99"/>
              <Node pos="r" depth="4" NCoef="0" IVar="7" Cut="8.5170341491699219e+01" cType="1" res="-4.8603024333715439e-03" rms="4.0352749824523926e-01" purity="5.2604389190673828e-01" nType="0">
                <Node pos="l" depth="5" NCoef="0" IVar="-1" Cut="0.0000000000000000e+00" cType="1" res="-6.1248466372489929e-03" rms="4.2230662703514099e-01" purity="5.4359877109527588e-01" nType="-99"/>
                <Node pos="r" depth="5" NCoef="0" IVar="-1" Cut="0.0000000000000000e+00" cType="1" res="1.1527786264196038e-03" rms="3.8281714916229248e-01" purity="5.0771051645278931e-01" nType="-99"/>
              </Node>
            </Node>
            <Node pos="r" depth="3" NCoef="0" IVar="-1" Cut="0.0000000000000000e+00" cType="1" res="1.7174747772514820e-03" rms="3.8143935799598694e-01" purity="6.9754034280776978e-01" nType="-99"/>
          </Node>
          <Node pos="r" depth="2" NCoef="0" IVar="-1" Cut="0.0000000000000000e+00" cType="1" res="-1.7922241240739822e-03" rms="4.4514116644859314e-01" purity="5.3561514616012573e-01" nType="-99"/>
        </Node>
        <Node pos="r" depth="1" NCoef="0" IVar="5" Cut="2.3420921325683594e+02" cType="1" res="1.8188767135143280e-03" rms="4.1695213317871094e-01" purity="3.0063235759735107e-01" nType="0">
          <Node pos="l" depth="2" NCoef="0" IVar="-1" Cut="0.0000000000000000e+00" cType="1" res="3.9551025256514549e-03" rms="4.2788821458816528e-01" purity="3.3556798100471497e-01" nType="-99"/>
          <Node pos="r" depth="2" NCoef="0" IVar="-1" Cut="0.0000000000000000e+00" cType="1" res="-3.5544638521969318e-03" rms="3.9939892292022705e-01" purity="2.4663858115673065e-01" nType="-99"/>
        </Node>
      </Node>
    </BinaryTree>
    <BinaryTree type="DecisionTree" boostWeight="1.0000000000000000e+00" itree="196">
      <Node pos="s" depth="0" NCoef="0" IVar="0" Cut="1.4756060838699341e+00" cType="1" res="1.7894062330015004e-04" rms="4.1878697276115417e-01" purity="5.0000000000000000e-01" nType="0">
        <Node pos="l" depth="1" NCoef="0" IVar="2" Cut="1.1292552947998047e+00" cType="1" res="-4.4686254113912582e-04" rms="4.2198187112808228e-01" purity="5.1907247304916382e-01" nType="0">
          <Node pos="l" depth="2" NCoef="0" IVar="1" Cut="1.4920955896377563e+00" cType="1" res="1.0435743024572730e-03" rms="4.1135501861572266e-01" purity="5.7838767766952515e-01" nType="0">
            <Node pos="l" depth="3" NCoef="0" IVar="0" Cut="3.5132229328155518e-01" cType="1" res="-4.9956761358771473e-05" rms="4.0108057856559753e-01" purity="5.5464524030685425e-01" nType="0">
              <Node pos="l" depth="4" NCoef="0" IVar="-1" Cut="0.0000000000000000e+00" cType="1" res="2.1815008949488401e-03" rms="4.0741705894470215e-01" purity="5.7824218273162842e-01" nType="-99"/>
              <Node pos="r" depth="4" NCoef="0" IVar="-1" Cut="0.0000000000000000e+00" cType="1" res="-1.4739378821104765e-03" rms="3.9717721939086914e-01" purity="5.4036945104598999e-01" nType="-99"/>
            </Node>
            <Node pos="r" depth="3" NCoef="0" IVar="-1" Cut="0.0000000000000000e+00" cType="1" res="1.7643998144194484e-03" rms="4.3637201189994812e-01" purity="6.3873922824859619e-01" nType="-99"/>
          </Node>
          <Node pos="r" depth="2" NCoef="0" IVar="1" Cut="1.0606582164764404e+00" cType="1" res="-3.2329126261174679e-03" rms="4.4114702939987183e-01" purity="4.0819558501243591e-01" nType="0">
            <Node pos="l" depth="3" NCoef="0" IVar="-1" Cut="0.0000000000000000e+00" cType="1" res="7.3301023803651333e-04" rms="4.3550682067871094e-01" purity="4.1412544250488281e-01" nType="-99"/>
            <Node pos="r" depth="3" NCoef="0" IVar="-1" Cut="0.0000000000000000e+00" cType="1" res="-4.9552926793694496e-03" rms="4.4747439026832581e-01" purity="4.0139472484588623e-01" nType="-99"/>
          </Node>
        </Node>
        <Node pos="r" depth="1" NCoef="0" IVar="7" Cut="7.5651176452636719e+01" cType="1" res="1.5873105730861425e-03" rms="4.1150259971618652e-01" purity="4.5707732439041138e-01" nType="0">
          <Node pos="l" depth="2" NCoef="0" IVar="-1" Cut="0.0000000000000000e+00" cType="1" res="-8.3897134754806757e-04" rms="4.2088705301284790e-01" purity="4.2173045873641968e-01" nType="-99"/>
          <Node pos="r" depth="2" NCoef="0" IVar="-1" Cut="0.0000000000000000e+00" cType="1" res="2.8442386537790298e-03" rms="4.0173882246017456e-01" purity="4.9292841553688049e-01" nType="-99"/>
        </Node>
      </Node>
    </BinaryTree>
    <BinaryTree type="DecisionTree" boostWeight="1.0000000000000000e+00" itree="197">
      <Node pos="s" depth="0" NCoef="0" IVar="3" Cut="1.0000000000000000e+00" cType="1" res="1.0431256378069520e-03" rms="4.1484525799751282e-01" purity="5.0000000000000000e-01" nType="0">
        <Node pos="l" depth="1" NCoef="0" IVar="1" Cut="1.6721335649490356e+00" cType="1" res="-1.0581047972664237e-03" rms="4.1690570116043091e-01" purity="5.4398608207702637e-01" nType="0">
          <Node pos="l" depth="2" NCoef="0" IVar="2" Cut="9.7312647104263306e-01" cType="1" res="-1.2346530274953693e-04" rms="4.1214781999588013e-01" purity="5.4360496997833252e-01" nType="0">
            <Node pos="l" depth="3" NCoef="0" IVar="-1" Cut="0.0000000000000000e+00" cType="1" res="-2.6141116904909723e-05" rms="4.0417426824569702e-01" purity="6.3081860542297363e-01" nType="-99"/>
            <Node pos="r" depth="3" NCoef="0" IVar="-1" Cut="0.0000000000000000e+00" cType="1" res="-1.3720853894483298e-04" rms="4.2204600572586060e-01" purity="4.3297007679939270e-01" nType="-99"/>
          </Node>
          <Node pos="r" depth="2" NCoef="0" IVar="-1" Cut="0.0000000000000000e+00" cType="1" res="-1.4923845883458853e-03" rms="4.2560979723930359e-01" purity="5.4469484090805054e-01" nType="-99"/>
        </Node>
        <Node pos="r" depth="1" NCoef="0" IVar="5" Cut="2.2955096435546875e+02" cType="1" res="8.8297005277127028e-04" rms="4.1981369256973267e-01" purity="4.7559583187103271e-01" nType="0">
          <Node pos="l" depth="2" NCoef="0" IVar="4" Cut="6.6666668653488159e-01" cType="1" res="-3.2593891955912113e-04" rms="4.2451581358909607e-01" purity="4.7001934051513672e-01" nType="0">
            <Node pos="l" depth="3" NCoef="0" IVar="-1" Cut="0.0000000000000000e+00" cType="1" res="-6.1116297729313374e-03" rms="4.3039059638977051e-01" purity="4.2295798659324646e-01" nType="-99"/>
            <Node pos="r" depth="3" NCoef="0" IVar="5" Cut="1.1597174072265625e+02" cType="1" res="2.8566282708197832e-03" rms="4.2265406250953674e-01" purity="4.8439264297485352e-01" nType="0">
              <Node pos="l" depth="4" NCoef="0" IVar="1" Cut="1.1739170551300049e+00" cType="1" res="7.1238349191844463e-03" rms="4.1501334309577942e-01" purity="4.7758844494819641e-01" nType="0">
                <Node pos="l" depth="5" NCoef="0" IVar="-1" Cut="0.0000000000000000e+00" cType="1" res="2.2730347700417042e-03" rms="3.9944869279861450e-01" purity="4.3501484394073486e-01" nType="-99"/>
                <Node pos="r" depth="5" NCoef="0" IVar="-1" Cut="0.0000000000000000e+00" cType="1" res="5.8657410554587841e-03" rms="4.3010097742080688e-01" purity="5.2050268650054932e-01" nType="-99"/>
              </Node>
              <Node pos="r" depth="4" NCoef="0" IVar="-1" Cut="0.0000000000000000e+00" cType="1" res="-3.2199532724916935e-03" rms="4.3748855590820312e-01" purity="4.9807465076446533e-01" nType="-99"/>
            </Node>
          </Node>
          <Node pos="r" depth="2" NCoef="0" IVar="-1" Cut="0.0000000000000000e+00" cType="1" res="2.2865841165184975e-03" rms="4.0808093547821045e-01" purity="4.8922234773635864e-01" nType="-99"/>
        </Node>
      </Node>
    </BinaryTree>
    <BinaryTree type="DecisionTree" boostWeight="1.0000000000000000e+00" itree="198">
      <Node pos="s" depth="0" NCoef="0" IVar="4" Cut="2.1428570747375488e+00" cType="1" res="1.6810571833048016e-04" rms="4.1875907778739929e-01" purity="5.0000000000000000e-01" nType="0">
        <Node pos="l" depth="1" NCoef="0" IVar="2" Cut="1.3092019557952881e+00" cType="1" res="6.7872437648475170e-04" rms="4.1841474175453186e-01" purity="4.7926604747772217e-01" nType="0">
          <Node pos="l" depth="2" NCoef="0" IVar="0" Cut="1.2626564502716064e+00" cType="1" res="-5.9396249707788229e-04" rms="4.1457819938659668e-01" purity="5.5419319868087769e-01" nType="0">
            <Node pos="l" depth="3" NCoef="0" IVar="2" Cut="8.7279868125915527e-01" cType="1" res="-1.5193208819255233e-03" rms="4.1458097100257874e-01" purity="5.4912668466567993e-01" nType="0">
              <Node pos="l" depth="4" NCoef="0" IVar="2" Cut="3.7405553460121155e-01" cType="1" res="5.7121516874758527e-05" rms="4.0498220920562744e-01" purity="5.6376582384109497e-01" nType="0">
                <Node pos="l" depth="5" NCoef="0" IVar="-1" Cut="0.0000000000000000e+00" cType="1" res="6.8960827775299549e-04" rms="4.0029603242874146e-01" purity="5.8929240703582764e-01" nType="-99"/>
                <Node pos="r" depth="5" NCoef="0" IVar="-1" Cut="0.0000000000000000e+00" cType="1" res="-5.1544193411245942e-04" rms="4.0877252817153931e-01" purity="5.4288655519485474e-01" nType="-99"/>
              </Node>
              <Node pos="r" depth="4" NCoef="0" IVar="-1" Cut="0.0000000000000000e+00" cType="1" res="-3.1090481206774712e-03" rms="4.4021266698837280e-01" purity="5.0830644369125366e-01" nType="-99"/>
            </Node>
            <Node pos="r" depth="3" NCoef="0" IVar="-1" Cut="0.0000000000000000e+00" cType="1" res="1.0858986061066389e-03" rms="4.1455850005149841e-01" purity="5.6883895397186279e-01" nType="-99"/>
          </Node>
          <Node pos="r" depth="2" NCoef="0" IVar="2" Cut="2.1040716171264648e+00" cType="1" res="3.0589520465582609e-03" rms="4.2548692226409912e-01" purity="3.3913445472717285e-01" nType="0">
            <Node pos="l" depth="3" NCoef="0" IVar="-1" Cut="0.0000000000000000e+00" cType="1" res="4.1663618758320808e-03" rms="4.5351362228393555e-01" purity="4.3915727734565735e-01" nType="-99"/>
            <Node pos="r" depth="3" NCoef="0" IVar="-1" Cut="0.0000000000000000e+00" cType="1" res="-4.2500463314354420e-03" rms="3.8303104043006897e-01" purity="2.0005032420158386e-01" nType="-99"/>
          </Node>
        </Node>
        <Node pos="r" depth="1" NCoef="0" IVar="-1" Cut="0.0000000000000000e+00" cType="1" res="-1.0794086847454309e-03" rms="4.2021214962005615e-01" purity="5.8810079097747803e-01" nType="-99"/>
      </Node>
    </BinaryTree>
    <BinaryTree type="DecisionTree" boostWeight="1.0000000000000000e+00" itree="199">
      <Node pos="s" depth="0" NCoef="0" IVar="2" Cut="2.2916061878204346e+00" cType="1" res="1.7528305761516094e-04" rms="4.1875100135803223e-01" purity="5.0000000000000000e-01" nType="0">
        <Node pos="l" depth="1" NCoef="0" IVar="2" Cut="1.7459816932678223e+00" cType="1" res="-2.5311930221505463e-04" rms="4.2534479498863220e-01" purity="5.4748231172561646e-01" nType="0">
          <Node pos="l" depth="2" NCoef="0" IVar="1" Cut="2.0901491641998291e+00" cType="1" res="4.5103166485205293e-04" rms="4.2091116309165955e-01" purity="5.6724691390991211e-01" nType="0">
            <Node pos="l" depth="3" NCoef="0" IVar="2" Cut="7.4827665090560913e-01" cType="1" res="1.4331657439470291e-03" rms="4.1590115427970886e-01" purity="5.4892796277999878e-01" nType="0">
              <Node pos="l" depth="4" NCoef="0" IVar="0" Cut="6.3181871175765991e-01" cType="1" res="-5.9269345365464687e-04" rms="3.9711764454841614e-01" purity="5.6803160905838013e-01" nType="0">
                <Node pos="l" depth="5" NCoef="0" IVar="-1" Cut="0.0000000000000000e+00" cType="1" res="6.0970854246988893e-04" rms="4.0128156542778015e-01" purity="5.8946186304092407e-01" nType="-99"/>
                <Node pos="r" depth="5" NCoef="0" IVar="-1" Cut="0.0000000000000000e+00" cType="1" res="-1.4215300325304270e-03" rms="3.9256668090820312e-01" purity="5.4490816593170166e-01" nType="-99"/>
              </Node>
              <Node pos="r" depth="4" NCoef="0" IVar="1" Cut="1.1943713426589966e+00" cType="1" res="3.6497383844107389e-03" rms="4.3551501631736755e-01" purity="5.2802598476409912e-01" nType="0">
                <Node pos="l" depth="5" NCoef="0" IVar="-1" Cut="0.0000000000000000e+00" cType="1" res="3.0423689167946577e-03" rms="4.3138206005096436e-01" purity="5.2801489830017090e-01" nType="-99"/>
                <Node pos="r" depth="5" NCoef="0" IVar="-1" Cut="0.0000000000000000e+00" cType="1" res="2.9792482382617891e-04" rms="4.4152772426605225e-01" purity="5.2804231643676758e-01" nType="-99"/>
              </Node>
            </Node>
            <Node pos="r" depth="3" NCoef="0" IVar="-1" Cut="0.0000000000000000e+00" cType="1" res="-1.3087507104501128e-03" rms="4.3710607290267944e-01" purity="6.2802374362945557e-01" nType="-99"/>
          </Node>
          <Node pos="r" depth="2" NCoef="0" IVar="-1" Cut="0.0000000000000000e+00" cType="1" res="-3.1296934466809034e-03" rms="4.5671227574348450e-01" purity="4.0157175064086914e-01" nType="-99"/>
        </Node>
        <Node pos="r" depth="1" NCoef="0" IVar="-1" Cut="0.0000000000000000e+00" cType="1" res="4.6823886223137379e-03" rms="3.7104701995849609e-01" purity="1.7866016924381256e-01" nType="-99"/>
      </Node>
    </BinaryTree>
    <BinaryTree type="DecisionTree" boostWeight="1.0000000000000000e+00" itree="200">
      <Node pos="s" depth="0" NCoef="0" IVar="6" Cut="1.1814180755615234e+02" cType="1" res="7.0349560701288283e-05" rms="4.1874262690544128e-01" purity="5.0000000000000000e-01" nType="0">
        <Node pos="l" depth="1" NCoef="0" IVar="6" Cut="6.9352966308593750e+01" cType="1" res="-3.5714579280465841e-04" rms="4.1664853692054749e-01" purity="4.7068229317665100e-01" nType="0">
          <Node pos="l" depth="2" NCoef="0" IVar="0" Cut="2.1080124378204346e+00" cType="1" res="-1.8707974813878536e-03" rms="4.1571000218391418e-01" purity="4.8710140585899353e-01" nType="0">
            <Node pos="l" depth="3" NCoef="0" IVar="6" Cut="4.8232410430908203e+01" cType="1" res="-5.3611543262377381e-04" rms="4.2094457149505615e-01" purity="4.9823886156082153e-01" nType="0">
              <Node pos="l" depth="4" NCoef="0" IVar="-1" Cut="0.0000000000000000e+00" cType="1" res="2.7269313577562571e-03" rms="4.3061605095863342e-01" purity="5.8006316423416138e-01" nType="-99"/>
              <Node pos="r" depth="4" NCoef="0" IVar="-1" Cut="0.0000000000000000e+00" cType="1" res="-3.9907791651785374e-03" rms="4.1107541322708130e-01" purity="4.1728258132934570e-01" nType="-99"/>
            </Node>
            <Node pos="r" depth="3" NCoef="0" IVar="-1" Cut="0.0000000000000000e+00" cType="1" res="-3.9961258880794048e-03" rms="3.9900204539299011e-01" purity="4.5254233479499817e-01" nType="-99"/>
          </Node>
          <Node pos="r" depth="2" NCoef="0" IVar="7" Cut="7.5605125427246094e+01" cType="1" res="1.6531338915228844e-03" rms="4.1788324713706970e-01" purity="4.4887605309486389e-01" nType="0">
            <Node pos="l" depth="3" NCoef="0" IVar="-1" Cut="0.0000000000000000e+00" cType="1" res="-1.1606439948081970e-03" rms="4.4184580445289612e-01" purity="4.6086344122886658e-01" nType="-99"/>
            <Node pos="r" depth="3" NCoef="0" IVar="-1" Cut="0.0000000000000000e+00" cType="1" res="3.0062664300203323e-03" rms="3.9777374267578125e-01" purity="4.3934342265129089e-01" nType="-99"/>
          </Node>
        </Node>
        <Node pos="r" depth="1" NCoef="0" IVar="-1" Cut="0.0000000000000000e+00" cType="1" res="9.9656742531806231e-04" rms="4.2876592278480530e-01" purity="6.4245134592056274e-01" nType="-99"/>
      </Node>
    </BinaryTree>
    <BinaryTree type="DecisionTree" boostWeight="1.0000000000000000e+00" itree="201">
      <Node pos="s" depth="0" NCoef="0" IVar="2" Cut="1.6368615627288818e+00" cType="1" res="1.0279993875883520e-04" rms="4.1873171925544739e-01" purity="5.0000000000000000e-01" nType="0">
        <Node pos="l" depth="1" NCoef="0" IVar="2" Cut="1.2471299171447754e+00" cType="1" res="-4.9264269182458520e-04" rms="4.1937646269798279e-01" purity="5.7055962085723877e-01" nType="0">
          <Node pos="l" depth="2" NCoef="0" IVar="3" Cut="2.0000000000000000e+00" cType="1" res="-1.0560839436948299e-03" rms="4.0719431638717651e-01" purity="5.7965052127838135e-01" nType="0">
            <Node pos="l" depth="3" NCoef="0" IVar="3" Cut="1.0000000000000000e+00" cType="1" res="3.8002079236321151e-04" rms="1.9776909053325653e-01" purity="5.9586954116821289e-01" nType="0">
              <Node pos="l" depth="4" NCoef="0" IVar="-1" Cut="0.0000000000000000e+00" cType="1" res="-1.5833455836400390e-04" rms="4.1414889693260193e-01" purity="6.1136651039123535e-01" nType="-99"/>
              <Node pos="r" depth="4" NCoef="0" IVar="-1" Cut="0.0000000000000000e+00" cType="1" res="1.7301248153671622e-03" rms="4.0451553463935852e-01" purity="5.7773220539093018e-01" nType="-99"/>
            </Node>
            <Node pos="r" depth="3" NCoef="0" IVar="-1" Cut="0.0000000000000000e+00" cType="1" res="-1.2496006675064564e-03" rms="4.2222672700881958e-01" purity="5.3744661808013916e-01" nType="-99"/>
          </Node>
          <Node pos="r" depth="2" NCoef="0" IVar="-1" Cut="0.0000000000000000e+00" cType="1" res="-2.1895677782595158e-03" rms="4.4760271906852722e-01" purity="5.2691936492919922e-01" nType="-99"/>
        </Node>
        <Node pos="r" depth="1" NCoef="0" IVar="3" Cut="2.0000000000000000e+00" cType="1" res="4.2937351390719414e-03" rms="4.0363743901252747e-01" purity="3.0063235759735107e-01" nType="0">
          <Node pos="l" depth="2" NCoef="0" IVar="-1" Cut="0.0000000000000000e+00" cType="1" res="-1.6215234063565731e-03" rms="4.2180049419403076e-01" purity="3.2753676176071167e-01" nType="-99"/>
          <Node pos="r" depth="2" NCoef="0" IVar="-1" Cut="0.0000000000000000e+00" cType="1" res="6.1087640933692455e-03" rms="4.1077363491058350e-01" purity="2.6772224903106689e-01" nType="-99"/>
        </Node>
      </Node>
    </BinaryTree>
    <BinaryTree type="DecisionTree" boostWeight="1.0000000000000000e+00" itree="202">
      <Node pos="s" depth="0" NCoef="0" IVar="4" Cut="2.1428570747375488e+00" cType="1" res="2.9836932299076580e-05" rms="4.1872337460517883e-01" purity="5.0000000000000000e-01" nType="0">
        <Node pos="l" depth="1" NCoef="0" IVar="2" Cut="1.3092019557952881e+00" cType="1" res="4.6556186862289906e-04" rms="4.1837954521179199e-01" purity="4.7926604747772217e-01" nType="0">
          <Node pos="l" depth="2" NCoef="0" IVar="0" Cut="1.2626564502716064e+00" cType="1" res="-5.7324353838339448e-04" rms="4.1454997658729553e-01" purity="5.5419319868087769e-01" nType="0">
            <Node pos="l" depth="3" NCoef="0" IVar="2" Cut="8.7279868125915527e-01" cType="1" res="-1.4916163636371493e-03" rms="4.1455158591270447e-01" purity="5.4912668466567993e-01" nType="0">
              <Node pos="l" depth="4" NCoef="0" IVar="2" Cut="3.7405553460121155e-01" cType="1" res="-8.3774662925861776e-05" rms="4.0495601296424866e-01" purity="5.6376582384109497e-01" nType="0">
                <Node pos="l" depth="5" NCoef="0" IVar="-1" Cut="0.0000000000000000e+00" cType="1" res="5.3998391376808286e-04" rms="4.0026587247848511e-01" purity="5.8929240703582764e-01" nType="-99"/>
                <Node pos="r" depth="5" NCoef="0" IVar="-1" Cut="0.0000000000000000e+00" cType="1" res="-5.3003197535872459e-04" rms="4.0875005722045898e-01" purity="5.4288655519485474e-01" nType="-99"/>
              </Node>
              <Node pos="r" depth="4" NCoef="0" IVar="-1" Cut="0.0000000000000000e+00" cType="1" res="-2.8463359922170639e-03" rms="4.4018110632896423e-01" purity="5.0830644369125366e-01" nType="-99"/>
            </Node>
            <Node pos="r" depth="3" NCoef="0" IVar="-1" Cut="0.0000000000000000e+00" cType="1" res="1.0863492498174310e-03" rms="4.1453382372856140e-01" purity="5.6883895397186279e-01" nType="-99"/>
          </Node>
          <Node pos="r" depth="2" NCoef="0" IVar="2" Cut="2.1040716171264648e+00" cType="1" res="2.4083754979074001e-03" rms="4.2544248700141907e-01" purity="3.3913445472717285e-01" nType="0">
            <Node pos="l" depth="3" NCoef="0" IVar="-1" Cut="0.0000000000000000e+00" cType="1" res="3.5444519016891718e-03" rms="4.5349097251892090e-01" purity="4.3915727734565735e-01" nType="-99"/>
            <Node pos="r" depth="3" NCoef="0" IVar="-1" Cut="0.0000000000000000e+00" cType="1" res="-4.2033647187054157e-03" rms="3.8296884298324585e-01" purity="2.0005032420158386e-01" nType="-99"/>
          </Node>
        </Node>
        <Node pos="r" depth="1" NCoef="0" IVar="-1" Cut="0.0000000000000000e+00" cType="1" res="-9.8118523601442575e-04" rms="4.2017605900764465e-01" purity="5.8810079097747803e-01" nType="-99"/>
      </Node>
    </BinaryTree>
    <BinaryTree type="DecisionTree" boostWeight="1.0000000000000000e+00" itree="203">
      <Node pos="s" depth="0" NCoef="0" IVar="2" Cut="2.2916061878204346e+00" cType="1" res="6.8118177296128124e-05" rms="4.1871720552444458e-01" purity="5.0000000000000000e-01" nType="0">
        <Node pos="l" depth="1" NCoef="0" IVar="2" Cut="1.7459816932678223e+00" cType="1" res="-2.4926479090936482e-04" rms="4.2531567811965942e-01" purity="5.4748231172561646e-01" nType="0">
          <Node pos="l" depth="2" NCoef="0" IVar="1" Cut="2.0901491641998291e+00" cType="1" res="3.5410327836871147e-04" rms="4.2088302969932556e-01" purity="5.6724691390991211e-01" nType="0">
            <Node pos="l" depth="3" NCoef="0" IVar="2" Cut="7.4827665090560913e-01" cType="1" res="1.1122984578832984e-03" rms="4.1587877273559570e-01" purity="5.4892796277999878e-01" nType="0">
              <Node pos="l" depth="4" NCoef="0" IVar="0" Cut="6.3181871175765991e-01" cType="1" res="-6.5690494375303388e-04" rms="3.9709943532943726e-01" purity="5.6803160905838013e-01" nType="0">
                <Node pos="l" depth="5" NCoef="0" IVar="-1" Cut="0.0000000000000000e+00" cType="1" res="4.3774218647740781e-04" rms="4.0126404166221619e-01" purity="5.8946186304092407e-01" nType="-99"/>
                <Node pos="r" depth="5" NCoef="0" IVar="-1" Cut="0.0000000000000000e+00" cType="1" res="-1.2982323532924056e-03" rms="3.9255002140998840e-01" purity="5.4490816593170166e-01" nType="-99"/>
              </Node>
              <Node pos="r" depth="4" NCoef="0" IVar="1" Cut="1.1943713426589966e+00" cType="1" res="3.0480537097901106e-03" rms="4.3549102544784546e-01" purity="5.2802598476409912e-01" nType="0">
                <Node pos="l" depth="5" NCoef="0" IVar="-1" Cut="0.0000000000000000e+00" cType="1" res="2.5202136021107435e-03" rms="4.3135988712310791e-01" purity="5.2801489830017090e-01" nType="-99"/>
                <Node pos="r" depth="5" NCoef="0" IVar="-1" Cut="0.0000000000000000e+00" cType="1" res="2.8203299734741449e-04" rms="4.4150716066360474e-01" purity="5.2804231643676758e-01" nType="-99"/>
              </Node>
            </Node>
            <Node pos="r" depth="3" NCoef="0" IVar="-1" Cut="0.0000000000000000e+00" cType="1" res="-1.0064525995403528e-03" rms="4.3706610798835754e-01" purity="6.2802374362945557e-01" nType="-99"/>
          </Node>
          <Node pos="r" depth="2" NCoef="0" IVar="-1" Cut="0.0000000000000000e+00" cType="1" res="-2.7000750415027142e-03" rms="4.5668548345565796e-01" purity="4.0157175064086914e-01" nType="-99"/>
        </Node>
        <Node pos="r" depth="1" NCoef="0" IVar="-1" Cut="0.0000000000000000e+00" cType="1" res="3.3626004587858915e-03" rms="3.7098237872123718e-01" purity="1.7866016924381256e-01" nType="-99"/>
      </Node>
    </BinaryTree>
    <BinaryTree type="DecisionTree" boostWeight="1.0000000000000000e+00" itree="204">
      <Node pos="s" depth="0" NCoef="0" IVar="3" Cut="3.0000000000000000e+00" cType="1" res="8.6614367319270968e-04" rms="4.1478213667869568e-01" purity="5.0000000000000000e-01" nType="0">
        <Node pos="l" depth="1" NCoef="0" IVar="0" Cut="2.1080079078674316e+00" cType="1" res="3.1738934922032058e-04" rms="4.1829779744148254e-01" purity="5.1680099964141846e-01" nType="0">
          <Node pos="l" depth="2" NCoef="0" IVar="2" Cut="8.7582427263259888e-01" cType="1" res="-2.1339723025448620e-04" rms="4.1926500201225281e-01" purity="5.1504015922546387e-01" nType="0">
            <Node pos="l" depth="3" NCoef="0" IVar="3" Cut="1.0000000000000000e+00" cType="1" res="6.3002534443512559e-04" rms="1.8656487762928009e-01" purity="5.9126120805740356e-01" nType="0">
              <Node pos="l" depth="4" NCoef="0" IVar="-1" Cut="0.0000000000000000e+00" cType="1" res="-2.4563589249737561e-04" rms="4.1309788823127747e-01" purity="6.2113201618194580e-01" nType="-99"/>
              <Node pos="r" depth="4" NCoef="0" IVar="-1" Cut="0.0000000000000000e+00" cType="1" res="1.9889126997441053e-03" rms="3.9903169870376587e-01" purity="5.6903713941574097e-01" nType="-99"/>
            </Node>
            <Node pos="r" depth="3" NCoef="0" IVar="6" Cut="8.1549293518066406e+01" cType="1" res="-2.4650485720485449e-03" rms="4.3376940488815308e-01" purity="4.3422871828079224e-01" nType="0">
              <Node pos="l" depth="4" NCoef="0" IVar="5" Cut="1.2888769531250000e+02" cType="1" res="3.4165730085078394e-06" rms="4.3297436833381653e-01" purity="4.3874263763427734e-01" nType="0">
                <Node pos="l" depth="5" NCoef="0" IVar="-1" Cut="0.0000000000000000e+00" cType="1" res="-5.2649220451712608e-03" rms="4.2867234349250793e-01" purity="4.9351641535758972e-01" nType="-99"/>
                <Node pos="r" depth="5" NCoef="0" IVar="-1" Cut="0.0000000000000000e+00" cType="1" res="7.3807849548757076e-03" rms="4.3790158629417419e-01" purity="3.7192276120185852e-01" nType="-99"/>
              </Node>
              <Node pos="r" depth="4" NCoef="0" IVar="-1" Cut="0.0000000000000000e+00" cType="1" res="-3.7578244227916002e-03" rms="4.3499401211738586e-01" purity="4.2709684371948242e-01" nType="-99"/>
            </Node>
          </Node>
          <Node pos="r" depth="2" NCoef="0" IVar="-1" Cut="0.0000000000000000e+00" cType="1" res="2.1475132089108229e-03" rms="4.1197875142097473e-01" purity="5.2817499637603760e-01" nType="-99"/>
        </Node>
        <Node pos="r" depth="1" NCoef="0" IVar="-1" Cut="0.0000000000000000e+00" cType="1" res="-1.4099222607910633e-03" rms="4.2152118682861328e-01" purity="3.8520032167434692e-01" nType="-99"/>
      </Node>
    </BinaryTree>
    <BinaryTree type="DecisionTree" boostWeight="1.0000000000000000e+00" itree="205">
      <Node pos="s" depth="0" NCoef="0" IVar="6" Cut="1.1814180755615234e+02" cType="1" res="1.0370568816142622e-05" rms="4.1869145631790161e-01" purity="5.0000000000000000e-01" nType="0">
        <Node pos="l" depth="1" NCoef="0" IVar="6" Cut="9.1529441833496094e+01" cType="1" res="-3.7001256714574993e-04" rms="4.1659662127494812e-01" purity="4.7068229317665100e-01" nType="0">
          <Node pos="l" depth="2" NCoef="0" IVar="6" Cut="3.1336139678955078e+01" cType="1" res="-1.1826648842543364e-03" rms="4.1433265805244446e-01" purity="4.6658635139465332e-01" nType="0">
            <Node pos="l" depth="3" NCoef="0" IVar="-1" Cut="0.0000000000000000e+00" cType="1" res="-2.7912256773561239e-03" rms="4.2648729681968689e-01" purity="4.8146098852157593e-01" nType="-99"/>
            <Node pos="r" depth="3" NCoef="0" IVar="4" Cut="2.2857143878936768e+00" cType="1" res="-5.1503267604857683e-04" rms="4.1192537546157837e-01" purity="4.6369537711143494e-01" nType="0">
              <Node pos="l" depth="4" NCoef="0" IVar="5" Cut="1.4449981689453125e+02" cType="1" res="-2.9231207445263863e-03" rms="4.1015350818634033e-01" purity="4.1867312788963318e-01" nType="0">
                <Node pos="l" depth="5" NCoef="0" IVar="1" Cut="1.2540925741195679e+00" cType="1" res="-5.1729208789765835e-03" rms="4.0144008398056030e-01" purity="4.2746490240097046e-01" nType="0">
                  <Node pos="l" depth="6" NCoef="0" IVar="-1" Cut="0.0000000000000000e+00" cType="1" res="-6.8426863290369511e-03" rms="3.8805854320526123e-01" purity="3.7929019331932068e-01" nType="-99"/>
                  <Node pos="r" depth="6" NCoef="0" IVar="-1" Cut="0.0000000000000000e+00" cType="1" res="-5.1184138283133507e-04" rms="4.1551494598388672e-01" purity="4.8005917668342590e-01" nType="-99"/>
                </Node>
                <Node pos="r" depth="5" NCoef="0" IVar="-1" Cut="0.0000000000000000e+00" cType="1" res="6.8756385007873178e-04" rms="4.2516312003135681e-01" purity="4.0305474400520325e-01" nType="-99"/>
              </Node>
              <Node pos="r" depth="4" NCoef="0" IVar="-1" Cut="0.0000000000000000e+00" cType="1" res="4.3812273070216179e-03" rms="4.1843485832214355e-01" purity="6.3400524854660034e-01" nType="-99"/>
            </Node>
          </Node>
          <Node pos="r" depth="2" NCoef="0" IVar="-1" Cut="0.0000000000000000e+00" cType="1" res="1.7314907163381577e-03" rms="4.2602428793907166e-01" purity="4.8801064491271973e-01" nType="-99"/>
        </Node>
        <Node pos="r" depth="1" NCoef="0" IVar="-1" Cut="0.0000000000000000e+00" cType="1" res="8.6307257879525423e-04" rms="4.2871966958045959e-01" purity="6.4245134592056274e-01" nType="-99"/>
      </Node>
    </BinaryTree>
    <BinaryTree type="DecisionTree" boostWeight="1.0000000000000000e+00" itree="206">
      <Node pos="s" depth="0" NCoef="0" IVar="4" Cut="2.1428570747375488e+00" cType="1" res="7.9002173151820898e-05" rms="4.1868069767951965e-01" purity="5.0000000000000000e-01" nType="0">
        <Node pos="l" depth="1" NCoef="0" IVar="4" Cut="9.5238097012042999e-02" cType="1" res="6.0440396191552281e-04" rms="4.1833847761154175e-01" purity="4.7926604747772217e-01" nType="0">
          <Node pos="l" depth="2" NCoef="0" IVar="6" Cut="1.1854922485351562e+02" cType="1" res="-8.8597810827195644e-04" rms="4.1961413621902466e-01" purity="4.4392177462577820e-01" nType="0">
            <Node pos="l" depth="3" NCoef="0" IVar="-1" Cut="0.0000000000000000e+00" cType="1" res="7.0833176141604781e-04" rms="4.0166652202606201e-01" purity="3.2457759976387024e-01" nType="-99"/>
            <Node pos="r" depth="3" NCoef="0" IVar="-1" Cut="0.0000000000000000e+00" cType="1" res="-1.4850774314254522e-03" rms="4.4183474779129028e-01" purity="5.9898626804351807e-01" nType="-99"/>
          </Node>
          <Node pos="r" depth="2" NCoef="0" IVar="2" Cut="1.6365004777908325e+00" cType="1" res="1.4483452541753650e-03" rms="4.1761204600334167e-01" purity="4.9928006529808044e-01" nType="0">
            <Node pos="l" depth="3" NCoef="0" IVar="4" Cut="1.0476191043853760e+00" cType="1" res="3.4560446511022747e-04" rms="4.1516968607902527e-01" purity="5.6939917802810669e-01" nType="0">
              <Node pos="l" depth="4" NCoef="0" IVar="0" Cut="7.4438941478729248e-01" cType="1" res="1.5139554161578417e-03" rms="4.0815621614456177e-01" purity="5.0182563066482544e-01" nType="0">
                <Node pos="l" depth="5" NCoef="0" IVar="-1" Cut="0.0000000000000000e+00" cType="1" res="1.6662745038047433e-03" rms="4.0421527624130249e-01" purity="5.0448781251907349e-01" nType="-99"/>
                <Node pos="r" depth="5" NCoef="0" IVar="-1" Cut="0.0000000000000000e+00" cType="1" res="1.1418802750995383e-04" rms="4.1186189651489258e-01" purity="4.9929597973823547e-01" nType="-99"/>
              </Node>
              <Node pos="r" depth="4" NCoef="0" IVar="-1" Cut="0.0000000000000000e+00" cType="1" res="-5.7356094475835562e-04" rms="4.2414176464080811e-01" purity="6.5757018327713013e-01" nType="-99"/>
            </Node>
            <Node pos="r" depth="3" NCoef="0" IVar="-1" Cut="0.0000000000000000e+00" cType="1" res="3.5550787579268217e-03" rms="4.2427751421928406e-01" purity="3.0539062619209290e-01" nType="-99"/>
          </Node>
        </Node>
        <Node pos="r" depth="1" NCoef="0" IVar="-1" Cut="0.0000000000000000e+00" cType="1" res="-1.1606779880821705e-03" rms="4.2012435197830200e-01" purity="5.8810079097747803e-01" nType="-99"/>
      </Node>
    </BinaryTree>
    <BinaryTree type="DecisionTree" boostWeight="1.0000000000000000e+00" itree="207">
      <Node pos="s" depth="0" NCoef="0" IVar="5" Cut="2.2955096435546875e+02" cType="1" res="-1.2291868188185617e-05" rms="4.1867461800575256e-01" purity="5.0000000000000000e-01" nType="0">
        <Node pos="l" depth="1" NCoef="0" IVar="5" Cut="1.8824928283691406e+02" cType="1" res="4.3381965951994061e-04" rms="4.2126199603080750e-01" purity="5.0254619121551514e-01" nType="0">
          <Node pos="l" depth="2" NCoef="0" IVar="5" Cut="1.5481474304199219e+02" cType="1" res="-1.6399123705923557e-03" rms="4.1904476284980774e-01" purity="4.9845069646835327e-01" nType="0">
            <Node pos="l" depth="3" NCoef="0" IVar="5" Cut="7.3616653442382812e+01" cType="1" res="7.8253581887111068e-04" rms="4.1265282034873962e-01" purity="5.0255000591278076e-01" nType="0">
              <Node pos="l" depth="4" NCoef="0" IVar="-1" Cut="0.0000000000000000e+00" cType="1" res="-2.0333856344223022e-02" rms="3.6471316218376160e-01" purity="1.9420783221721649e-01" nType="-99"/>
              <Node pos="r" depth="4" NCoef="0" IVar="7" Cut="5.6236038208007812e+01" cType="1" res="4.8837671056389809e-03" rms="4.2260816693305969e-01" purity="5.7210654020309448e-01" nType="0">
                <Node pos="l" depth="5" NCoef="0" IVar="-1" Cut="0.0000000000000000e+00" cType="1" res="-2.4969615042209625e-03" rms="4.5479208230972290e-01" purity="5.2055114507675171e-01" nType="-99"/>
                <Node pos="r" depth="5" NCoef="0" IVar="3" Cut="1.0000000000000000e+00" cType="1" res="5.9199640527367592e-03" rms="3.6335596442222595e-01" purity="5.9290570020675659e-01" nType="0">
                  <Node pos="l" depth="6" NCoef="0" IVar="-1" Cut="0.0000000000000000e+00" cType="1" res="2.6388843543827534e-03" rms="4.0280562639236450e-01" purity="5.9273773431777954e-01" nType="-99"/>
                  <Node pos="r" depth="6" NCoef="0" IVar="-1" Cut="0.0000000000000000e+00" cType="1" res="8.0577246844768524e-03" rms="4.1803708672523499e-01" purity="5.9316897392272949e-01" nType="-99"/>
                </Node>
              </Node>
            </Node>
            <Node pos="r" depth="3" NCoef="0" IVar="-1" Cut="0.0000000000000000e+00" cType="1" res="-7.6083256863057613e-03" rms="4.5045942068099976e-01" purity="4.7724336385726929e-01" nType="-99"/>
          </Node>
          <Node pos="r" depth="2" NCoef="0" IVar="-1" Cut="0.0000000000000000e+00" cType="1" res="7.1233082562685013e-03" rms="4.3529608845710754e-01" purity="5.2943986654281616e-01" nType="-99"/>
        </Node>
        <Node pos="r" depth="1" NCoef="0" IVar="-1" Cut="0.0000000000000000e+00" cType="1" res="-1.0550407459959388e-03" rms="4.0829998254776001e-01" purity="4.8995268344879150e-01" nType="-99"/>
      </Node>
    </BinaryTree>
    <BinaryTree type="DecisionTree" boostWeight="1.0000000000000000e+00" itree="208">
      <Node pos="s" depth="0" NCoef="0" IVar="5" Cut="2.2955096435546875e+02" cType="1" res="3.1769729685038328e-04" rms="4.1861936450004578e-01" purity="5.0000000000000000e-01" nType="0">
        <Node pos="l" depth="1" NCoef="0" IVar="4" Cut="7.1428573131561279e-01" cType="1" res="7.5518910307437181e-04" rms="4.2119252681732178e-01" purity="5.0254619121551514e-01" nType="0">
          <Node pos="l" depth="2" NCoef="0" IVar="-1" Cut="0.0000000000000000e+00" cType="1" res="-4.6505401842296124e-03" rms="4.2384555935859680e-01" purity="3.6137676239013672e-01" nType="-99"/>
          <Node pos="r" depth="2" NCoef="0" IVar="5" Cut="1.2629710388183594e+02" cType="1" res="3.1531360000371933e-03" rms="4.2034685611724854e-01" purity="5.4581594467163086e-01" nType="0">
            <Node pos="l" depth="3" NCoef="0" IVar="3" Cut="1.0000000000000000e+00" cType="1" res="1.1620698496699333e-03" rms="3.9170968532562256e-01" purity="5.5049079656600952e-01" nType="0">
              <Node pos="l" depth="4" NCoef="0" IVar="-1" Cut="0.0000000000000000e+00" cType="1" res="-1.9722140859812498e-04" rms="4.0583586692810059e-01" purity="6.5039575099945068e-01" nType="-99"/>
              <Node pos="r" depth="4" NCoef="0" IVar="7" Cut="7.4246513366699219e+01" cType="1" res="7.8327804803848267e-03" rms="4.1442456841468811e-01" purity="4.8477116227149963e-01" nType="0">
                <Node pos="l" depth="5" NCoef="0" IVar="-1" Cut="0.0000000000000000e+00" cType="1" res="5.3468858823180199e-03" rms="4.5685666799545288e-01" purity="5.2256846427917480e-01" nType="-99"/>
                <Node pos="r" depth="5" NCoef="0" IVar="-1" Cut="0.0000000000000000e+00" cType="1" res="3.7320069968700409e-03" rms="3.6902263760566711e-01" purity="4.4841936230659485e-01" nType="-99"/>
              </Node>
            </Node>
            <Node pos="r" depth="3" NCoef="0" IVar="0" Cut="1.0534802675247192e+00" cType="1" res="4.8402074025943875e-04" rms="4.3725100159645081e-01" purity="5.3703421354293823e-01" nType="0">
              <Node pos="l" depth="4" NCoef="0" IVar="-1" Cut="0.0000000000000000e+00" cType="1" res="7.7257584780454636e-04" rms="4.4156718254089355e-01" purity="5.9449005126953125e-01" nType="-99"/>
              <Node pos="r" depth="4" NCoef="0" IVar="-1" Cut="0.0000000000000000e+00" cType="1" res="-4.1005382081493735e-04" rms="4.3263441324234009e-01" purity="4.7624498605728149e-01" nType="-99"/>
            </Node>
          </Node>
        </Node>
        <Node pos="r" depth="1" NCoef="0" IVar="-1" Cut="0.0000000000000000e+00" cType="1" res="-8.3796127000823617e-04" rms="4.0830278396606445e-01" purity="4.8995268344879150e-01" nType="-99"/>
      </Node>
    </BinaryTree>
    <BinaryTree type="DecisionTree" boostWeight="1.0000000000000000e+00" itree="209">
      <Node pos="s" depth="0" NCoef="0" IVar="6" Cut="1.1814180755615234e+02" cType="1" res="3.0677657923661172e-04" rms="4.1860553622245789e-01" purity="5.0000000000000000e-01" nType="0">
        <Node pos="l" depth="1" NCoef="0" IVar="2" Cut="2.2916061878204346e+00" cType="1" res="-1.5054052346386015e-04" rms="4.1651654243469238e-01" purity="4.7068229317665100e-01" nType="0">
          <Node pos="l" depth="2" NCoef="0" IVar="4" Cut="1.4285714626312256e+00" cType="1" res="4.7220921260304749e-04" rms="4.2424631118774414e-01" purity="5.2004396915435791e-01" nType="0">
            <Node pos="l" depth="3" NCoef="0" IVar="5" Cut="1.5339257812500000e+02" cType="1" res="3.2881025690585375e-03" rms="4.1602939367294312e-01" purity="4.0201520919799805e-01" nType="0">
              <Node pos="l" depth="4" NCoef="0" IVar="2" Cut="6.5473097562789917e-01" cType="1" res="-6.0577917611226439e-04" rms="3.9259403944015503e-01" purity="2.9781642556190491e-01" nType="0">
                <Node pos="l" depth="5" NCoef="0" IVar="-1" Cut="0.0000000000000000e+00" cType="1" res="-3.4144006203860044e-03" rms="3.8625529408454895e-01" purity="3.2088169455528259e-01" nType="-99"/>
                <Node pos="r" depth="5" NCoef="0" IVar="-1" Cut="0.0000000000000000e+00" cType="1" res="2.4428192991763353e-03" rms="3.9806067943572998e-01" purity="2.7750912308692932e-01" nType="-99"/>
              </Node>
              <Node pos="r" depth="4" NCoef="0" IVar="-1" Cut="0.0000000000000000e+00" cType="1" res="4.4456915929913521e-03" rms="4.5109826326370239e-01" purity="5.6956994533538818e-01" nType="-99"/>
            </Node>
            <Node pos="r" depth="3" NCoef="0" IVar="6" Cut="5.1610191345214844e+01" cType="1" res="-2.5139141362160444e-03" rms="4.3276950716972351e-01" purity="6.4520794153213501e-01" nType="0">
              <Node pos="l" depth="4" NCoef="0" IVar="-1" Cut="0.0000000000000000e+00" cType="1" res="2.8413246036507189e-04" rms="4.3212458491325378e-01" purity="6.3905334472656250e-01" nType="-99"/>
              <Node pos="r" depth="4" NCoef="0" IVar="-1" Cut="0.0000000000000000e+00" cType="1" res="-3.6135695409029722e-03" rms="4.3381375074386597e-01" purity="6.5567702054977417e-01" nType="-99"/>
            </Node>
          </Node>
          <Node pos="r" depth="2" NCoef="0" IVar="-1" Cut="0.0000000000000000e+00" cType="1" res="-6.0838134959340096e-03" rms="3.6638039350509644e-01" purity="1.7267766594886780e-01" nType="-99"/>
        </Node>
        <Node pos="r" depth="1" NCoef="0" IVar="-1" Cut="0.0000000000000000e+00" cType="1" res="1.1743721552193165e-03" rms="4.2860397696495056e-01" purity="6.4245134592056274e-01" nType="-99"/>
      </Node>
    </BinaryTree>
    <BinaryTree type="DecisionTree" boostWeight="1.0000000000000000e+00" itree="210">
      <Node pos="s" depth="0" NCoef="0" IVar="6" Cut="1.1814180755615234e+02" cType="1" res="3.4396824776194990e-04" rms="4.1859692335128784e-01" purity="5.0000000000000000e-01" nType="0">
        <Node pos="l" depth="1" NCoef="0" IVar="1" Cut="1.0924954414367676e+00" cType="1" res="-1.4580172319256235e-05" rms="4.1650572419166565e-01" purity="4.7068229317665100e-01" nType="0">
          <Node pos="l" depth="2" NCoef="0" IVar="1" Cut="3.6416634917259216e-01" cType="1" res="-1.5524066984653473e-03" rms="4.0729126334190369e-01" purity="4.5949295163154602e-01" nType="0">
            <Node pos="l" depth="3" NCoef="0" IVar="-1" Cut="0.0000000000000000e+00" cType="1" res="-3.2412011642009020e-03" rms="4.0416371822357178e-01" purity="4.5625793933868408e-01" nType="-99"/>
            <Node pos="r" depth="3" NCoef="0" IVar="0" Cut="5.9968870878219604e-01" cType="1" res="9.7439435194246471e-05" rms="4.0875792503356934e-01" purity="4.6102935075759888e-01" nType="0">
              <Node pos="l" depth="4" NCoef="0" IVar="-1" Cut="0.0000000000000000e+00" cType="1" res="1.0315282270312309e-03" rms="4.1642448306083679e-01" purity="5.0742590427398682e-01" nType="-99"/>
              <Node pos="r" depth="4" NCoef="0" IVar="-1" Cut="0.0000000000000000e+00" cType="1" res="-9.4562792219221592e-04" rms="4.0185657143592834e-01" purity="4.2003527283668518e-01" nType="-99"/>
            </Node>
          </Node>
          <Node pos="r" depth="2" NCoef="0" IVar="2" Cut="1.3094892501831055e+00" cType="1" res="1.0133816394954920e-03" rms="4.2254999279975891e-01" purity="4.7816184163093567e-01" nType="0">
            <Node pos="l" depth="3" NCoef="0" IVar="5" Cut="1.0842897796630859e+02" cType="1" res="3.2793672289699316e-03" rms="4.2357808351516724e-01" purity="5.7187777757644653e-01" nType="0">
              <Node pos="l" depth="4" NCoef="0" IVar="-1" Cut="0.0000000000000000e+00" cType="1" res="4.4654975645244122e-03" rms="4.0910649299621582e-01" purity="4.7173351049423218e-01" nType="-99"/>
              <Node pos="r" depth="4" NCoef="0" IVar="-1" Cut="0.0000000000000000e+00" cType="1" res="6.4100517192855477e-05" rms="4.3479043245315552e-01" purity="6.5204548835754395e-01" nType="-99"/>
            </Node>
            <Node pos="r" depth="3" NCoef="0" IVar="6" Cut="5.6046821594238281e+01" cType="1" res="-2.0305176731199026e-03" rms="4.2114582657814026e-01" purity="3.5227319598197937e-01" nType="0">
              <Node pos="l" depth="4" NCoef="0" IVar="-1" Cut="0.0000000000000000e+00" cType="1" res="-3.0826563015580177e-03" rms="4.2079111933708191e-01" purity="3.8968923687934875e-01" nType="-99"/>
              <Node pos="r" depth="4" NCoef="0" IVar="-1" Cut="0.0000000000000000e+00" cType="1" res="5.3926702821627259e-04" rms="4.2150583863258362e-01" purity="3.1245395541191101e-01" nType="-99"/>
            </Node>
          </Node>
        </Node>
        <Node pos="r" depth="1" NCoef="0" IVar="-1" Cut="0.0000000000000000e+00" cType="1" res="9.6955680055543780e-04" rms="4.2860832810401917e-01" purity="6.4245134592056274e-01" nType="-99"/>
      </Node>
    </BinaryTree>
    <BinaryTree type="DecisionTree" boostWeight="1.0000000000000000e+00" itree="211">
      <Node pos="s" depth="0" NCoef="0" IVar="2" Cut="2.2916061878204346e+00" cType="1" res="3.0428389436565340e-04" rms="4.1858989000320435e-01" purity="5.0000000000000000e-01" nType="0">
        <Node pos="l" depth="1" NCoef="0" IVar="2" Cut="1.7459816932678223e+00" cType="1" res="-1.3787702300760429e-05" rms="4.2518118023872375e-01" purity="5.4748231172561646e-01" nType="0">
          <Node pos="l" depth="2" NCoef="0" IVar="1" Cut="2.0901491641998291e+00" cType="1" res="6.0593808302655816e-04" rms="4.2074346542358398e-01" purity="5.6724691390991211e-01" nType="0">
            <Node pos="l" depth="3" NCoef="0" IVar="2" Cut="7.4827665090560913e-01" cType="1" res="1.4539993135258555e-03" rms="4.1573730111122131e-01" purity="5.4892796277999878e-01" nType="0">
              <Node pos="l" depth="4" NCoef="0" IVar="0" Cut="6.3181871175765991e-01" cType="1" res="9.9340220913290977e-05" rms="3.9687645435333252e-01" purity="5.6803160905838013e-01" nType="0">
                <Node pos="l" depth="5" NCoef="0" IVar="-1" Cut="0.0000000000000000e+00" cType="1" res="8.3611905574798584e-04" rms="4.0108743309974670e-01" purity="5.8946186304092407e-01" nType="-99"/>
                <Node pos="r" depth="5" NCoef="0" IVar="-1" Cut="0.0000000000000000e+00" cType="1" res="-8.5036642849445343e-04" rms="3.9227604866027832e-01" purity="5.4490816593170166e-01" nType="-99"/>
              </Node>
              <Node pos="r" depth="4" NCoef="0" IVar="1" Cut="1.1943713426589966e+00" cType="1" res="2.9361853376030922e-03" rms="4.3543395400047302e-01" purity="5.2802598476409912e-01" nType="0">
                <Node pos="l" depth="5" NCoef="0" IVar="-1" Cut="0.0000000000000000e+00" cType="1" res="2.5557526387274265e-03" rms="4.3128356337547302e-01" purity="5.2801489830017090e-01" nType="-99"/>
                <Node pos="r" depth="5" NCoef="0" IVar="-1" Cut="0.0000000000000000e+00" cType="1" res="9.8175056336913258e-05" rms="4.4147536158561707e-01" purity="5.2804231643676758e-01" nType="-99"/>
              </Node>
            </Node>
            <Node pos="r" depth="3" NCoef="0" IVar="-1" Cut="0.0000000000000000e+00" cType="1" res="-1.0303813032805920e-03" rms="4.3693006038665771e-01" purity="6.2802374362945557e-01" nType="-99"/>
          </Node>
          <Node pos="r" depth="2" NCoef="0" IVar="-1" Cut="0.0000000000000000e+00" cType="1" res="-2.6337904855608940e-03" rms="4.5658349990844727e-01" purity="4.0157175064086914e-01" nType="-99"/>
        </Node>
        <Node pos="r" depth="1" NCoef="0" IVar="-1" Cut="0.0000000000000000e+00" cType="1" res="3.7301455158740282e-03" rms="3.7090986967086792e-01" purity="1.7866016924381256e-01" nType="-99"/>
      </Node>
    </BinaryTree>
    <BinaryTree type="DecisionTree" boostWeight="1.0000000000000000e+00" itree="212">
      <Node pos="s" depth="0" NCoef="0" IVar="5" Cut="2.2955096435546875e+02" cType="1" res="1.9167749269399792e-04" rms="4.1858386993408203e-01" purity="5.0000000000000000e-01" nType="0">
        <Node pos="l" depth="1" NCoef="0" IVar="5" Cut="1.8824928283691406e+02" cType="1" res="5.6708592455834150e-04" rms="4.2116212844848633e-01" purity="5.0254619121551514e-01" nType="0">
          <Node pos="l" depth="2" NCoef="0" IVar="4" Cut="7.1428573131561279e-01" cType="1" res="-1.1232275282964110e-03" rms="4.1894733905792236e-01" purity="4.9845069646835327e-01" nType="0">
            <Node pos="l" depth="3" NCoef="0" IVar="-1" Cut="0.0000000000000000e+00" cType="1" res="-8.6730485782027245e-03" rms="4.1356626152992249e-01" purity="2.9515686631202698e-01" nType="-99"/>
            <Node pos="r" depth="3" NCoef="0" IVar="5" Cut="1.2973886108398438e+02" cType="1" res="1.3169496087357402e-03" rms="4.2022541165351868e-01" purity="5.4848963022232056e-01" nType="0">
              <Node pos="l" depth="4" NCoef="0" IVar="5" Cut="1.0187662506103516e+02" cType="1" res="3.4226283896714449e-03" rms="4.1141170263290405e-01" purity="5.5451774597167969e-01" nType="0">
                <Node pos="l" depth="5" NCoef="0" IVar="3" Cut="2.0000000000000000e+00" cType="1" res="2.7524292818270624e-04" rms="3.9831882715225220e-01" purity="4.4353070855140686e-01" nType="0">
                  <Node pos="l" depth="6" NCoef="0" IVar="-1" Cut="0.0000000000000000e+00" cType="1" res="-3.4651244059205055e-03" rms="4.0403598546981812e-01" purity="4.5162057876586914e-01" nType="-99"/>
                  <Node pos="r" depth="6" NCoef="0" IVar="-1" Cut="0.0000000000000000e+00" cType="1" res="4.6244156546890736e-03" rms="4.3215689063072205e-01" purity="4.3209540843963623e-01" nType="-99"/>
                </Node>
                <Node pos="r" depth="5" NCoef="0" IVar="-1" Cut="0.0000000000000000e+00" cType="1" res="3.9829160086810589e-03" rms="4.0482774376869202e-01" purity="7.1159279346466064e-01" nType="-99"/>
              </Node>
              <Node pos="r" depth="4" NCoef="0" IVar="-1" Cut="0.0000000000000000e+00" cType="1" res="-2.5084584485739470e-03" rms="4.4500783085823059e-01" purity="5.3081309795379639e-01" nType="-99"/>
            </Node>
          </Node>
          <Node pos="r" depth="2" NCoef="0" IVar="-1" Cut="0.0000000000000000e+00" cType="1" res="5.9369821101427078e-03" rms="4.3526285886764526e-01" purity="5.2943986654281616e-01" nType="-99"/>
        </Node>
        <Node pos="r" depth="1" NCoef="0" IVar="-1" Cut="0.0000000000000000e+00" cType="1" res="-7.6834991341456771e-04" rms="4.0824782848358154e-01" purity="4.8995268344879150e-01" nType="-99"/>
      </Node>
    </BinaryTree>
    <BinaryTree type="DecisionTree" boostWeight="1.0000000000000000e+00" itree="213">
      <Node pos="s" depth="0" NCoef="0" IVar="4" Cut="2.1428570747375488e+00" cType="1" res="3.1410716474056244e-04" rms="4.1855949163436890e-01" purity="5.0000000000000000e-01" nType="0">
        <Node pos="l" depth="1" NCoef="0" IVar="0" Cut="1.4756060838699341e+00" cType="1" res="7.2763749631121755e-04" rms="4.1820579767227173e-01" purity="4.7926604747772217e-01" nType="0">
          <Node pos="l" depth="2" NCoef="0" IVar="2" Cut="5.6443983316421509e-01" cType="1" res="1.1352000001352280e-04" rms="4.2059400677680969e-01" purity="4.9499002099037170e-01" nType="0">
            <Node pos="l" depth="3" NCoef="0" IVar="-1" Cut="0.0000000000000000e+00" cType="1" res="1.3279403792694211e-03" rms="4.0030422806739807e-01" purity="5.7717245817184448e-01" nType="-99"/>
            <Node pos="r" depth="3" NCoef="0" IVar="1" Cut="1.4142118692398071e+00" cType="1" res="-1.2030211510136724e-03" rms="4.3156215548515320e-01" purity="4.4884878396987915e-01" nType="0">
              <Node pos="l" depth="4" NCoef="0" IVar="1" Cut="8.0811077356338501e-01" cType="1" res="1.2188960099592805e-03" rms="4.2312067747116089e-01" purity="4.3388345837593079e-01" nType="0">
                <Node pos="l" depth="5" NCoef="0" IVar="-1" Cut="0.0000000000000000e+00" cType="1" res="-3.8494690670631826e-04" rms="4.2007726430892944e-01" purity="4.2986869812011719e-01" nType="-99"/>
                <Node pos="r" depth="5" NCoef="0" IVar="-1" Cut="0.0000000000000000e+00" cType="1" res="2.3012142628431320e-03" rms="4.2740947008132935e-01" purity="4.3960848450660706e-01" nType="-99"/>
              </Node>
              <Node pos="r" depth="4" NCoef="0" IVar="-1" Cut="0.0000000000000000e+00" cType="1" res="-3.3811435569077730e-03" rms="4.4899404048919678e-01" purity="4.8076954483985901e-01" nType="-99"/>
            </Node>
          </Node>
          <Node pos="r" depth="2" NCoef="0" IVar="1" Cut="2.1659431457519531e+00" cType="1" res="2.3232267703860998e-03" rms="4.1193187236785889e-01" purity="4.3841230869293213e-01" nType="0">
            <Node pos="l" depth="3" NCoef="0" IVar="-1" Cut="0.0000000000000000e+00" cType="1" res="-1.3009724207222462e-03" rms="3.9353308081626892e-01" purity="3.5871702432632446e-01" nType="-99"/>
            <Node pos="r" depth="3" NCoef="0" IVar="-1" Cut="0.0000000000000000e+00" cType="1" res="3.1716169323772192e-03" rms="4.2691591382026672e-01" purity="5.0614273548126221e-01" nType="-99"/>
          </Node>
        </Node>
        <Node pos="r" depth="1" NCoef="0" IVar="-1" Cut="0.0000000000000000e+00" cType="1" res="-7.8136101365089417e-04" rms="4.2005443572998047e-01" purity="5.8810079097747803e-01" nType="-99"/>
      </Node>
    </BinaryTree>
    <BinaryTree type="DecisionTree" boostWeight="1.0000000000000000e+00" itree="214">
      <Node pos="s" depth="0" NCoef="0" IVar="6" Cut="1.1814180755615234e+02" cType="1" res="2.6642406010068953e-04" rms="4.1855362057685852e-01" purity="5.0000000000000000e-01" nType="0">
        <Node pos="l" depth="1" NCoef="0" IVar="4" Cut="7.1428573131561279e-01" cType="1" res="-8.2724960520863533e-05" rms="4.1646841168403625e-01" purity="4.7068229317665100e-01" nType="0">
          <Node pos="l" depth="2" NCoef="0" IVar="-1" Cut="0.0000000000000000e+00" cType="1" res="2.5933925062417984e-03" rms="4.0116864442825317e-01" purity="3.2351112365722656e-01" nType="-99"/>
          <Node pos="r" depth="2" NCoef="0" IVar="5" Cut="1.4449981689453125e+02" cType="1" res="-9.3692640075460076e-04" rms="4.2015165090560913e-01" purity="5.0697797536849976e-01" nType="0">
            <Node pos="l" depth="3" NCoef="0" IVar="2" Cut="1.3232932090759277e+00" cType="1" res="1.2375926598906517e-03" rms="4.1787186264991760e-01" purity="5.4563307762145996e-01" nType="0">
              <Node pos="l" depth="4" NCoef="0" IVar="2" Cut="6.3013643026351929e-01" cType="1" res="3.0908421613276005e-03" rms="4.0757557749748230e-01" purity="5.5787295103073120e-01" nType="0">
                <Node pos="l" depth="5" NCoef="0" IVar="-1" Cut="0.0000000000000000e+00" cType="1" res="1.4340126654133201e-04" rms="3.9726099371910095e-01" purity="5.4801154136657715e-01" nType="-99"/>
                <Node pos="r" depth="5" NCoef="0" IVar="-1" Cut="0.0000000000000000e+00" cType="1" res="3.3102459274232388e-03" rms="4.1816246509552002e-01" purity="5.6827837228775024e-01" nType="-99"/>
              </Node>
              <Node pos="r" depth="4" NCoef="0" IVar="-1" Cut="0.0000000000000000e+00" cType="1" res="-2.0638746209442616e-03" rms="4.4553926587104797e-01" purity="5.1117742061614990e-01" nType="-99"/>
            </Node>
            <Node pos="r" depth="3" NCoef="0" IVar="7" Cut="7.5651176452636719e+01" cType="1" res="-5.4061617702245712e-03" rms="4.2476391792297363e-01" purity="4.2753118276596069e-01" nType="0">
              <Node pos="l" depth="4" NCoef="0" IVar="-1" Cut="0.0000000000000000e+00" cType="1" res="-1.9364334875717759e-03" rms="4.1251212358474731e-01" purity="3.7499529123306274e-01" nType="-99"/>
              <Node pos="r" depth="4" NCoef="0" IVar="-1" Cut="0.0000000000000000e+00" cType="1" res="-4.4795367866754532e-03" rms="4.3493536114692688e-01" purity="4.7237423062324524e-01" nType="-99"/>
            </Node>
          </Node>
        </Node>
        <Node pos="r" depth="1" NCoef="0" IVar="-1" Cut="0.0000000000000000e+00" cType="1" res="9.1365532716736197e-04" rms="4.2853683233261108e-01" purity="6.4245134592056274e-01" nType="-99"/>
      </Node>
    </BinaryTree>
    <BinaryTree type="DecisionTree" boostWeight="1.0000000000000000e+00" itree="215">
      <Node pos="s" depth="0" NCoef="0" IVar="2" Cut="1.6368615627288818e+00" cType="1" res="2.3132612113840878e-04" rms="4.1854476928710938e-01" purity="5.0000000000000000e-01" nType="0">
        <Node pos="l" depth="1" NCoef="0" IVar="2" Cut="1.2471299171447754e+00" cType="1" res="-3.6023557186126709e-04" rms="4.1917741298675537e-01" purity="5.7055962085723877e-01" nType="0">
          <Node pos="l" depth="2" NCoef="0" IVar="3" Cut="2.0000000000000000e+00" cType="1" res="-8.4152322961017489e-04" rms="4.0702968835830688e-01" purity="5.7965052127838135e-01" nType="0">
            <Node pos="l" depth="3" NCoef="0" IVar="4" Cut="7.1428573131561279e-01" cType="1" res="1.3876693556085229e-03" rms="4.0961647033691406e-01" purity="5.9586954116821289e-01" nType="0">
              <Node pos="l" depth="4" NCoef="0" IVar="-1" Cut="0.0000000000000000e+00" cType="1" res="2.0889467559754848e-03" rms="4.2793387174606323e-01" purity="4.7833570837974548e-01" nType="-99"/>
              <Node pos="r" depth="4" NCoef="0" IVar="2" Cut="5.3448843955993652e-01" cType="1" res="3.2582189305685461e-04" rms="4.0121909976005554e-01" purity="6.4800453186035156e-01" nType="0">
                <Node pos="l" depth="5" NCoef="0" IVar="-1" Cut="0.0000000000000000e+00" cType="1" res="1.0425529908388853e-03" rms="3.8783961534500122e-01" purity="6.6621583700180054e-01" nType="-99"/>
                <Node pos="r" depth="5" NCoef="0" IVar="-1" Cut="0.0000000000000000e+00" cType="1" res="-5.2089238306507468e-04" rms="4.1197833418846130e-01" purity="6.3290476799011230e-01" nType="-99"/>
              </Node>
            </Node>
            <Node pos="r" depth="3" NCoef="0" IVar="-1" Cut="0.0000000000000000e+00" cType="1" res="-1.0328156640753150e-03" rms="4.2185357213020325e-01" purity="5.3744661808013916e-01" nType="-99"/>
          </Node>
          <Node pos="r" depth="2" NCoef="0" IVar="-1" Cut="0.0000000000000000e+00" cType="1" res="-2.1557384170591831e-03" rms="4.4739186763763428e-01" purity="5.2691936492919922e-01" nType="-99"/>
        </Node>
        <Node pos="r" depth="1" NCoef="0" IVar="5" Cut="2.3420921325683594e+02" cType="1" res="1.9027956295758486e-03" rms="4.1674745082855225e-01" purity="3.0063235759735107e-01" nType="0">
          <Node pos="l" depth="2" NCoef="0" IVar="-1" Cut="0.0000000000000000e+00" cType="1" res="3.7955392617732286e-03" rms="4.2773291468620300e-01" purity="3.3556798100471497e-01" nType="-99"/>
          <Node pos="r" depth="2" NCoef="0" IVar="-1" Cut="0.0000000000000000e+00" cType="1" res="-3.0226360540837049e-03" rms="3.9912235736846924e-01" purity="2.4663858115673065e-01" nType="-99"/>
        </Node>
      </Node>
    </BinaryTree>
    <BinaryTree type="DecisionTree" boostWeight="1.0000000000000000e+00" itree="216">
      <Node pos="s" depth="0" NCoef="0" IVar="2" Cut="1.9642339944839478e+00" cType="1" res="1.6794794646557420e-04" rms="4.1854268312454224e-01" purity="5.0000000000000000e-01" nType="0">
        <Node pos="l" depth="1" NCoef="0" IVar="2" Cut="1.4965569972991943e+00" cType="1" res="-2.1309939620550722e-04" rms="4.2305940389633179e-01" purity="5.5938524007797241e-01" nType="0">
          <Node pos="l" depth="2" NCoef="0" IVar="3" Cut="2.0000000000000000e+00" cType="1" res="-1.6103962843772024e-04" rms="4.1192331910133362e-01" purity="5.7430452108383179e-01" nType="0">
            <Node pos="l" depth="3" NCoef="0" IVar="1" Cut="7.4604457616806030e-01" cType="1" res="1.3101065997034311e-03" rms="4.1281697154045105e-01" purity="5.8745068311691284e-01" nType="0">
              <Node pos="l" depth="4" NCoef="0" IVar="-1" Cut="0.0000000000000000e+00" cType="1" res="1.9000932807102799e-03" rms="3.9961174130439758e-01" purity="5.7370692491531372e-01" nType="-99"/>
              <Node pos="r" depth="4" NCoef="0" IVar="2" Cut="8.5517138242721558e-01" cType="1" res="4.6641449443995953e-04" rms="4.1807055473327637e-01" purity="5.9304594993591309e-01" nType="0">
                <Node pos="l" depth="5" NCoef="0" IVar="-1" Cut="0.0000000000000000e+00" cType="1" res="-1.6854071873240173e-04" rms="4.1013485193252563e-01" purity="6.1151784658432007e-01" nType="-99"/>
                <Node pos="r" depth="5" NCoef="0" IVar="-1" Cut="0.0000000000000000e+00" cType="1" res="9.3331118114292622e-04" rms="4.3139162659645081e-01" purity="5.6123435497283936e-01" nType="-99"/>
              </Node>
            </Node>
            <Node pos="r" depth="3" NCoef="0" IVar="-1" Cut="0.0000000000000000e+00" cType="1" res="-7.7977543696761131e-04" rms="4.2811569571495056e-01" purity="5.3996783494949341e-01" nType="-99"/>
          </Node>
          <Node pos="r" depth="2" NCoef="0" IVar="-1" Cut="0.0000000000000000e+00" cType="1" res="-2.3801901843398809e-03" rms="4.5641624927520752e-01" purity="4.7174611687660217e-01" nType="-99"/>
        </Node>
        <Node pos="r" depth="1" NCoef="0" IVar="-1" Cut="0.0000000000000000e+00" cType="1" res="1.9411025568842888e-03" rms="3.9791655540466309e-01" purity="2.3696684837341309e-01" nType="-99"/>
      </Node>
    </BinaryTree>
    <BinaryTree type="DecisionTree" boostWeight="1.0000000000000000e+00" itree="217">
      <Node pos="s" depth="0" NCoef="0" IVar="2" Cut="1.6368615627288818e+00" cType="1" res="1.0348502109991387e-04" rms="4.1853895783424377e-01" purity="5.0000000000000000e-01" nType="0">
        <Node pos="l" depth="1" NCoef="0" IVar="2" Cut="1.1691843271255493e+00" cType="1" res="-3.2922258833423257e-04" rms="4.1917070746421814e-01" purity="5.7055962085723877e-01" nType="0">
          <Node pos="l" depth="2" NCoef="0" IVar="3" Cut="2.0000000000000000e+00" cType="1" res="-7.2764791548252106e-04" rms="4.0567901730537415e-01" purity="5.8095121383666992e-01" nType="0">
            <Node pos="l" depth="3" NCoef="0" IVar="4" Cut="7.1428573131561279e-01" cType="1" res="1.1148742632940412e-03" rms="4.0842702984809875e-01" purity="5.9825301170349121e-01" nType="0">
              <Node pos="l" depth="4" NCoef="0" IVar="-1" Cut="0.0000000000000000e+00" cType="1" res="1.5519019216299057e-03" rms="4.2793431878089905e-01" purity="4.8219254612922668e-01" nType="-99"/>
              <Node pos="r" depth="4" NCoef="0" IVar="2" Cut="6.1243283748626709e-01" cType="1" res="3.5225728061050177e-04" rms="3.9938995242118835e-01" purity="6.5017151832580566e-01" nType="0">
                <Node pos="l" depth="5" NCoef="0" IVar="-1" Cut="0.0000000000000000e+00" cType="1" res="9.8619936034083366e-04" rms="3.8743779063224792e-01" purity="6.6345977783203125e-01" nType="-99"/>
                <Node pos="r" depth="5" NCoef="0" IVar="-1" Cut="0.0000000000000000e+00" cType="1" res="-7.4359012069180608e-04" rms="4.1341644525527954e-01" purity="6.3405364751815796e-01" nType="-99"/>
              </Node>
            </Node>
            <Node pos="r" depth="3" NCoef="0" IVar="-1" Cut="0.0000000000000000e+00" cType="1" res="-7.8973459312692285e-04" rms="4.1984334588050842e-01" purity="5.3605395555496216e-01" nType="-99"/>
          </Node>
          <Node pos="r" depth="2" NCoef="0" IVar="-1" Cut="0.0000000000000000e+00" cType="1" res="-1.5005820896476507e-03" rms="4.4590523838996887e-01" purity="5.3215193748474121e-01" nType="-99"/>
        </Node>
        <Node pos="r" depth="1" NCoef="0" IVar="2" Cut="2.1357152462005615e+00" cType="1" res="1.3261090498417616e-03" rms="4.1674634814262390e-01" purity="3.0063235759735107e-01" nType="0">
          <Node pos="l" depth="2" NCoef="0" IVar="-1" Cut="0.0000000000000000e+00" cType="1" res="2.9317643493413925e-03" rms="4.5802295207977295e-01" purity="4.3601503968238831e-01" nType="-99"/>
          <Node pos="r" depth="2" NCoef="0" IVar="-1" Cut="0.0000000000000000e+00" cType="1" res="-2.0113021600991488e-03" rms="3.8459163904190063e-01" purity="2.0409870147705078e-01" nType="-99"/>
        </Node>
      </Node>
    </BinaryTree>
    <BinaryTree type="DecisionTree" boostWeight="1.0000000000000000e+00" itree="218">
      <Node pos="s" depth="0" NCoef="0" IVar="2" Cut="2.2916061878204346e+00" cType="1" res="1.0843960626516491e-04" rms="4.1853615641593933e-01" purity="5.0000000000000000e-01" nType="0">
        <Node pos="l" depth="1" NCoef="0" IVar="2" Cut="1.7459816932678223e+00" cType="1" res="-1.8338020890951157e-04" rms="4.2512795329093933e-01" purity="5.4748231172561646e-01" nType="0">
          <Node pos="l" depth="2" NCoef="0" IVar="1" Cut="2.0901491641998291e+00" cType="1" res="4.0533285937272012e-04" rms="4.2068433761596680e-01" purity="5.6724691390991211e-01" nType="0">
            <Node pos="l" depth="3" NCoef="0" IVar="2" Cut="9.9769955873489380e-01" cType="1" res="1.1784726521000266e-03" rms="4.1568914055824280e-01" purity="5.4892796277999878e-01" nType="0">
              <Node pos="l" depth="4" NCoef="0" IVar="3" Cut="2.0000000000000000e+00" cType="1" res="8.9803582523018122e-04" rms="3.9126342535018921e-01" purity="5.6479448080062866e-01" nType="0">
                <Node pos="l" depth="5" NCoef="0" IVar="1" Cut="9.9531930685043335e-01" cType="1" res="1.1287335073575377e-03" rms="4.0049427747726440e-01" purity="5.8989447355270386e-01" nType="0">
                  <Node pos="l" depth="6" NCoef="0" IVar="-1" Cut="0.0000000000000000e+00" cType="1" res="1.5857786638662219e-03" rms="3.9145666360855103e-01" purity="5.8905398845672607e-01" nType="-99"/>
                  <Node pos="r" depth="6" NCoef="0" IVar="-1" Cut="0.0000000000000000e+00" cType="1" res="-3.1004473567008972e-04" rms="4.0957182645797729e-01" purity="5.9075868129730225e-01" nType="-99"/>
                </Node>
                <Node pos="r" depth="5" NCoef="0" IVar="-1" Cut="0.0000000000000000e+00" cType="1" res="-1.7287856899201870e-03" rms="4.0682655572891235e-01" purity="5.0041025876998901e-01" nType="-99"/>
              </Node>
              <Node pos="r" depth="4" NCoef="0" IVar="-1" Cut="0.0000000000000000e+00" cType="1" res="1.9049395341426134e-03" rms="4.4196599721908569e-01" purity="5.1630222797393799e-01" nType="-99"/>
            </Node>
            <Node pos="r" depth="3" NCoef="0" IVar="-1" Cut="0.0000000000000000e+00" cType="1" res="-1.0088633280247450e-03" rms="4.3683823943138123e-01" purity="6.2802374362945557e-01" nType="-99"/>
          </Node>
          <Node pos="r" depth="2" NCoef="0" IVar="-1" Cut="0.0000000000000000e+00" cType="1" res="-2.6007785927504301e-03" rms="4.5657300949096680e-01" purity="4.0157175064086914e-01" nType="-99"/>
        </Node>
        <Node pos="r" depth="1" NCoef="0" IVar="-1" Cut="0.0000000000000000e+00" cType="1" res="3.1585737597197294e-03" rms="3.7085261940956116e-01" purity="1.7866016924381256e-01" nType="-99"/>
      </Node>
    </BinaryTree>
    <BinaryTree type="DecisionTree" boostWeight="1.0000000000000000e+00" itree="219">
      <Node pos="s" depth="0" NCoef="0" IVar="6" Cut="1.1814180755615234e+02" cType="1" res="4.5093089283909649e-05" rms="4.1853073239326477e-01" purity="5.0000000000000000e-01" nType="0">
        <Node pos="l" depth="1" NCoef="0" IVar="1" Cut="1.0924954414367676e+00" cType="1" res="-2.8044369537383318e-04" rms="4.1643795371055603e-01" purity="4.7068229317665100e-01" nType="0">
          <Node pos="l" depth="2" NCoef="0" IVar="1" Cut="3.6416634917259216e-01" cType="1" res="-2.1138417068868876e-03" rms="4.0723940730094910e-01" purity="4.5949295163154602e-01" nType="0">
            <Node pos="l" depth="3" NCoef="0" IVar="-1" Cut="0.0000000000000000e+00" cType="1" res="-3.1628159340471029e-03" rms="4.0412208437919617e-01" purity="4.5625793933868408e-01" nType="-99"/>
            <Node pos="r" depth="3" NCoef="0" IVar="1" Cut="7.1098923683166504e-01" cType="1" res="-7.9131638631224632e-04" rms="4.0870499610900879e-01" purity="4.6102935075759888e-01" nType="0">
              <Node pos="l" depth="4" NCoef="0" IVar="-1" Cut="0.0000000000000000e+00" cType="1" res="4.7418600297532976e-04" rms="4.0867909789085388e-01" purity="4.6257597208023071e-01" nType="-99"/>
              <Node pos="r" depth="4" NCoef="0" IVar="-1" Cut="0.0000000000000000e+00" cType="1" res="-1.3687311438843608e-03" rms="4.0872314572334290e-01" purity="4.5965477824211121e-01" nType="-99"/>
            </Node>
          </Node>
          <Node pos="r" depth="2" NCoef="0" IVar="0" Cut="1.8972108364105225e+00" cType="1" res="9.4509322661906481e-04" rms="4.2247059941291809e-01" purity="4.7816184163093567e-01" nType="0">
            <Node pos="l" depth="3" NCoef="0" IVar="2" Cut="1.2543960809707642e+00" cType="1" res="2.4293821770697832e-03" rms="4.3134528398513794e-01" purity="4.8997786641120911e-01" nType="0">
              <Node pos="l" depth="4" NCoef="0" IVar="-1" Cut="0.0000000000000000e+00" cType="1" res="2.7119079604744911e-03" rms="4.2863649129867554e-01" purity="5.6008875370025635e-01" nType="-99"/>
              <Node pos="r" depth="4" NCoef="0" IVar="-1" Cut="0.0000000000000000e+00" cType="1" res="-2.2439572494477034e-03" rms="4.3668773770332336e-01" purity="3.4893652796745300e-01" nType="-99"/>
            </Node>
            <Node pos="r" depth="3" NCoef="0" IVar="-1" Cut="0.0000000000000000e+00" cType="1" res="-1.1614378308877349e-03" rms="4.0551614761352539e-01" purity="4.5628920197486877e-01" nType="-99"/>
          </Node>
        </Node>
        <Node pos="r" depth="1" NCoef="0" IVar="-1" Cut="0.0000000000000000e+00" cType="1" res="7.5751810800284147e-04" rms="4.2855045199394226e-01" purity="6.4245134592056274e-01" nType="-99"/>
      </Node>
    </BinaryTree>
    <BinaryTree type="DecisionTree" boostWeight="1.0000000000000000e+00" itree="220">
      <Node pos="s" depth="0" NCoef="0" IVar="2" Cut="1.6368615627288818e+00" cType="1" res="9.4779155915603042e-05" rms="4.1852563619613647e-01" purity="5.0000000000000000e-01" nType="0">
        <Node pos="l" depth="1" NCoef="0" IVar="1" Cut="2.0901491641998291e+00" cType="1" res="-4.2536834371276200e-04" rms="4.1915950179100037e-01" purity="5.7055962085723877e-01" nType="0">
          <Node pos="l" depth="2" NCoef="0" IVar="1" Cut="3.9812588691711426e-01" cType="1" res="1.9685298320837319e-04" rms="4.1423168778419495e-01" purity="5.5187791585922241e-01" nType="0">
            <Node pos="l" depth="3" NCoef="0" IVar="-1" Cut="0.0000000000000000e+00" cType="1" res="-8.9307263260707259e-04" rms="4.0332919359207153e-01" purity="5.3801995515823364e-01" nType="-99"/>
            <Node pos="r" depth="3" NCoef="0" IVar="2" Cut="1.0912393331527710e+00" cType="1" res="6.2636710936203599e-04" rms="4.1684967279434204e-01" purity="5.5526202917098999e-01" nType="0">
              <Node pos="l" depth="4" NCoef="0" IVar="0" Cut="7.9680353403091431e-01" cType="1" res="1.7847372218966484e-03" rms="4.0762960910797119e-01" purity="5.6846648454666138e-01" nType="0">
                <Node pos="l" depth="5" NCoef="0" IVar="-1" Cut="0.0000000000000000e+00" cType="1" res="2.0881567616015673e-03" rms="4.1585507988929749e-01" purity="5.9587651491165161e-01" nType="-99"/>
                <Node pos="r" depth="5" NCoef="0" IVar="-1" Cut="0.0000000000000000e+00" cType="1" res="-4.5656313886865973e-04" rms="3.9797499775886536e-01" purity="5.3704291582107544e-01" nType="-99"/>
              </Node>
              <Node pos="r" depth="4" NCoef="0" IVar="-1" Cut="0.0000000000000000e+00" cType="1" res="-1.4808932319283485e-03" rms="4.4342124462127686e-01" purity="5.1552754640579224e-01" nType="-99"/>
            </Node>
          </Node>
          <Node pos="r" depth="2" NCoef="0" IVar="-1" Cut="0.0000000000000000e+00" cType="1" res="-1.1667872313410044e-03" rms="4.3517044186592102e-01" purity="6.3280916213989258e-01" nType="-99"/>
        </Node>
        <Node pos="r" depth="1" NCoef="0" IVar="3" Cut="2.0000000000000000e+00" cType="1" res="4.0743066929280758e-03" rms="4.0347206592559814e-01" purity="3.0063235759735107e-01" nType="0">
          <Node pos="l" depth="2" NCoef="0" IVar="-1" Cut="0.0000000000000000e+00" cType="1" res="-1.0781970340758562e-03" rms="4.2159584164619446e-01" purity="3.2753676176071167e-01" nType="-99"/>
          <Node pos="r" depth="2" NCoef="0" IVar="-1" Cut="0.0000000000000000e+00" cType="1" res="4.8240767791867256e-03" rms="4.1066017746925354e-01" purity="2.6772224903106689e-01" nType="-99"/>
        </Node>
      </Node>
    </BinaryTree>
    <BinaryTree type="DecisionTree" boostWeight="1.0000000000000000e+00" itree="221">
      <Node pos="s" depth="0" NCoef="0" IVar="2" Cut="1.3094892501831055e+00" cType="1" res="2.6518006052356213e-05" rms="4.1851928830146790e-01" purity="5.0000000000000000e-01" nType="0">
        <Node pos="l" depth="1" NCoef="0" IVar="2" Cut="5.6120806932449341e-01" cType="1" res="-5.3909979760646820e-04" rms="4.1403037309646606e-01" purity="5.7867580652236938e-01" nType="0">
          <Node pos="l" depth="2" NCoef="0" IVar="7" Cut="8.3314987182617188e+01" cType="1" res="6.4579088939353824e-04" rms="4.0217936038970947e-01" purity="5.9327149391174316e-01" nType="0">
            <Node pos="l" depth="3" NCoef="0" IVar="-1" Cut="0.0000000000000000e+00" cType="1" res="1.4849969884380698e-03" rms="4.3068322539329529e-01" purity="5.9066891670227051e-01" nType="-99"/>
            <Node pos="r" depth="3" NCoef="0" IVar="-1" Cut="0.0000000000000000e+00" cType="1" res="-1.0190362809225917e-03" rms="3.7027832865715027e-01" purity="5.9597176313400269e-01" nType="-99"/>
          </Node>
          <Node pos="r" depth="2" NCoef="0" IVar="1" Cut="1.4332456588745117e+00" cType="1" res="-1.6135824844241142e-03" rms="4.2448827624320984e-01" purity="5.6544017791748047e-01" nType="0">
            <Node pos="l" depth="3" NCoef="0" IVar="-1" Cut="0.0000000000000000e+00" cType="1" res="3.3852842170745134e-04" rms="4.1624951362609863e-01" purity="5.4295605421066284e-01" nType="-99"/>
            <Node pos="r" depth="3" NCoef="0" IVar="-1" Cut="0.0000000000000000e+00" cType="1" res="-2.1537146531045437e-03" rms="4.3456721305847168e-01" purity="5.9359109401702881e-01" nType="-99"/>
          </Node>
        </Node>
        <Node pos="r" depth="1" NCoef="0" IVar="2" Cut="1.8395206928253174e+00" cType="1" res="1.0088627459481359e-03" rms="4.2620137333869934e-01" purity="3.6335864663124084e-01" nType="0">
          <Node pos="l" depth="2" NCoef="0" IVar="-1" Cut="0.0000000000000000e+00" cType="1" res="2.2508709225803614e-03" rms="4.5212274789810181e-01" purity="5.0349330902099609e-01" nType="-99"/>
          <Node pos="r" depth="2" NCoef="0" IVar="4" Cut="1.3333333730697632e+00" cType="1" res="-1.5407992759719491e-03" rms="4.0606334805488586e-01" purity="2.6029297709465027e-01" nType="0">
            <Node pos="l" depth="3" NCoef="0" IVar="-1" Cut="0.0000000000000000e+00" cType="1" res="-8.9092189446091652e-03" rms="3.8705253601074219e-01" purity="2.1091249585151672e-01" nType="-99"/>
            <Node pos="r" depth="3" NCoef="0" IVar="-1" Cut="0.0000000000000000e+00" cType="1" res="3.3775779884308577e-03" rms="4.2309746146202087e-01" purity="3.0677634477615356e-01" nType="-99"/>
          </Node>
        </Node>
      </Node>
    </BinaryTree>
    <BinaryTree type="DecisionTree" boostWeight="1.0000000000000000e+00" itree="222">
      <Node pos="s" depth="0" NCoef="0" IVar="2" Cut="1.6368615627288818e+00" cType="1" res="9.7292409918736666e-05" rms="4.1851234436035156e-01" purity="5.0000000000000000e-01" nType="0">
        <Node pos="l" depth="1" NCoef="0" IVar="0" Cut="1.3695946931838989e+00" cType="1" res="-3.8392003625631332e-04" rms="4.1915297508239746e-01" purity="5.7055962085723877e-01" nType="0">
          <Node pos="l" depth="2" NCoef="0" IVar="2" Cut="1.0912412405014038e+00" cType="1" res="-1.1478331871330738e-03" rms="4.1961932182312012e-01" purity="5.6015050411224365e-01" nType="0">
            <Node pos="l" depth="3" NCoef="0" IVar="2" Cut="5.1964205503463745e-01" cType="1" res="-6.6523622081149369e-05" rms="4.1001465916633606e-01" purity="5.7777267694473267e-01" nType="0">
              <Node pos="l" depth="4" NCoef="0" IVar="-1" Cut="0.0000000000000000e+00" cType="1" res="6.3797953771427274e-04" rms="4.0079620480537415e-01" purity="5.9729164838790894e-01" nType="-99"/>
              <Node pos="r" depth="4" NCoef="0" IVar="-1" Cut="0.0000000000000000e+00" cType="1" res="-7.5168529292568564e-04" rms="4.1973710060119629e-01" purity="5.5669641494750977e-01" nType="-99"/>
            </Node>
            <Node pos="r" depth="3" NCoef="0" IVar="-1" Cut="0.0000000000000000e+00" cType="1" res="-2.4406653828918934e-03" rms="4.5021089911460876e-01" purity="5.0126576423645020e-01" nType="-99"/>
          </Node>
          <Node pos="r" depth="2" NCoef="0" IVar="-1" Cut="0.0000000000000000e+00" cType="1" res="9.9612388294190168e-04" rms="4.1771230101585388e-01" purity="6.0244858264923096e-01" nType="-99"/>
        </Node>
        <Node pos="r" depth="1" NCoef="0" IVar="2" Cut="2.1357152462005615e+00" cType="1" res="1.4569679042324424e-03" rms="4.1669392585754395e-01" purity="3.0063235759735107e-01" nType="0">
          <Node pos="l" depth="2" NCoef="0" IVar="-1" Cut="0.0000000000000000e+00" cType="1" res="2.8443960472941399e-03" rms="4.5799410343170166e-01" purity="4.3601503968238831e-01" nType="-99"/>
          <Node pos="r" depth="2" NCoef="0" IVar="-1" Cut="0.0000000000000000e+00" cType="1" res="-1.5792311169207096e-03" rms="3.8452258706092834e-01" purity="2.0409870147705078e-01" nType="-99"/>
        </Node>
      </Node>
    </BinaryTree>
    <BinaryTree type="DecisionTree" boostWeight="1.0000000000000000e+00" itree="223">
      <Node pos="s" depth="0" NCoef="0" IVar="2" Cut="1.9642339944839478e+00" cType="1" res="1.0617190855555236e-04" rms="4.1850927472114563e-01" purity="5.0000000000000000e-01" nType="0">
        <Node pos="l" depth="1" NCoef="0" IVar="2" Cut="1.4965569972991943e+00" cType="1" res="-2.9728421941399574e-04" rms="4.2303350567817688e-01" purity="5.5938524007797241e-01" nType="0">
          <Node pos="l" depth="2" NCoef="0" IVar="2" Cut="1.0689668655395508e+00" cType="1" res="4.2502331780269742e-04" rms="4.1708976030349731e-01" purity="5.7430452108383179e-01" nType="0">
            <Node pos="l" depth="3" NCoef="0" IVar="7" Cut="1.2642032623291016e+02" cType="1" res="-2.2084872762206942e-04" rms="4.0940728783607483e-01" purity="5.8266705274581909e-01" nType="0">
              <Node pos="l" depth="4" NCoef="0" IVar="7" Cut="5.4232620239257812e+01" cType="1" res="-9.3865435337647796e-04" rms="4.1690036654472351e-01" purity="5.5158364772796631e-01" nType="0">
                <Node pos="l" depth="5" NCoef="0" IVar="-1" Cut="0.0000000000000000e+00" cType="1" res="3.7651085294783115e-03" rms="4.4683694839477539e-01" purity="6.0739600658416748e-01" nType="-99"/>
                <Node pos="r" depth="5" NCoef="0" IVar="7" Cut="8.5170341491699219e+01" cType="1" res="-5.0523700192570686e-03" rms="4.0244224667549133e-01" purity="5.2613067626953125e-01" nType="0">
                  <Node pos="l" depth="6" NCoef="0" IVar="-1" Cut="0.0000000000000000e+00" cType="1" res="-5.6959567591547966e-03" rms="4.2136162519454956e-01" purity="5.4408884048461914e-01" nType="-99"/>
                  <Node pos="r" depth="6" NCoef="0" IVar="-1" Cut="0.0000000000000000e+00" cType="1" res="3.9117201231420040e-04" rms="3.8157534599304199e-01" purity="5.0735348463058472e-01" nType="-99"/>
                </Node>
              </Node>
              <Node pos="r" depth="4" NCoef="0" IVar="-1" Cut="0.0000000000000000e+00" cType="1" res="1.2604150688275695e-03" rms="3.8046678900718689e-01" purity="6.9738233089447021e-01" nType="-99"/>
            </Node>
            <Node pos="r" depth="3" NCoef="0" IVar="-1" Cut="0.0000000000000000e+00" cType="1" res="1.3310804497450590e-03" rms="4.4262081384658813e-01" purity="5.4538816213607788e-01" nType="-99"/>
          </Node>
          <Node pos="r" depth="2" NCoef="0" IVar="-1" Cut="0.0000000000000000e+00" cType="1" res="-2.3557168897241354e-03" rms="4.5636504888534546e-01" purity="4.7174611687660217e-01" nType="-99"/>
        </Node>
        <Node pos="r" depth="1" NCoef="0" IVar="-1" Cut="0.0000000000000000e+00" cType="1" res="1.9813729450106621e-03" rms="3.9784705638885498e-01" purity="2.3696684837341309e-01" nType="-99"/>
      </Node>
    </BinaryTree>
    <BinaryTree type="DecisionTree" boostWeight="1.0000000000000000e+00" itree="224">
      <Node pos="s" depth="0" NCoef="0" IVar="4" Cut="2.1428570747375488e+00" cType="1" res="7.3041373980231583e-05" rms="4.1849577426910400e-01" purity="5.0000000000000000e-01" nType="0">
        <Node pos="l" depth="1" NCoef="0" IVar="2" Cut="1.3092019557952881e+00" cType="1" res="4.4609734322875738e-04" rms="4.1815117001533508e-01" purity="4.7926604747772217e-01" nType="0">
          <Node pos="l" depth="2" NCoef="0" IVar="0" Cut="1.2626564502716064e+00" cType="1" res="-7.1025080978870392e-04" rms="4.1432282328605652e-01" purity="5.5419319868087769e-01" nType="0">
            <Node pos="l" depth="3" NCoef="0" IVar="2" Cut="8.1045645475387573e-01" cType="1" res="-1.4938055537641048e-03" rms="4.1433909535408020e-01" purity="5.4912668466567993e-01" nType="0">
              <Node pos="l" depth="4" NCoef="0" IVar="0" Cut="6.6138958930969238e-01" cType="1" res="-2.9164660372771323e-04" rms="4.0288034081459045e-01" purity="5.6611412763595581e-01" nType="0">
                <Node pos="l" depth="5" NCoef="0" IVar="-1" Cut="0.0000000000000000e+00" cType="1" res="-1.0303672170266509e-03" rms="4.0163376927375793e-01" purity="5.7070094347000122e-01" nType="-99"/>
                <Node pos="r" depth="5" NCoef="0" IVar="-1" Cut="0.0000000000000000e+00" cType="1" res="1.0422092163935304e-03" rms="4.0459203720092773e-01" purity="5.5975413322448730e-01" nType="-99"/>
              </Node>
              <Node pos="r" depth="4" NCoef="0" IVar="-1" Cut="0.0000000000000000e+00" cType="1" res="-2.2056456655263901e-03" rms="4.3891277909278870e-01" purity="5.1107108592987061e-01" nType="-99"/>
            </Node>
            <Node pos="r" depth="3" NCoef="0" IVar="-1" Cut="0.0000000000000000e+00" cType="1" res="8.1487488932907581e-04" rms="4.1426748037338257e-01" purity="5.6883895397186279e-01" nType="-99"/>
          </Node>
          <Node pos="r" depth="2" NCoef="0" IVar="2" Cut="2.1040716171264648e+00" cType="1" res="2.6087437290698290e-03" rms="4.2521011829376221e-01" purity="3.3913445472717285e-01" nType="0">
            <Node pos="l" depth="3" NCoef="0" IVar="-1" Cut="0.0000000000000000e+00" cType="1" res="3.3205144573003054e-03" rms="4.5325559377670288e-01" purity="4.3915727734565735e-01" nType="-99"/>
            <Node pos="r" depth="3" NCoef="0" IVar="-1" Cut="0.0000000000000000e+00" cType="1" res="-2.8633768670260906e-03" rms="3.8275957107543945e-01" purity="2.0005032420158386e-01" nType="-99"/>
          </Node>
        </Node>
        <Node pos="r" depth="1" NCoef="0" IVar="-1" Cut="0.0000000000000000e+00" cType="1" res="-8.1835885066539049e-04" rms="4.1995328664779663e-01" purity="5.8810079097747803e-01" nType="-99"/>
      </Node>
    </BinaryTree>
    <BinaryTree type="DecisionTree" boostWeight="1.0000000000000000e+00" itree="225">
      <Node pos="s" depth="0" NCoef="0" IVar="2" Cut="1.9642339944839478e+00" cType="1" res="7.8528108133468777e-05" rms="4.1849097609519958e-01" purity="5.0000000000000000e-01" nType="0">
        <Node pos="l" depth="1" NCoef="0" IVar="2" Cut="1.4965569972991943e+00" cType="1" res="-2.9225347680039704e-04" rms="4.2301461100578308e-01" purity="5.5938524007797241e-01" nType="0">
          <Node pos="l" depth="2" NCoef="0" IVar="6" Cut="1.1814180755615234e+02" cType="1" res="4.3684389675036073e-04" rms="4.1706895828247070e-01" purity="5.7430452108383179e-01" nType="0">
            <Node pos="l" depth="3" NCoef="0" IVar="4" Cut="7.1428573131561279e-01" cType="1" res="9.8312005866318941e-04" rms="4.1595232486724854e-01" purity="5.4280829429626465e-01" nType="0">
              <Node pos="l" depth="4" NCoef="0" IVar="-1" Cut="0.0000000000000000e+00" cType="1" res="3.4804784227162600e-03" rms="4.1263079643249512e-01" purity="3.7456998229026794e-01" nType="-99"/>
              <Node pos="r" depth="4" NCoef="0" IVar="5" Cut="1.2038918304443359e+02" cType="1" res="-1.2385017180349678e-04" rms="4.1680663824081421e-01" purity="5.8666032552719116e-01" nType="0">
                <Node pos="l" depth="5" NCoef="0" IVar="7" Cut="6.9733589172363281e+01" cType="1" res="4.1107637807726860e-03" rms="4.0643402934074402e-01" purity="5.2689021825790405e-01" nType="0">
                  <Node pos="l" depth="6" NCoef="0" IVar="-1" Cut="0.0000000000000000e+00" cType="1" res="4.3890294618904591e-03" rms="4.5282670855522156e-01" purity="5.5280232429504395e-01" nType="-99"/>
                  <Node pos="r" depth="6" NCoef="0" IVar="-1" Cut="0.0000000000000000e+00" cType="1" res="6.0507544549182057e-04" rms="3.7108060717582703e-01" purity="5.0903904438018799e-01" nType="-99"/>
                </Node>
                <Node pos="r" depth="5" NCoef="0" IVar="-1" Cut="0.0000000000000000e+00" cType="1" res="-3.8056927733123302e-03" rms="4.3726524710655212e-01" purity="7.0975476503372192e-01" nType="-99"/>
              </Node>
            </Node>
            <Node pos="r" depth="3" NCoef="0" IVar="-1" Cut="0.0000000000000000e+00" cType="1" res="-7.8298768494278193e-04" rms="4.2153096199035645e-01" purity="7.0120865106582642e-01" nType="-99"/>
          </Node>
          <Node pos="r" depth="2" NCoef="0" IVar="-1" Cut="0.0000000000000000e+00" cType="1" res="-2.3726716171950102e-03" rms="4.5635575056076050e-01" purity="4.7174611687660217e-01" nType="-99"/>
        </Node>
        <Node pos="r" depth="1" NCoef="0" IVar="-1" Cut="0.0000000000000000e+00" cType="1" res="1.8008599290624261e-03" rms="3.9783233404159546e-01" purity="2.3696684837341309e-01" nType="-99"/>
      </Node>
    </BinaryTree>
    <BinaryTree type="DecisionTree" boostWeight="1.0000000000000000e+00" itree="226">
      <Node pos="s" depth="0" NCoef="0" IVar="6" Cut="1.1814180755615234e+02" cType="1" res="-4.5390006562229246e-05" rms="4.1847598552703857e-01" purity="5.0000000000000000e-01" nType="0">
        <Node pos="l" depth="1" NCoef="0" IVar="6" Cut="4.2741188049316406e+01" cType="1" res="-4.2225254583172500e-04" rms="4.1638493537902832e-01" purity="4.7068229317665100e-01" nType="0">
          <Node pos="l" depth="2" NCoef="0" IVar="1" Cut="1.6387506723403931e+00" cType="1" res="-2.8756519313901663e-03" rms="4.2253261804580688e-01" purity="5.2372550964355469e-01" nType="0">
            <Node pos="l" depth="3" NCoef="0" IVar="-1" Cut="0.0000000000000000e+00" cType="1" res="-8.5181882604956627e-04" rms="4.2406997084617615e-01" purity="5.6510776281356812e-01" nType="-99"/>
            <Node pos="r" depth="3" NCoef="0" IVar="-1" Cut="0.0000000000000000e+00" cType="1" res="-2.7181706391274929e-03" rms="4.2073053121566772e-01" purity="4.7555559873580933e-01" nType="-99"/>
          </Node>
          <Node pos="r" depth="2" NCoef="0" IVar="1" Cut="1.7327347993850708e+00" cType="1" res="4.6550389379262924e-04" rms="4.1413435339927673e-01" purity="4.5148873329162598e-01" nType="0">
            <Node pos="l" depth="3" NCoef="0" IVar="2" Cut="1.4420267343521118e+00" cType="1" res="-1.0287553304806352e-03" rms="4.0605318546295166e-01" purity="4.2594793438911438e-01" nType="0">
              <Node pos="l" depth="4" NCoef="0" IVar="2" Cut="4.8067691922187805e-01" cType="1" res="1.4305013464763761e-03" rms="4.0447247028350830e-01" purity="4.8557060956954956e-01" nType="0">
                <Node pos="l" depth="5" NCoef="0" IVar="-1" Cut="0.0000000000000000e+00" cType="1" res="-5.6302244774997234e-04" rms="3.9058515429496765e-01" purity="5.0000375509262085e-01" nType="-99"/>
                <Node pos="r" depth="5" NCoef="0" IVar="-1" Cut="0.0000000000000000e+00" cType="1" res="1.6776901902630925e-03" rms="4.1263324022293091e-01" purity="4.7684684395790100e-01" nType="-99"/>
              </Node>
              <Node pos="r" depth="4" NCoef="0" IVar="-1" Cut="0.0000000000000000e+00" cType="1" res="-6.2192347832024097e-03" rms="4.0987011790275574e-01" purity="2.7860316634178162e-01" nType="-99"/>
            </Node>
            <Node pos="r" depth="3" NCoef="0" IVar="-1" Cut="0.0000000000000000e+00" cType="1" res="1.8226780230179429e-03" rms="4.2908063530921936e-01" purity="5.0010073184967041e-01" nType="-99"/>
          </Node>
        </Node>
        <Node pos="r" depth="1" NCoef="0" IVar="-1" Cut="0.0000000000000000e+00" cType="1" res="8.3147495752200484e-04" rms="4.2848622798919678e-01" purity="6.4245134592056274e-01" nType="-99"/>
      </Node>
    </BinaryTree>
    <BinaryTree type="DecisionTree" boostWeight="1.0000000000000000e+00" itree="227">
      <Node pos="s" depth="0" NCoef="0" IVar="2" Cut="1.6368615627288818e+00" cType="1" res="5.3470306738745421e-05" rms="4.1846969723701477e-01" purity="5.0000000000000000e-01" nType="0">
        <Node pos="l" depth="1" NCoef="0" IVar="1" Cut="2.0901491641998291e+00" cType="1" res="-5.4252881091088057e-04" rms="4.1911059617996216e-01" purity="5.7055962085723877e-01" nType="0">
          <Node pos="l" depth="2" NCoef="0" IVar="2" Cut="4.6767932176589966e-01" cType="1" res="2.1147765801288188e-04" rms="4.1419026255607605e-01" purity="5.5187791585922241e-01" nType="0">
            <Node pos="l" depth="3" NCoef="0" IVar="-1" Cut="0.0000000000000000e+00" cType="1" res="-7.8814465086907148e-04" rms="3.9509415626525879e-01" purity="5.7992154359817505e-01" nType="-99"/>
            <Node pos="r" depth="3" NCoef="0" IVar="1" Cut="5.9718716144561768e-01" cType="1" res="1.0592340258881450e-03" rms="4.2382144927978516e-01" purity="5.3722816705703735e-01" nType="0">
              <Node pos="l" depth="4" NCoef="0" IVar="-1" Cut="0.0000000000000000e+00" cType="1" res="2.0434204488992691e-03" rms="4.1586506366729736e-01" purity="5.3327327966690063e-01" nType="-99"/>
              <Node pos="r" depth="4" NCoef="0" IVar="0" Cut="9.3848514556884766e-01" cType="1" res="-5.5152264394564554e-05" rms="4.2714565992355347e-01" purity="5.3890520334243774e-01" nType="0">
                <Node pos="l" depth="5" NCoef="0" IVar="-1" Cut="0.0000000000000000e+00" cType="1" res="-1.4306457014754415e-03" rms="4.3480354547500610e-01" purity="5.4436659812927246e-01" nType="-99"/>
                <Node pos="r" depth="5" NCoef="0" IVar="-1" Cut="0.0000000000000000e+00" cType="1" res="1.7706198850646615e-03" rms="4.1780722141265869e-01" purity="5.3239285945892334e-01" nType="-99"/>
              </Node>
            </Node>
          </Node>
          <Node pos="r" depth="2" NCoef="0" IVar="-1" Cut="0.0000000000000000e+00" cType="1" res="-1.4268080703914165e-03" rms="4.3509480357170105e-01" purity="6.3280916213989258e-01" nType="-99"/>
        </Node>
        <Node pos="r" depth="1" NCoef="0" IVar="5" Cut="2.3420921325683594e+02" cType="1" res="1.7374778399243951e-03" rms="4.1664892435073853e-01" purity="3.0063235759735107e-01" nType="0">
          <Node pos="l" depth="2" NCoef="0" IVar="-1" Cut="0.0000000000000000e+00" cType="1" res="3.1482134945690632e-03" rms="4.2762416601181030e-01" purity="3.3556798100471497e-01" nType="-99"/>
          <Node pos="r" depth="2" NCoef="0" IVar="-1" Cut="0.0000000000000000e+00" cType="1" res="-2.1196154411882162e-03" rms="3.9906117320060730e-01" purity="2.4663858115673065e-01" nType="-99"/>
        </Node>
      </Node>
    </BinaryTree>
    <BinaryTree type="DecisionTree" boostWeight="1.0000000000000000e+00" itree="228">
      <Node pos="s" depth="0" NCoef="0" IVar="2" Cut="1.6368615627288818e+00" cType="1" res="1.1202043424418662e-05" rms="4.1846761107444763e-01" purity="5.0000000000000000e-01" nType="0">
        <Node pos="l" depth="1" NCoef="0" IVar="0" Cut="1.5652508735656738e+00" cType="1" res="-4.5398145448416471e-04" rms="4.1910693049430847e-01" purity="5.7055962085723877e-01" nType="0">
          <Node pos="l" depth="2" NCoef="0" IVar="2" Cut="1.1691864728927612e+00" cType="1" res="1.9081280333921313e-04" rms="4.1989719867706299e-01" purity="5.6369990110397339e-01" nType="0">
            <Node pos="l" depth="3" NCoef="0" IVar="1" Cut="1.4920955896377563e+00" cType="1" res="9.4372959574684501e-04" rms="4.1214942932128906e-01" purity="5.7827609777450562e-01" nType="0">
              <Node pos="l" depth="4" NCoef="0" IVar="2" Cut="7.2378361225128174e-01" cType="1" res="-1.5998724848031998e-05" rms="4.0180233120918274e-01" purity="5.5447393655776978e-01" nType="0">
                <Node pos="l" depth="5" NCoef="0" IVar="0" Cut="5.2173388004302979e-01" cType="1" res="-1.6025892691686749e-03" rms="3.9155888557434082e-01" purity="5.5955523252487183e-01" nType="0">
                  <Node pos="l" depth="6" NCoef="0" IVar="-1" Cut="0.0000000000000000e+00" cType="1" res="3.2370074768550694e-04" rms="3.9838942885398865e-01" purity="5.8556246757507324e-01" nType="-99"/>
                  <Node pos="r" depth="6" NCoef="0" IVar="-1" Cut="0.0000000000000000e+00" cType="1" res="-2.6596714742481709e-03" rms="3.8290169835090637e-01" purity="5.2730405330657959e-01" nType="-99"/>
                </Node>
                <Node pos="r" depth="5" NCoef="0" IVar="-1" Cut="0.0000000000000000e+00" cType="1" res="1.7620458966121078e-03" rms="4.2201760411262512e-01" purity="5.4405128955841064e-01" nType="-99"/>
              </Node>
              <Node pos="r" depth="4" NCoef="0" IVar="-1" Cut="0.0000000000000000e+00" cType="1" res="1.5126115176826715e-03" rms="4.3603068590164185e-01" purity="6.3554328680038452e-01" nType="-99"/>
            </Node>
            <Node pos="r" depth="3" NCoef="0" IVar="-1" Cut="0.0000000000000000e+00" cType="1" res="-1.5235487371683121e-03" rms="4.5130345225334167e-01" purity="5.0180536508560181e-01" nType="-99"/>
          </Node>
          <Node pos="r" depth="2" NCoef="0" IVar="-1" Cut="0.0000000000000000e+00" cType="1" res="-1.4885959681123495e-03" rms="4.1608849167823792e-01" purity="5.9656268358230591e-01" nType="-99"/>
        </Node>
        <Node pos="r" depth="1" NCoef="0" IVar="3" Cut="2.0000000000000000e+00" cType="1" res="3.9410749450325966e-03" rms="4.0339058637619019e-01" purity="3.0063235759735107e-01" nType="0">
          <Node pos="l" depth="2" NCoef="0" IVar="-1" Cut="0.0000000000000000e+00" cType="1" res="-8.4415124729275703e-04" rms="4.2149919271469116e-01" purity="3.2753676176071167e-01" nType="-99"/>
          <Node pos="r" depth="2" NCoef="0" IVar="-1" Cut="0.0000000000000000e+00" cType="1" res="3.9781644009053707e-03" rms="4.1062730550765991e-01" purity="2.6772224903106689e-01" nType="-99"/>
        </Node>
      </Node>
    </BinaryTree>
    <BinaryTree type="DecisionTree" boostWeight="1.0000000000000000e+00" itree="229">
      <Node pos="s" depth="0" NCoef="0" IVar="6" Cut="1.1814180755615234e+02" cType="1" res="-2.6870839064940810e-05" rms="4.1846227645874023e-01" purity="5.0000000000000000e-01" nType="0">
        <Node pos="l" depth="1" NCoef="0" IVar="3" Cut="2.0000000000000000e+00" cType="1" res="7.3869735933840275e-04" rms="4.1169381141662598e-01" purity="4.7068229317665100e-01" nType="0">
          <Node pos="l" depth="2" NCoef="0" IVar="5" Cut="1.0866986846923828e+02" cType="1" res="5.5634812451899052e-04" rms="4.1547664999961853e-01" purity="5.0974237918853760e-01" nType="0">
            <Node pos="l" depth="3" NCoef="0" IVar="-1" Cut="0.0000000000000000e+00" cType="1" res="-1.8028329359367490e-03" rms="3.9516207575798035e-01" purity="4.5794811844825745e-01" nType="-99"/>
            <Node pos="r" depth="3" NCoef="0" IVar="7" Cut="7.5721290588378906e+01" cType="1" res="2.2188336588442326e-03" rms="4.2537072300910950e-01" purity="5.3593432903289795e-01" nType="0">
              <Node pos="l" depth="4" NCoef="0" IVar="-1" Cut="0.0000000000000000e+00" cType="1" res="-1.0664595756679773e-03" rms="4.3823808431625366e-01" purity="4.7912317514419556e-01" nType="-99"/>
              <Node pos="r" depth="4" NCoef="0" IVar="-1" Cut="0.0000000000000000e+00" cType="1" res="3.3708447590470314e-03" rms="4.1222134232521057e-01" purity="5.9206831455230713e-01" nType="-99"/>
            </Node>
          </Node>
          <Node pos="r" depth="2" NCoef="0" IVar="5" Cut="1.4449981689453125e+02" cType="1" res="-2.5386728812009096e-03" rms="4.1853758692741394e-01" purity="3.7553235888481140e-01" nType="0">
            <Node pos="l" depth="3" NCoef="0" IVar="-1" Cut="0.0000000000000000e+00" cType="1" res="1.2298069195821881e-03" rms="4.2116695642471313e-01" purity="4.2416253685951233e-01" nType="-99"/>
            <Node pos="r" depth="3" NCoef="0" IVar="-1" Cut="0.0000000000000000e+00" cType="1" res="-5.1356819458305836e-03" rms="4.1603702306747437e-01" purity="3.3036094903945923e-01" nType="-99"/>
          </Node>
        </Node>
        <Node pos="r" depth="1" NCoef="0" IVar="-1" Cut="0.0000000000000000e+00" cType="1" res="7.0606620283797383e-04" rms="4.2846930027008057e-01" purity="6.4245134592056274e-01" nType="-99"/>
      </Node>
    </BinaryTree>
    <BinaryTree type="DecisionTree" boostWeight="1.0000000000000000e+00" itree="230">
      <Node pos="s" depth="0" NCoef="0" IVar="2" Cut="1.3094892501831055e+00" cType="1" res="6.0750284319510683e-05" rms="4.1845592856407166e-01" purity="5.0000000000000000e-01" nType="0">
        <Node pos="l" depth="1" NCoef="0" IVar="2" Cut="5.6120806932449341e-01" cType="1" res="-5.7673256378620863e-04" rms="4.1396522521972656e-01" purity="5.7867580652236938e-01" nType="0">
          <Node pos="l" depth="2" NCoef="0" IVar="7" Cut="8.3314987182617188e+01" cType="1" res="4.4783344492316246e-04" rms="4.0211752057075500e-01" purity="5.9327149391174316e-01" nType="0">
            <Node pos="l" depth="3" NCoef="0" IVar="-1" Cut="0.0000000000000000e+00" cType="1" res="1.1877290671691298e-03" rms="4.3060377240180969e-01" purity="5.9066891670227051e-01" nType="-99"/>
            <Node pos="r" depth="3" NCoef="0" IVar="-1" Cut="0.0000000000000000e+00" cType="1" res="-8.9499412570148706e-04" rms="3.7024208903312683e-01" purity="5.9597176313400269e-01" nType="-99"/>
          </Node>
          <Node pos="r" depth="2" NCoef="0" IVar="1" Cut="1.4332456588745117e+00" cType="1" res="-1.5058296266943216e-03" rms="4.2442095279693604e-01" purity="5.6544017791748047e-01" nType="0">
            <Node pos="l" depth="3" NCoef="0" IVar="-1" Cut="0.0000000000000000e+00" cType="1" res="1.9393152615521103e-04" rms="4.1619718074798584e-01" purity="5.4295605421066284e-01" nType="-99"/>
            <Node pos="r" depth="3" NCoef="0" IVar="-1" Cut="0.0000000000000000e+00" cType="1" res="-1.8711584853008389e-03" rms="4.3448683619499207e-01" purity="5.9359109401702881e-01" nType="-99"/>
          </Node>
        </Node>
        <Node pos="r" depth="1" NCoef="0" IVar="2" Cut="1.8395206928253174e+00" cType="1" res="1.1679076123982668e-03" rms="4.2614048719406128e-01" purity="3.6335864663124084e-01" nType="0">
          <Node pos="l" depth="2" NCoef="0" IVar="-1" Cut="0.0000000000000000e+00" cType="1" res="2.0349361002445221e-03" rms="4.5208165049552917e-01" purity="5.0349330902099609e-01" nType="-99"/>
          <Node pos="r" depth="2" NCoef="0" IVar="1" Cut="1.6387506723403931e+00" cType="1" res="-9.4843283295631409e-04" rms="4.0599197149276733e-01" purity="2.6029297709465027e-01" nType="0">
            <Node pos="l" depth="3" NCoef="0" IVar="-1" Cut="0.0000000000000000e+00" cType="1" res="-5.7200072333216667e-03" rms="4.0350174903869629e-01" purity="2.5193381309509277e-01" nType="-99"/>
            <Node pos="r" depth="3" NCoef="0" IVar="-1" Cut="0.0000000000000000e+00" cType="1" res="3.8229578640311956e-03" rms="4.0849527716636658e-01" purity="2.6896303892135620e-01" nType="-99"/>
          </Node>
        </Node>
      </Node>
    </BinaryTree>
    <BinaryTree type="DecisionTree" boostWeight="1.0000000000000000e+00" itree="231">
      <Node pos="s" depth="0" NCoef="0" IVar="2" Cut="1.9642339944839478e+00" cType="1" res="6.6100103140342981e-05" rms="4.1844853758811951e-01" purity="5.0000000000000000e-01" nType="0">
        <Node pos="l" depth="1" NCoef="0" IVar="1" Cut="2.0901491641998291e+00" cType="1" res="-3.4561270149424672e-04" rms="4.2297592759132385e-01" purity="5.5938524007797241e-01" nType="0">
          <Node pos="l" depth="2" NCoef="0" IVar="2" Cut="1.0288866758346558e+00" cType="1" res="4.5650318497791886e-04" rms="4.1807776689529419e-01" purity="5.4150903224945068e-01" nType="0">
            <Node pos="l" depth="3" NCoef="0" IVar="3" Cut="2.0000000000000000e+00" cType="1" res="4.7134506166912615e-04" rms="3.9266353845596313e-01" purity="5.6417810916900635e-01" nType="0">
              <Node pos="l" depth="4" NCoef="0" IVar="1" Cut="9.9531930685043335e-01" cType="1" res="2.8822620515711606e-04" rms="4.0098685026168823e-01" purity="5.8860582113265991e-01" nType="0">
                <Node pos="l" depth="5" NCoef="0" IVar="-1" Cut="0.0000000000000000e+00" cType="1" res="1.2445149477571249e-03" rms="3.9218008518218994e-01" purity="5.8773249387741089e-01" nType="-99"/>
                <Node pos="r" depth="5" NCoef="0" IVar="-1" Cut="0.0000000000000000e+00" cType="1" res="-8.8433903874829412e-04" rms="4.0982392430305481e-01" purity="5.8950257301330566e-01" nType="-99"/>
              </Node>
              <Node pos="r" depth="4" NCoef="0" IVar="-1" Cut="0.0000000000000000e+00" cType="1" res="-1.5557877486571670e-03" rms="4.0740916132926941e-01" purity="5.0154995918273926e-01" nType="-99"/>
            </Node>
            <Node pos="r" depth="3" NCoef="0" IVar="1" Cut="9.9529725313186646e-01" cType="1" res="2.3448062129318714e-03" rms="4.4510266184806824e-01" purity="4.9932903051376343e-01" nType="0">
              <Node pos="l" depth="4" NCoef="0" IVar="-1" Cut="0.0000000000000000e+00" cType="1" res="7.6119190453027841e-06" rms="4.4146761298179626e-01" purity="4.9747166037559509e-01" nType="-99"/>
              <Node pos="r" depth="4" NCoef="0" IVar="-1" Cut="0.0000000000000000e+00" cType="1" res="2.3375158198177814e-03" rms="4.4847470521926880e-01" purity="5.0107133388519287e-01" nType="-99"/>
            </Node>
          </Node>
          <Node pos="r" depth="2" NCoef="0" IVar="-1" Cut="0.0000000000000000e+00" cType="1" res="-1.3922976795583963e-03" rms="4.3864279985427856e-01" purity="6.1800020933151245e-01" nType="-99"/>
        </Node>
        <Node pos="r" depth="1" NCoef="0" IVar="-1" Cut="0.0000000000000000e+00" cType="1" res="1.9793268293142319e-03" rms="3.9777138829231262e-01" purity="2.3696684837341309e-01" nType="-99"/>
      </Node>
    </BinaryTree>
    <BinaryTree type="DecisionTree" boostWeight="1.0000000000000000e+00" itree="232">
      <Node pos="s" depth="0" NCoef="0" IVar="4" Cut="2.1428570747375488e+00" cType="1" res="-6.7080136432196014e-06" rms="4.1844451427459717e-01" purity="5.0000000000000000e-01" nType="0">
        <Node pos="l" depth="1" NCoef="0" IVar="2" Cut="1.3092019557952881e+00" cType="1" res="3.2054216717369854e-04" rms="4.1810241341590881e-01" purity="4.7926604747772217e-01" nType="0">
          <Node pos="l" depth="2" NCoef="0" IVar="0" Cut="1.2626564502716064e+00" cType="1" res="-6.7415647208690643e-04" rms="4.1428124904632568e-01" purity="5.5419319868087769e-01" nType="0">
            <Node pos="l" depth="3" NCoef="0" IVar="2" Cut="8.1045645475387573e-01" cType="1" res="-1.5255515463650227e-03" rms="4.1430392861366272e-01" purity="5.4912668466567993e-01" nType="0">
              <Node pos="l" depth="4" NCoef="0" IVar="0" Cut="6.6138958930969238e-01" cType="1" res="-3.5039015347138047e-04" rms="4.0284588932991028e-01" purity="5.6611412763595581e-01" nType="0">
                <Node pos="l" depth="5" NCoef="0" IVar="-1" Cut="0.0000000000000000e+00" cType="1" res="-1.0191161418333650e-03" rms="4.0160274505615234e-01" purity="5.7070094347000122e-01" nType="-99"/>
                <Node pos="r" depth="5" NCoef="0" IVar="-1" Cut="0.0000000000000000e+00" cType="1" res="9.5206307014450431e-04" rms="4.0455383062362671e-01" purity="5.5975413322448730e-01" nType="-99"/>
              </Node>
              <Node pos="r" depth="4" NCoef="0" IVar="-1" Cut="0.0000000000000000e+00" cType="1" res="-2.1887114271521568e-03" rms="4.3887659907341003e-01" purity="5.1107108592987061e-01" nType="-99"/>
            </Node>
            <Node pos="r" depth="3" NCoef="0" IVar="-1" Cut="0.0000000000000000e+00" cType="1" res="9.3543494585901499e-04" rms="4.1420590877532959e-01" purity="5.6883895397186279e-01" nType="-99"/>
          </Node>
          <Node pos="r" depth="2" NCoef="0" IVar="2" Cut="1.8391157388687134e+00" cType="1" res="2.1808657329529524e-03" rms="4.2515045404434204e-01" purity="3.3913445472717285e-01" nType="0">
            <Node pos="l" depth="3" NCoef="0" IVar="-1" Cut="0.0000000000000000e+00" cType="1" res="3.1109969131648540e-03" rms="4.5323187112808228e-01" purity="4.6075320243835449e-01" nType="-99"/>
            <Node pos="r" depth="3" NCoef="0" IVar="-1" Cut="0.0000000000000000e+00" cType="1" res="-6.7219400079920888e-04" rms="4.0227666497230530e-01" purity="2.4590912461280823e-01" nType="-99"/>
          </Node>
        </Node>
        <Node pos="r" depth="1" NCoef="0" IVar="-1" Cut="0.0000000000000000e+00" cType="1" res="-7.5563305290415883e-04" rms="4.1989213228225708e-01" purity="5.8810079097747803e-01" nType="-99"/>
      </Node>
    </BinaryTree>
    <BinaryTree type="DecisionTree" boostWeight="1.0000000000000000e+00" itree="233">
      <Node pos="s" depth="0" NCoef="0" IVar="2" Cut="1.9642339944839478e+00" cType="1" res="-6.5858012021635659e-06" rms="4.1844075918197632e-01" purity="5.0000000000000000e-01" nType="0">
        <Node pos="l" depth="1" NCoef="0" IVar="2" Cut="1.4965569972991943e+00" cType="1" res="-3.4193336614407599e-04" rms="4.2296755313873291e-01" purity="5.5938524007797241e-01" nType="0">
          <Node pos="l" depth="2" NCoef="0" IVar="6" Cut="1.1814180755615234e+02" cType="1" res="3.7677295040339231e-04" rms="4.1702294349670410e-01" purity="5.7430452108383179e-01" nType="0">
            <Node pos="l" depth="3" NCoef="0" IVar="1" Cut="1.1190654039382935e+00" cType="1" res="8.6368393385782838e-04" rms="4.1590085625648499e-01" purity="5.4280829429626465e-01" nType="0">
              <Node pos="l" depth="4" NCoef="0" IVar="6" Cut="6.4917823791503906e+01" cType="1" res="-1.6753847012296319e-03" rms="4.0262040495872498e-01" purity="5.0974798202514648e-01" nType="0">
                <Node pos="l" depth="5" NCoef="0" IVar="-1" Cut="0.0000000000000000e+00" cType="1" res="-3.1707515008747578e-03" rms="3.9935716986656189e-01" purity="5.5468553304672241e-01" nType="-99"/>
                <Node pos="r" depth="5" NCoef="0" IVar="-1" Cut="0.0000000000000000e+00" cType="1" res="9.9773379042744637e-04" rms="4.0553122758865356e-01" purity="4.6895608305931091e-01" nType="-99"/>
              </Node>
              <Node pos="r" depth="4" NCoef="0" IVar="0" Cut="1.5178593397140503e+00" cType="1" res="2.8830692172050476e-03" rms="4.2615699768066406e-01" purity="5.6910204887390137e-01" nType="0">
                <Node pos="l" depth="5" NCoef="0" IVar="-1" Cut="0.0000000000000000e+00" cType="1" res="2.3732124827802181e-03" rms="4.3597498536109924e-01" purity="5.6057173013687134e-01" nType="-99"/>
                <Node pos="r" depth="5" NCoef="0" IVar="-1" Cut="0.0000000000000000e+00" cType="1" res="9.2653455794788897e-05" rms="4.1116979718208313e-01" purity="5.8173650503158569e-01" nType="-99"/>
              </Node>
            </Node>
            <Node pos="r" depth="3" NCoef="0" IVar="-1" Cut="0.0000000000000000e+00" cType="1" res="-7.0299196522682905e-04" rms="4.2150798439979553e-01" purity="7.0120865106582642e-01" nType="-99"/>
          </Node>
          <Node pos="r" depth="2" NCoef="0" IVar="-1" Cut="0.0000000000000000e+00" cType="1" res="-2.3671875242143869e-03" rms="4.5630362629890442e-01" purity="4.7174611687660217e-01" nType="-99"/>
        </Node>
        <Node pos="r" depth="1" NCoef="0" IVar="-1" Cut="0.0000000000000000e+00" cType="1" res="1.5476474072784185e-03" rms="3.9776799082756042e-01" purity="2.3696684837341309e-01" nType="-99"/>
      </Node>
    </BinaryTree>
    <BinaryTree type="DecisionTree" boostWeight="1.0000000000000000e+00" itree="234">
      <Node pos="s" depth="0" NCoef="0" IVar="1" Cut="5.4624921083450317e-01" cType="1" res="-3.6835968785453588e-05" rms="4.1843447089195251e-01" purity="5.0000000000000000e-01" nType="0">
        <Node pos="l" depth="1" NCoef="0" IVar="-1" Cut="0.0000000000000000e+00" cType="1" res="9.1687706299126148e-04" rms="4.0789639949798584e-01" purity="4.9344882369041443e-01" nType="-99"/>
        <Node pos="r" depth="1" NCoef="0" IVar="3" Cut="2.0000000000000000e+00" cType="1" res="6.8612943869084120e-04" rms="4.1610217094421387e-01" purity="5.0159680843353271e-01" nType="0">
          <Node pos="l" depth="2" NCoef="0" IVar="2" Cut="1.2772881984710693e+00" cType="1" res="-1.1740610934793949e-03" rms="4.1878661513328552e-01" purity="5.3003513813018799e-01" nType="0">
            <Node pos="l" depth="3" NCoef="0" IVar="4" Cut="7.1428573131561279e-01" cType="1" res="1.2800713011529297e-04" rms="4.1373604536056519e-01" purity="5.9909737110137939e-01" nType="0">
              <Node pos="l" depth="4" NCoef="0" IVar="-1" Cut="0.0000000000000000e+00" cType="1" res="1.1522738495841622e-03" rms="4.2848715186119080e-01" purity="4.9018049240112305e-01" nType="-99"/>
              <Node pos="r" depth="4" NCoef="0" IVar="-1" Cut="0.0000000000000000e+00" cType="1" res="-4.1372599662281573e-04" rms="4.0655225515365601e-01" purity="6.5073400735855103e-01" nType="-99"/>
            </Node>
            <Node pos="r" depth="3" NCoef="0" IVar="-1" Cut="0.0000000000000000e+00" cType="1" res="-2.3501480463892221e-03" rms="4.2833185195922852e-01" purity="3.9706680178642273e-01" nType="-99"/>
          </Node>
          <Node pos="r" depth="2" NCoef="0" IVar="7" Cut="8.3244873046875000e+01" cType="1" res="1.1369799030944705e-03" rms="4.2538303136825562e-01" purity="4.4330057501792908e-01" nType="0">
            <Node pos="l" depth="3" NCoef="0" IVar="-1" Cut="0.0000000000000000e+00" cType="1" res="-9.0371572878211737e-04" rms="4.3173697590827942e-01" purity="4.3958064913749695e-01" nType="-99"/>
            <Node pos="r" depth="3" NCoef="0" IVar="-1" Cut="0.0000000000000000e+00" cType="1" res="2.7720886282622814e-03" rms="4.1700634360313416e-01" purity="4.4810646772384644e-01" nType="-99"/>
          </Node>
        </Node>
      </Node>
    </BinaryTree>
    <BinaryTree type="DecisionTree" boostWeight="1.0000000000000000e+00" itree="235">
      <Node pos="s" depth="0" NCoef="0" IVar="2" Cut="1.6368615627288818e+00" cType="1" res="-1.4371862562256865e-05" rms="4.1843071579933167e-01" purity="5.0000000000000000e-01" nType="0">
        <Node pos="l" depth="1" NCoef="0" IVar="0" Cut="1.3695946931838989e+00" cType="1" res="-3.9050675695762038e-04" rms="4.1907688975334167e-01" purity="5.7055962085723877e-01" nType="0">
          <Node pos="l" depth="2" NCoef="0" IVar="0" Cut="7.8262102603912354e-01" cType="1" res="-1.0745081817731261e-03" rms="4.1955408453941345e-01" purity="5.6015050411224365e-01" nType="0">
            <Node pos="l" depth="3" NCoef="0" IVar="0" Cut="4.0994197130203247e-01" cType="1" res="4.8614779370836914e-04" rms="4.1902974247932434e-01" purity="5.6613135337829590e-01" nType="0">
              <Node pos="l" depth="4" NCoef="0" IVar="-1" Cut="0.0000000000000000e+00" cType="1" res="-5.4841523524373770e-04" rms="4.1879624128341675e-01" purity="5.6477445363998413e-01" nType="-99"/>
              <Node pos="r" depth="4" NCoef="0" IVar="-1" Cut="0.0000000000000000e+00" cType="1" res="1.1872400064021349e-03" rms="4.1929420828819275e-01" purity="5.6770980358123779e-01" nType="-99"/>
            </Node>
            <Node pos="r" depth="3" NCoef="0" IVar="-1" Cut="0.0000000000000000e+00" cType="1" res="-2.0374141167849302e-03" rms="4.2046794295310974e-01" purity="5.4954624176025391e-01" nType="-99"/>
          </Node>
          <Node pos="r" depth="2" NCoef="0" IVar="-1" Cut="0.0000000000000000e+00" cType="1" res="8.6760870181024075e-04" rms="4.1760456562042236e-01" purity="6.0244858264923096e-01" nType="-99"/>
        </Node>
        <Node pos="r" depth="1" NCoef="0" IVar="5" Cut="2.3420921325683594e+02" cType="1" res="1.0484048398211598e-03" rms="4.1659769415855408e-01" purity="3.0063235759735107e-01" nType="0">
          <Node pos="l" depth="2" NCoef="0" IVar="-1" Cut="0.0000000000000000e+00" cType="1" res="2.3740578908473253e-03" rms="4.2761942744255066e-01" purity="3.3556798100471497e-01" nType="-99"/>
          <Node pos="r" depth="2" NCoef="0" IVar="-1" Cut="0.0000000000000000e+00" cType="1" res="-2.2419907618314028e-03" rms="3.9894133806228638e-01" purity="2.4663858115673065e-01" nType="-99"/>
        </Node>
      </Node>
    </BinaryTree>
    <BinaryTree type="DecisionTree" boostWeight="1.0000000000000000e+00" itree="236">
      <Node pos="s" depth="0" NCoef="0" IVar="6" Cut="1.1814180755615234e+02" cType="1" res="-1.5822039131307974e-05" rms="4.1843044757843018e-01" purity="5.0000000000000000e-01" nType="0">
        <Node pos="l" depth="1" NCoef="0" IVar="0" Cut="1.8972072601318359e+00" cType="1" res="-3.1677988590672612e-04" rms="4.1634133458137512e-01" purity="4.7068229317665100e-01" nType="0">
          <Node pos="l" depth="2" NCoef="0" IVar="5" Cut="1.4124215698242188e+02" cType="1" res="4.5713339932262897e-04" rms="4.1982746124267578e-01" purity="4.7791203856468201e-01" nType="0">
            <Node pos="l" depth="3" NCoef="0" IVar="5" Cut="8.0040176391601562e+01" cType="1" res="-1.8675551982596517e-03" rms="4.0873703360557556e-01" purity="4.7496497631072998e-01" nType="0">
              <Node pos="l" depth="4" NCoef="0" IVar="-1" Cut="0.0000000000000000e+00" cType="1" res="5.6758713908493519e-03" rms="3.7533730268478394e-01" purity="2.4282410740852356e-01" nType="-99"/>
              <Node pos="r" depth="4" NCoef="0" IVar="2" Cut="8.0303972959518433e-01" cType="1" res="-4.8980251885950565e-03" rms="4.2114868760108948e-01" purity="5.6655883789062500e-01" nType="0">
                <Node pos="l" depth="5" NCoef="0" IVar="-1" Cut="0.0000000000000000e+00" cType="1" res="7.9711002763360739e-04" rms="4.1148865222930908e-01" purity="6.2966793775558472e-01" nType="-99"/>
                <Node pos="r" depth="5" NCoef="0" IVar="-1" Cut="0.0000000000000000e+00" cType="1" res="-6.2495716847479343e-03" rms="4.3018412590026855e-01" purity="5.0559288263320923e-01" nType="-99"/>
              </Node>
            </Node>
            <Node pos="r" depth="3" NCoef="0" IVar="0" Cut="7.2274410724639893e-01" cType="1" res="4.3685454875230789e-03" rms="4.3782636523246765e-01" purity="4.8287075757980347e-01" nType="0">
              <Node pos="l" depth="4" NCoef="0" IVar="-1" Cut="0.0000000000000000e+00" cType="1" res="7.1710726479068398e-04" rms="4.4727286696434021e-01" purity="5.3366100788116455e-01" nType="-99"/>
              <Node pos="r" depth="4" NCoef="0" IVar="-1" Cut="0.0000000000000000e+00" cType="1" res="4.0081371553242207e-03" rms="4.3005254864692688e-01" purity="4.4196322560310364e-01" nType="-99"/>
            </Node>
          </Node>
          <Node pos="r" depth="2" NCoef="0" IVar="-1" Cut="0.0000000000000000e+00" cType="1" res="-2.0095580257475376e-03" rms="4.0374839305877686e-01" purity="4.4509232044219971e-01" nType="-99"/>
        </Node>
        <Node pos="r" depth="1" NCoef="0" IVar="-1" Cut="0.0000000000000000e+00" cType="1" res="6.7335320636630058e-04" rms="4.2843332886695862e-01" purity="6.4245134592056274e-01" nType="-99"/>
      </Node>
    </BinaryTree>
    <BinaryTree type="DecisionTree" boostWeight="1.0000000000000000e+00" itree="237">
      <Node pos="s" depth="0" NCoef="0" IVar="2" Cut="9.8211699724197388e-01" cType="1" res="-5.2775882068090141e-05" rms="4.1840675473213196e-01" purity="5.0000000000000000e-01" nType="0">
        <Node pos="l" depth="1" NCoef="0" IVar="0" Cut="9.8893153667449951e-01" cType="1" res="-7.9560704762116075e-04" rms="4.0781778097152710e-01" purity="5.8405864238739014e-01" nType="0">
          <Node pos="l" depth="2" NCoef="0" IVar="2" Cut="3.7414050102233887e-01" cType="1" res="-9.8790933407144621e-06" rms="4.0722846984863281e-01" purity="5.8452814817428589e-01" nType="0">
            <Node pos="l" depth="3" NCoef="0" IVar="-1" Cut="0.0000000000000000e+00" cType="1" res="1.2842965079471469e-03" rms="4.0023592114448547e-01" purity="6.1196625232696533e-01" nType="-99"/>
            <Node pos="r" depth="3" NCoef="0" IVar="-1" Cut="0.0000000000000000e+00" cType="1" res="-8.9572754222899675e-04" rms="4.1196963191032410e-01" purity="5.6562089920043945e-01" nType="-99"/>
          </Node>
          <Node pos="r" depth="2" NCoef="0" IVar="-1" Cut="0.0000000000000000e+00" cType="1" res="-1.0839817114174366e-03" rms="4.0874448418617249e-01" purity="5.8331650495529175e-01" nType="-99"/>
        </Node>
        <Node pos="r" depth="1" NCoef="0" IVar="4" Cut="2.6666667461395264e+00" cType="1" res="7.0238456828519702e-04" rms="4.2890229821205139e-01" purity="4.1454616189002991e-01" nType="0">
          <Node pos="l" depth="2" NCoef="0" IVar="4" Cut="1.0476191043853760e+00" cType="1" res="1.6822800971567631e-03" rms="4.2917171120643616e-01" purity="3.8847512006759644e-01" nType="0">
            <Node pos="l" depth="3" NCoef="0" IVar="7" Cut="8.3434379577636719e+01" cType="1" res="-2.8876615942863282e-06" rms="4.2416384816169739e-01" purity="3.4099835157394409e-01" nType="0">
              <Node pos="l" depth="4" NCoef="0" IVar="-1" Cut="0.0000000000000000e+00" cType="1" res="4.9545806832611561e-03" rms="4.2841553688049316e-01" purity="3.4333974123001099e-01" nType="-99"/>
              <Node pos="r" depth="4" NCoef="0" IVar="-1" Cut="0.0000000000000000e+00" cType="1" res="-5.1402091048657894e-03" rms="4.1968771815299988e-01" purity="3.3862453699111938e-01" nType="-99"/>
            </Node>
            <Node pos="r" depth="3" NCoef="0" IVar="-1" Cut="0.0000000000000000e+00" cType="1" res="2.8216575738042593e-03" rms="4.3918198347091675e-01" purity="4.8524224758148193e-01" nType="-99"/>
          </Node>
          <Node pos="r" depth="2" NCoef="0" IVar="-1" Cut="0.0000000000000000e+00" cType="1" res="-1.5700660878792405e-03" rms="4.2792698740959167e-01" purity="5.0703334808349609e-01" nType="-99"/>
        </Node>
      </Node>
    </BinaryTree>
    <BinaryTree type="DecisionTree" boostWeight="1.0000000000000000e+00" itree="238">
      <Node pos="s" depth="0" NCoef="0" IVar="6" Cut="1.1814180755615234e+02" cType="1" res="-5.1430157327558845e-05" rms="4.1839665174484253e-01" purity="5.0000000000000000e-01" nType="0">
        <Node pos="l" depth="1" NCoef="0" IVar="3" Cut="2.0000000000000000e+00" cType="1" res="7.0511421654373407e-04" rms="4.1162073612213135e-01" purity="4.7068229317665100e-01" nType="0">
          <Node pos="l" depth="2" NCoef="0" IVar="7" Cut="7.5721290588378906e+01" cType="1" res="4.9068586667999625e-04" rms="4.1540217399597168e-01" purity="5.0974237918853760e-01" nType="0">
            <Node pos="l" depth="3" NCoef="0" IVar="4" Cut="1.4285714626312256e+00" cType="1" res="-1.7028014408424497e-03" rms="4.3850666284561157e-01" purity="4.8130401968955994e-01" nType="0">
              <Node pos="l" depth="4" NCoef="0" IVar="-1" Cut="0.0000000000000000e+00" cType="1" res="3.2750815153121948e-03" rms="4.3349489569664001e-01" purity="4.0750077366828918e-01" nType="-99"/>
              <Node pos="r" depth="4" NCoef="0" IVar="-1" Cut="0.0000000000000000e+00" cType="1" res="-4.8651043325662613e-03" rms="4.4421207904815674e-01" purity="5.6846934556961060e-01" nType="-99"/>
            </Node>
            <Node pos="r" depth="3" NCoef="0" IVar="1" Cut="8.9146333932876587e-01" cType="1" res="2.5216629728674889e-03" rms="3.9278867840766907e-01" purity="5.3607386350631714e-01" nType="0">
              <Node pos="l" depth="4" NCoef="0" IVar="-1" Cut="0.0000000000000000e+00" cType="1" res="-1.3404163473751396e-04" rms="3.8769277930259705e-01" purity="5.1281064748764038e-01" nType="-99"/>
              <Node pos="r" depth="4" NCoef="0" IVar="-1" Cut="0.0000000000000000e+00" cType="1" res="2.6423565577715635e-03" rms="3.9655807614326477e-01" purity="5.5353444814682007e-01" nType="-99"/>
            </Node>
          </Node>
          <Node pos="r" depth="2" NCoef="0" IVar="5" Cut="1.4449981689453125e+02" cType="1" res="-2.5037352461367846e-03" rms="4.1846698522567749e-01" purity="3.7553235888481140e-01" nType="0">
            <Node pos="l" depth="3" NCoef="0" IVar="-1" Cut="0.0000000000000000e+00" cType="1" res="8.7362772319465876e-04" rms="4.2108342051506042e-01" purity="4.2416253685951233e-01" nType="-99"/>
            <Node pos="r" depth="3" NCoef="0" IVar="-1" Cut="0.0000000000000000e+00" cType="1" res="-4.6825702302157879e-03" rms="4.1598936915397644e-01" purity="3.3036094903945923e-01" nType="-99"/>
          </Node>
        </Node>
        <Node pos="r" depth="1" NCoef="0" IVar="-1" Cut="0.0000000000000000e+00" cType="1" res="7.2128872852772474e-04" rms="4.2844057083129883e-01" purity="6.4245134592056274e-01" nType="-99"/>
      </Node>
    </BinaryTree>
    <BinaryTree type="DecisionTree" boostWeight="1.0000000000000000e+00" itree="239">
      <Node pos="s" depth="0" NCoef="0" IVar="4" Cut="7.1428573131561279e-01" cType="1" res="-1.7985623344429769e-05" rms="4.1838431358337402e-01" purity="5.0000000000000000e-01" nType="0">
        <Node pos="l" depth="1" NCoef="0" IVar="7" Cut="8.3542404174804688e+01" cType="1" res="-1.4476897194981575e-03" rms="4.1935193538665771e-01" purity="4.4392177462577820e-01" nType="0">
          <Node pos="l" depth="2" NCoef="0" IVar="-1" Cut="0.0000000000000000e+00" cType="1" res="-1.9882996566593647e-03" rms="4.2423436045646667e-01" purity="4.6566841006278992e-01" nType="-99"/>
          <Node pos="r" depth="2" NCoef="0" IVar="-1" Cut="0.0000000000000000e+00" cType="1" res="6.8317214027047157e-04" rms="4.1293519735336304e-01" purity="4.1578555107116699e-01" nType="-99"/>
        </Node>
        <Node pos="r" depth="1" NCoef="0" IVar="2" Cut="1.9642339944839478e+00" cType="1" res="5.7355075841769576e-04" rms="4.1798186302185059e-01" purity="5.2320218086242676e-01" nType="0">
          <Node pos="l" depth="2" NCoef="0" IVar="5" Cut="1.5334861755371094e+02" cType="1" res="-1.9693338254000992e-04" rms="4.2058873176574707e-01" purity="5.9118366241455078e-01" nType="0">
            <Node pos="l" depth="3" NCoef="0" IVar="7" Cut="9.2861343383789062e+01" cType="1" res="1.2484039179980755e-03" rms="4.1425129771232605e-01" purity="5.6828635931015015e-01" nType="0">
              <Node pos="l" depth="4" NCoef="0" IVar="5" Cut="9.3078269958496094e+01" cType="1" res="-9.9601759575307369e-04" rms="4.4196552038192749e-01" purity="5.3691989183425903e-01" nType="0">
                <Node pos="l" depth="5" NCoef="0" IVar="-1" Cut="0.0000000000000000e+00" cType="1" res="3.5092702601104975e-03" rms="4.3609946966171265e-01" purity="4.0408316254615784e-01" nType="-99"/>
                <Node pos="r" depth="5" NCoef="0" IVar="-1" Cut="0.0000000000000000e+00" cType="1" res="-2.8403641190379858e-03" rms="4.4650095701217651e-01" purity="6.4246857166290283e-01" nType="-99"/>
              </Node>
              <Node pos="r" depth="4" NCoef="0" IVar="-1" Cut="0.0000000000000000e+00" cType="1" res="2.7102457825094461e-03" rms="3.6969211697578430e-01" purity="6.1443650722503662e-01" nType="-99"/>
            </Node>
            <Node pos="r" depth="3" NCoef="0" IVar="-1" Cut="0.0000000000000000e+00" cType="1" res="-2.5063855573534966e-03" rms="4.4432160258293152e-01" purity="6.8019145727157593e-01" nType="-99"/>
          </Node>
          <Node pos="r" depth="2" NCoef="0" IVar="-1" Cut="0.0000000000000000e+00" cType="1" res="3.4837459679692984e-03" rms="4.0752655267715454e-01" purity="2.5515639781951904e-01" nType="-99"/>
        </Node>
      </Node>
    </BinaryTree>
    <BinaryTree type="DecisionTree" boostWeight="1.0000000000000000e+00" itree="240">
      <Node pos="s" depth="0" NCoef="0" IVar="2" Cut="9.8211699724197388e-01" cType="1" res="-1.1945139704039320e-04" rms="4.1837325692176819e-01" purity="5.0000000000000000e-01" nType="0">
        <Node pos="l" depth="1" NCoef="0" IVar="1" Cut="1.4920955896377563e+00" cType="1" res="-8.3435710985213518e-04" rms="4.0779170393943787e-01" purity="5.8405864238739014e-01" nType="0">
          <Node pos="l" depth="2" NCoef="0" IVar="0" Cut="4.0867689251899719e-01" cType="1" res="-1.8063469324260950e-03" rms="3.9685270190238953e-01" purity="5.5699717998504639e-01" nType="0">
            <Node pos="l" depth="3" NCoef="0" IVar="-1" Cut="0.0000000000000000e+00" cType="1" res="4.8524435260333121e-04" rms="4.0488028526306152e-01" purity="5.8026778697967529e-01" nType="-99"/>
            <Node pos="r" depth="3" NCoef="0" IVar="-1" Cut="0.0000000000000000e+00" cType="1" res="-2.2770839277654886e-03" rms="3.9067640900611877e-01" purity="5.3944534063339233e-01" nType="-99"/>
          </Node>
          <Node pos="r" depth="2" NCoef="0" IVar="-1" Cut="0.0000000000000000e+00" cType="1" res="2.6616849936544895e-04" rms="4.2282104492187500e-01" purity="6.2244898080825806e-01" nType="-99"/>
        </Node>
        <Node pos="r" depth="1" NCoef="0" IVar="2" Cut="1.8239336013793945e+00" cType="1" res="6.0732010751962662e-04" rms="4.2886164784431458e-01" purity="4.1454616189002991e-01" nType="0">
          <Node pos="l" depth="2" NCoef="0" IVar="1" Cut="1.2540906667709351e+00" cType="1" res="2.2070477716624737e-03" rms="4.4502243399620056e-01" purity="5.2944767475128174e-01" nType="0">
            <Node pos="l" depth="3" NCoef="0" IVar="-1" Cut="0.0000000000000000e+00" cType="1" res="2.9123041313141584e-03" rms="4.4065615534782410e-01" purity="5.1190203428268433e-01" nType="-99"/>
            <Node pos="r" depth="3" NCoef="0" IVar="-1" Cut="0.0000000000000000e+00" cType="1" res="-3.3097816049121320e-04" rms="4.4874298572540283e-01" purity="5.4461658000946045e-01" nType="-99"/>
          </Node>
          <Node pos="r" depth="2" NCoef="0" IVar="3" Cut="2.0000000000000000e+00" cType="1" res="1.3234593207016587e-03" rms="3.9127531647682190e-01" purity="2.6340934634208679e-01" nType="0">
            <Node pos="l" depth="3" NCoef="0" IVar="-1" Cut="0.0000000000000000e+00" cType="1" res="-4.7740857116878033e-03" rms="4.1281923651695251e-01" purity="2.8737252950668335e-01" nType="-99"/>
            <Node pos="r" depth="3" NCoef="0" IVar="-1" Cut="0.0000000000000000e+00" cType="1" res="3.0884672887623310e-03" rms="3.9994603395462036e-01" purity="2.3821374773979187e-01" nType="-99"/>
          </Node>
        </Node>
      </Node>
    </BinaryTree>
    <BinaryTree type="DecisionTree" boostWeight="1.0000000000000000e+00" itree="241">
      <Node pos="s" depth="0" NCoef="0" IVar="2" Cut="1.6368615627288818e+00" cType="1" res="-8.1427831901237369e-05" rms="4.1836765408515930e-01" purity="5.0000000000000000e-01" nType="0">
        <Node pos="l" depth="1" NCoef="0" IVar="0" Cut="1.3695946931838989e+00" cType="1" res="-5.1024940330535173e-04" rms="4.1901776194572449e-01" purity="5.7055962085723877e-01" nType="0">
          <Node pos="l" depth="2" NCoef="0" IVar="0" Cut="9.7827583551406860e-01" cType="1" res="-1.1641301680356264e-03" rms="4.1948655247688293e-01" purity="5.6015050411224365e-01" nType="0">
            <Node pos="l" depth="3" NCoef="0" IVar="1" Cut="1.1190654039382935e+00" cType="1" res="-2.1566508803516626e-04" rms="4.1927051544189453e-01" purity="5.6301587820053101e-01" nType="0">
              <Node pos="l" depth="4" NCoef="0" IVar="1" Cut="4.2631030082702637e-01" cType="1" res="6.8624899722635746e-04" rms="4.0701779723167419e-01" purity="5.4112941026687622e-01" nType="0">
                <Node pos="l" depth="5" NCoef="0" IVar="-1" Cut="0.0000000000000000e+00" cType="1" res="-7.9617294250056148e-04" rms="4.0192666649818420e-01" purity="5.3344088792800903e-01" nType="-99"/>
                <Node pos="r" depth="5" NCoef="0" IVar="-1" Cut="0.0000000000000000e+00" cType="1" res="1.1604093015193939e-03" rms="4.1046515107154846e-01" purity="5.4639977216720581e-01" nType="-99"/>
              </Node>
              <Node pos="r" depth="4" NCoef="0" IVar="-1" Cut="0.0000000000000000e+00" cType="1" res="-9.2619401402771473e-04" rms="4.4208309054374695e-01" purity="6.0550421476364136e-01" nType="-99"/>
            </Node>
            <Node pos="r" depth="3" NCoef="0" IVar="-1" Cut="0.0000000000000000e+00" cType="1" res="-2.3356326855719090e-03" rms="4.2020767927169800e-01" purity="5.5036163330078125e-01" nType="-99"/>
          </Node>
          <Node pos="r" depth="2" NCoef="0" IVar="-1" Cut="0.0000000000000000e+00" cType="1" res="7.5912690954282880e-04" rms="4.1757196187973022e-01" purity="6.0244858264923096e-01" nType="-99"/>
        </Node>
        <Node pos="r" depth="1" NCoef="0" IVar="2" Cut="2.1357152462005615e+00" cType="1" res="1.1302161728963256e-03" rms="4.1652289032936096e-01" purity="3.0063235759735107e-01" nType="0">
          <Node pos="l" depth="2" NCoef="0" IVar="-1" Cut="0.0000000000000000e+00" cType="1" res="2.3723554331809282e-03" rms="4.5779857039451599e-01" purity="4.3601503968238831e-01" nType="-99"/>
          <Node pos="r" depth="2" NCoef="0" IVar="-1" Cut="0.0000000000000000e+00" cType="1" res="-1.5032604569569230e-03" rms="3.8437727093696594e-01" purity="2.0409870147705078e-01" nType="-99"/>
        </Node>
      </Node>
    </BinaryTree>
    <BinaryTree type="DecisionTree" boostWeight="1.0000000000000000e+00" itree="242">
      <Node pos="s" depth="0" NCoef="0" IVar="2" Cut="2.2916061878204346e+00" cType="1" res="-5.0041839131154120e-05" rms="4.1836521029472351e-01" purity="5.0000000000000000e-01" nType="0">
        <Node pos="l" depth="1" NCoef="0" IVar="2" Cut="1.7459816932678223e+00" cType="1" res="-3.3321883529424667e-04" rms="4.2496415972709656e-01" purity="5.4748231172561646e-01" nType="0">
          <Node pos="l" depth="2" NCoef="0" IVar="0" Cut="1.5953245162963867e+00" cType="1" res="1.3306051550898701e-04" rms="4.2052978277206421e-01" purity="5.6724691390991211e-01" nType="0">
            <Node pos="l" depth="3" NCoef="0" IVar="1" Cut="3.7302371859550476e-01" cType="1" res="6.4317160286009312e-04" rms="4.2107671499252319e-01" purity="5.6003779172897339e-01" nType="0">
              <Node pos="l" depth="4" NCoef="0" IVar="-1" Cut="0.0000000000000000e+00" cType="1" res="-9.2017452698200941e-04" rms="4.0432080626487732e-01" purity="5.3581720590591431e-01" nType="-99"/>
              <Node pos="r" depth="4" NCoef="0" IVar="2" Cut="1.0808405876159668e+00" cType="1" res="1.1289024259895086e-03" rms="4.2459097504615784e-01" purity="5.6524473428726196e-01" nType="0">
                <Node pos="l" depth="5" NCoef="0" IVar="7" Cut="8.5238883972167969e+01" cType="1" res="2.2300125565379858e-03" rms="4.1419208049774170e-01" purity="5.8856630325317383e-01" nType="0">
                  <Node pos="l" depth="6" NCoef="0" IVar="-1" Cut="0.0000000000000000e+00" cType="1" res="1.4723651111125946e-04" rms="4.3625777959823608e-01" purity="5.8184993267059326e-01" nType="-99"/>
                  <Node pos="r" depth="6" NCoef="0" IVar="-1" Cut="0.0000000000000000e+00" cType="1" res="2.5209998711943626e-03" rms="3.8603815436363220e-01" purity="5.9662628173828125e-01" nType="-99"/>
                </Node>
                <Node pos="r" depth="5" NCoef="0" IVar="-1" Cut="0.0000000000000000e+00" cType="1" res="-1.0383509797975421e-03" rms="4.5325312018394470e-01" purity="4.9793425202369690e-01" nType="-99"/>
              </Node>
            </Node>
            <Node pos="r" depth="3" NCoef="0" IVar="-1" Cut="0.0000000000000000e+00" cType="1" res="-9.4572734087705612e-04" rms="4.1838547587394714e-01" purity="5.9534251689910889e-01" nType="-99"/>
          </Node>
          <Node pos="r" depth="2" NCoef="0" IVar="-1" Cut="0.0000000000000000e+00" cType="1" res="-2.1704407408833504e-03" rms="4.5635455846786499e-01" purity="4.0157175064086914e-01" nType="-99"/>
        </Node>
        <Node pos="r" depth="1" NCoef="0" IVar="-1" Cut="0.0000000000000000e+00" cType="1" res="2.8242161497473717e-03" rms="3.7062525749206543e-01" purity="1.7866016924381256e-01" nType="-99"/>
      </Node>
    </BinaryTree>
    <BinaryTree type="DecisionTree" boostWeight="1.0000000000000000e+00" itree="243">
      <Node pos="s" depth="0" NCoef="0" IVar="2" Cut="9.8211699724197388e-01" cType="1" res="-6.0782342188758776e-05" rms="4.1835981607437134e-01" purity="5.0000000000000000e-01" nType="0">
        <Node pos="l" depth="1" NCoef="0" IVar="1" Cut="1.4920955896377563e+00" cType="1" res="-7.4333749944344163e-04" rms="4.0778297185897827e-01" purity="5.8405864238739014e-01" nType="0">
          <Node pos="l" depth="2" NCoef="0" IVar="0" Cut="4.0867689251899719e-01" cType="1" res="-1.6910835402086377e-03" rms="3.9683988690376282e-01" purity="5.5699717998504639e-01" nType="0">
            <Node pos="l" depth="3" NCoef="0" IVar="-1" Cut="0.0000000000000000e+00" cType="1" res="3.5066925920546055e-04" rms="4.0487170219421387e-01" purity="5.8026778697967529e-01" nType="-99"/>
            <Node pos="r" depth="3" NCoef="0" IVar="-1" Cut="0.0000000000000000e+00" cType="1" res="-2.0448162686079741e-03" rms="3.9066338539123535e-01" purity="5.3944534063339233e-01" nType="-99"/>
          </Node>
          <Node pos="r" depth="2" NCoef="0" IVar="-1" Cut="0.0000000000000000e+00" cType="1" res="2.9383526998572052e-04" rms="4.2281791567802429e-01" purity="6.2244898080825806e-01" nType="-99"/>
        </Node>
        <Node pos="r" depth="1" NCoef="0" IVar="2" Cut="1.8239336013793945e+00" cType="1" res="6.3310167752206326e-04" rms="4.2884379625320435e-01" purity="4.1454616189002991e-01" nType="0">
          <Node pos="l" depth="2" NCoef="0" IVar="1" Cut="1.2540906667709351e+00" cType="1" res="2.0261195022612810e-03" rms="4.4501033425331116e-01" purity="5.2944767475128174e-01" nType="0">
            <Node pos="l" depth="3" NCoef="0" IVar="-1" Cut="0.0000000000000000e+00" cType="1" res="2.4493951350450516e-03" rms="4.4065237045288086e-01" purity="5.1190203428268433e-01" nType="-99"/>
            <Node pos="r" depth="3" NCoef="0" IVar="-1" Cut="0.0000000000000000e+00" cType="1" res="-1.2243814126122743e-04" rms="4.4873142242431641e-01" purity="5.4461658000946045e-01" nType="-99"/>
          </Node>
          <Node pos="r" depth="2" NCoef="0" IVar="4" Cut="1.3333333730697632e+00" cType="1" res="-1.1992176296189427e-03" rms="4.0659409761428833e-01" purity="2.6340934634208679e-01" nType="0">
            <Node pos="l" depth="3" NCoef="0" IVar="-1" Cut="0.0000000000000000e+00" cType="1" res="-6.3473563641309738e-03" rms="3.8783186674118042e-01" purity="2.1259428560733795e-01" nType="-99"/>
            <Node pos="r" depth="3" NCoef="0" IVar="-1" Cut="0.0000000000000000e+00" cType="1" res="2.2417942527681589e-03" rms="4.2349529266357422e-01" purity="3.1135493516921997e-01" nType="-99"/>
          </Node>
        </Node>
      </Node>
    </BinaryTree>
    <BinaryTree type="DecisionTree" boostWeight="1.0000000000000000e+00" itree="244">
      <Node pos="s" depth="0" NCoef="0" IVar="2" Cut="1.6368615627288818e+00" cType="1" res="1.5897177945589647e-05" rms="4.1835686564445496e-01" purity="5.0000000000000000e-01" nType="0">
        <Node pos="l" depth="1" NCoef="0" IVar="0" Cut="1.3695946931838989e+00" cType="1" res="-4.6401558211073279e-04" rms="4.1900929808616638e-01" purity="5.7055962085723877e-01" nType="0">
          <Node pos="l" depth="2" NCoef="0" IVar="2" Cut="1.0912412405014038e+00" cType="1" res="-1.0728876804932952e-03" rms="4.1947829723358154e-01" purity="5.6015050411224365e-01" nType="0">
            <Node pos="l" depth="3" NCoef="0" IVar="0" Cut="5.8696627616882324e-01" cType="1" res="-1.4964658475946635e-04" rms="4.0989896655082703e-01" purity="5.7777267694473267e-01" nType="0">
              <Node pos="l" depth="4" NCoef="0" IVar="-1" Cut="0.0000000000000000e+00" cType="1" res="-6.5393483964726329e-04" rms="4.0835100412368774e-01" purity="5.8400040864944458e-01" nType="-99"/>
              <Node pos="r" depth="4" NCoef="0" IVar="-1" Cut="0.0000000000000000e+00" cType="1" res="4.6933870180509984e-04" rms="4.1137519478797913e-01" purity="5.7180094718933105e-01" nType="-99"/>
            </Node>
            <Node pos="r" depth="3" NCoef="0" IVar="-1" Cut="0.0000000000000000e+00" cType="1" res="-2.1268210839480162e-03" rms="4.4999730587005615e-01" purity="5.0126576423645020e-01" nType="-99"/>
          </Node>
          <Node pos="r" depth="2" NCoef="0" IVar="-1" Cut="0.0000000000000000e+00" cType="1" res="7.1268563624471426e-04" rms="4.1756370663642883e-01" purity="6.0244858264923096e-01" nType="-99"/>
        </Node>
        <Node pos="r" depth="1" NCoef="0" IVar="2" Cut="2.1357152462005615e+00" cType="1" res="1.3719004346057773e-03" rms="4.1650483012199402e-01" purity="3.0063235759735107e-01" nType="0">
          <Node pos="l" depth="2" NCoef="0" IVar="-1" Cut="0.0000000000000000e+00" cType="1" res="2.4199716281145811e-03" rms="4.5779040455818176e-01" purity="4.3601503968238831e-01" nType="-99"/>
          <Node pos="r" depth="2" NCoef="0" IVar="-1" Cut="0.0000000000000000e+00" cType="1" res="-1.0592823382467031e-03" rms="3.8435226678848267e-01" purity="2.0409870147705078e-01" nType="-99"/>
        </Node>
      </Node>
    </BinaryTree>
    <BinaryTree type="DecisionTree" boostWeight="1.0000000000000000e+00" itree="245">
      <Node pos="s" depth="0" NCoef="0" IVar="2" Cut="1.9642339944839478e+00" cType="1" res="2.6826128305401653e-05" rms="4.1835474967956543e-01" purity="5.0000000000000000e-01" nType="0">
        <Node pos="l" depth="1" NCoef="0" IVar="2" Cut="1.4965569972991943e+00" cType="1" res="-3.3075056853704154e-04" rms="4.2288824915885925e-01" purity="5.5938524007797241e-01" nType="0">
          <Node pos="l" depth="2" NCoef="0" IVar="2" Cut="1.0689668655395508e+00" cType="1" res="1.9785224867518991e-04" rms="4.1694980859756470e-01" purity="5.7430452108383179e-01" nType="0">
            <Node pos="l" depth="3" NCoef="0" IVar="0" Cut="1.1862310171127319e+00" cType="1" res="-3.6997097777202725e-04" rms="4.0928012132644653e-01" purity="5.8266705274581909e-01" nType="0">
              <Node pos="l" depth="4" NCoef="0" IVar="0" Cut="6.7784565687179565e-01" cType="1" res="4.1400882764719427e-04" rms="4.0934503078460693e-01" purity="5.7996010780334473e-01" nType="0">
                <Node pos="l" depth="5" NCoef="0" IVar="2" Cut="5.0902402400970459e-01" cType="1" res="-1.0504620149731636e-03" rms="4.0822619199752808e-01" purity="5.8405917882919312e-01" nType="0">
                  <Node pos="l" depth="6" NCoef="0" IVar="-1" Cut="0.0000000000000000e+00" cType="1" res="2.6045398044516332e-05" rms="4.0011507272720337e-01" purity="6.0296654701232910e-01" nType="-99"/>
                  <Node pos="r" depth="6" NCoef="0" IVar="-1" Cut="0.0000000000000000e+00" cType="1" res="-1.1837339261546731e-03" rms="4.1679033637046814e-01" purity="5.6367611885070801e-01" nType="-99"/>
                </Node>
                <Node pos="r" depth="5" NCoef="0" IVar="-1" Cut="0.0000000000000000e+00" cType="1" res="1.4903842238709331e-03" rms="4.1115766763687134e-01" purity="5.7325404882431030e-01" nType="-99"/>
              </Node>
              <Node pos="r" depth="4" NCoef="0" IVar="-1" Cut="0.0000000000000000e+00" cType="1" res="-1.1789818527176976e-03" rms="4.0911996364593506e-01" purity="5.8909332752227783e-01" nType="-99"/>
            </Node>
            <Node pos="r" depth="3" NCoef="0" IVar="-1" Cut="0.0000000000000000e+00" cType="1" res="1.0806869249790907e-03" rms="4.4244134426116943e-01" purity="5.4538816213607788e-01" nType="-99"/>
          </Node>
          <Node pos="r" depth="2" NCoef="0" IVar="-1" Cut="0.0000000000000000e+00" cType="1" res="-1.7809791024774313e-03" rms="4.5620137453079224e-01" purity="4.7174611687660217e-01" nType="-99"/>
        </Node>
        <Node pos="r" depth="1" NCoef="0" IVar="-1" Cut="0.0000000000000000e+00" cType="1" res="1.6858476446941495e-03" rms="3.9764982461929321e-01" purity="2.3696684837341309e-01" nType="-99"/>
      </Node>
    </BinaryTree>
    <BinaryTree type="DecisionTree" boostWeight="1.0000000000000000e+00" itree="246">
      <Node pos="s" depth="0" NCoef="0" IVar="6" Cut="1.1814180755615234e+02" cType="1" res="-1.2505967788456473e-05" rms="4.1835135221481323e-01" purity="5.0000000000000000e-01" nType="0">
        <Node pos="l" depth="1" NCoef="0" IVar="3" Cut="2.0000000000000000e+00" cType="1" res="7.8109046444296837e-04" rms="4.1157186031341553e-01" purity="4.7068229317665100e-01" nType="0">
          <Node pos="l" depth="2" NCoef="0" IVar="5" Cut="1.0866986846923828e+02" cType="1" res="6.6769588738679886e-04" rms="4.1535881161689758e-01" purity="5.0974237918853760e-01" nType="0">
            <Node pos="l" depth="3" NCoef="0" IVar="-1" Cut="0.0000000000000000e+00" cType="1" res="-1.2293019099161029e-03" rms="3.9505556225776672e-01" purity="4.5794811844825745e-01" nType="-99"/>
            <Node pos="r" depth="3" NCoef="0" IVar="7" Cut="7.5721290588378906e+01" cType="1" res="1.9503637449815869e-03" rms="4.2525133490562439e-01" purity="5.3593432903289795e-01" nType="0">
              <Node pos="l" depth="4" NCoef="0" IVar="-1" Cut="0.0000000000000000e+00" cType="1" res="-7.5506448047235608e-04" rms="4.3816787004470825e-01" purity="4.7912317514419556e-01" nType="-99"/>
              <Node pos="r" depth="4" NCoef="0" IVar="-1" Cut="0.0000000000000000e+00" cType="1" res="2.7984117623418570e-03" rms="4.1206496953964233e-01" purity="5.9206831455230713e-01" nType="-99"/>
            </Node>
          </Node>
          <Node pos="r" depth="2" NCoef="0" IVar="5" Cut="1.4449981689453125e+02" cType="1" res="-2.7461971621960402e-03" rms="4.1840711236000061e-01" purity="3.7553235888481140e-01" nType="0">
            <Node pos="l" depth="3" NCoef="0" IVar="-1" Cut="0.0000000000000000e+00" cType="1" res="1.1581539001781493e-04" rms="4.2102777957916260e-01" purity="4.2416253685951233e-01" nType="-99"/>
            <Node pos="r" depth="3" NCoef="0" IVar="-1" Cut="0.0000000000000000e+00" cType="1" res="-4.1744094341993332e-03" rms="4.1593953967094421e-01" purity="3.3036094903945923e-01" nType="-99"/>
          </Node>
        </Node>
        <Node pos="r" depth="1" NCoef="0" IVar="-1" Cut="0.0000000000000000e+00" cType="1" res="7.0322665851563215e-04" rms="4.2840605974197388e-01" purity="6.4245134592056274e-01" nType="-99"/>
      </Node>
    </BinaryTree>
    <BinaryTree type="DecisionTree" boostWeight="1.0000000000000000e+00" itree="247">
      <Node pos="s" depth="0" NCoef="0" IVar="2" Cut="1.3094892501831055e+00" cType="1" res="6.0731061239494011e-05" rms="4.1834816336631775e-01" purity="5.0000000000000000e-01" nType="0">
        <Node pos="l" depth="1" NCoef="0" IVar="4" Cut="1.4285714626312256e+00" cType="1" res="-4.9496948486194015e-04" rms="4.1387444734573364e-01" purity="5.7867580652236938e-01" nType="0">
          <Node pos="l" depth="2" NCoef="0" IVar="2" Cut="8.7299293279647827e-01" cType="1" res="-1.2367831077426672e-03" rms="4.1267022490501404e-01" purity="5.1571017503738403e-01" nType="0">
            <Node pos="l" depth="3" NCoef="0" IVar="7" Cut="8.5467498779296875e+01" cType="1" res="-1.7193815438076854e-04" rms="4.0378284454345703e-01" purity="5.3100270032882690e-01" nType="0">
              <Node pos="l" depth="4" NCoef="0" IVar="-1" Cut="0.0000000000000000e+00" cType="1" res="-1.1281358310952783e-03" rms="4.2807322740554810e-01" purity="5.4762399196624756e-01" nType="-99"/>
              <Node pos="r" depth="4" NCoef="0" IVar="-1" Cut="0.0000000000000000e+00" cType="1" res="1.1070157634094357e-03" rms="3.7727731466293335e-01" purity="5.1398020982742310e-01" nType="-99"/>
            </Node>
            <Node pos="r" depth="3" NCoef="0" IVar="-1" Cut="0.0000000000000000e+00" cType="1" res="-2.2881559561938047e-03" rms="4.3654131889343262e-01" purity="4.7296175360679626e-01" nType="-99"/>
          </Node>
          <Node pos="r" depth="2" NCoef="0" IVar="-1" Cut="0.0000000000000000e+00" cType="1" res="3.4050454269163311e-04" rms="4.1577437520027161e-01" purity="6.7853468656539917e-01" nType="-99"/>
        </Node>
        <Node pos="r" depth="1" NCoef="0" IVar="2" Cut="1.8395206928253174e+00" cType="1" res="1.0258518159389496e-03" rms="4.2600455880165100e-01" purity="3.6335864663124084e-01" nType="0">
          <Node pos="l" depth="2" NCoef="0" IVar="-1" Cut="0.0000000000000000e+00" cType="1" res="1.5889093047007918e-03" rms="4.5197007060050964e-01" purity="5.0349330902099609e-01" nType="-99"/>
          <Node pos="r" depth="2" NCoef="0" IVar="1" Cut="1.6387506723403931e+00" cType="1" res="-5.4364762036129832e-04" rms="4.0584158897399902e-01" purity="2.6029297709465027e-01" nType="0">
            <Node pos="l" depth="3" NCoef="0" IVar="-1" Cut="0.0000000000000000e+00" cType="1" res="-3.9575104601681232e-03" rms="4.0332600474357605e-01" purity="2.5193381309509277e-01" nType="-99"/>
            <Node pos="r" depth="3" NCoef="0" IVar="-1" Cut="0.0000000000000000e+00" cType="1" res="2.8410067316144705e-03" rms="4.0840211510658264e-01" purity="2.6896303892135620e-01" nType="-99"/>
          </Node>
        </Node>
      </Node>
    </BinaryTree>
    <BinaryTree type="DecisionTree" boostWeight="1.0000000000000000e+00" itree="248">
      <Node pos="s" depth="0" NCoef="0" IVar="2" Cut="1.9642339944839478e+00" cType="1" res="7.1365146141033620e-05" rms="4.1834273934364319e-01" purity="5.0000000000000000e-01" nType="0">
        <Node pos="l" depth="1" NCoef="0" IVar="2" Cut="1.4965569972991943e+00" cType="1" res="-2.8242214466445148e-04" rms="4.2287576198577881e-01" purity="5.5938524007797241e-01" nType="0">
          <Node pos="l" depth="2" NCoef="0" IVar="6" Cut="1.1814180755615234e+02" cType="1" res="1.9456927839200944e-04" rms="4.1693723201751709e-01" purity="5.7430452108383179e-01" nType="0">
            <Node pos="l" depth="3" NCoef="0" IVar="1" Cut="1.1190654039382935e+00" cType="1" res="7.0958340074867010e-04" rms="4.1579926013946533e-01" purity="5.4280829429626465e-01" nType="0">
              <Node pos="l" depth="4" NCoef="0" IVar="2" Cut="7.1264982223510742e-01" cType="1" res="-1.9287425093352795e-03" rms="4.0252274274826050e-01" purity="5.0974798202514648e-01" nType="0">
                <Node pos="l" depth="5" NCoef="0" IVar="-1" Cut="0.0000000000000000e+00" cType="1" res="-3.2612401992082596e-03" rms="3.8508728146553040e-01" purity="5.0646352767944336e-01" nType="-99"/>
                <Node pos="r" depth="5" NCoef="0" IVar="-1" Cut="0.0000000000000000e+00" cType="1" res="1.0589243611320853e-03" rms="4.2194724082946777e-01" purity="5.1358485221862793e-01" nType="-99"/>
              </Node>
              <Node pos="r" depth="4" NCoef="0" IVar="0" Cut="1.5178593397140503e+00" cType="1" res="2.8079105541110039e-03" rms="4.2605149745941162e-01" purity="5.6910204887390137e-01" nType="0">
                <Node pos="l" depth="5" NCoef="0" IVar="-1" Cut="0.0000000000000000e+00" cType="1" res="2.3514737840741873e-03" rms="4.3582689762115479e-01" purity="5.6057173013687134e-01" nType="-99"/>
                <Node pos="r" depth="5" NCoef="0" IVar="-1" Cut="0.0000000000000000e+00" cType="1" res="2.4378850866924040e-05" rms="4.1113045811653137e-01" purity="5.8173650503158569e-01" nType="-99"/>
              </Node>
            </Node>
            <Node pos="r" depth="3" NCoef="0" IVar="-1" Cut="0.0000000000000000e+00" cType="1" res="-8.3452317630872130e-04" rms="4.2148482799530029e-01" purity="7.0120865106582642e-01" nType="-99"/>
          </Node>
          <Node pos="r" depth="2" NCoef="0" IVar="-1" Cut="0.0000000000000000e+00" cType="1" res="-1.5990994870662689e-03" rms="4.5619162917137146e-01" purity="4.7174611687660217e-01" nType="-99"/>
        </Node>
        <Node pos="r" depth="1" NCoef="0" IVar="-1" Cut="0.0000000000000000e+00" cType="1" res="1.7156430985778570e-03" rms="3.9764019846916199e-01" purity="2.3696684837341309e-01" nType="-99"/>
      </Node>
    </BinaryTree>
    <BinaryTree type="DecisionTree" boostWeight="1.0000000000000000e+00" itree="249">
      <Node pos="s" depth="0" NCoef="0" IVar="1" Cut="5.4624921083450317e-01" cType="1" res="2.1649429982062429e-05" rms="4.1833791136741638e-01" purity="5.0000000000000000e-01" nType="0">
        <Node pos="l" depth="1" NCoef="0" IVar="-1" Cut="0.0000000000000000e+00" cType="1" res="9.0574228670448065e-04" rms="4.0779805183410645e-01" purity="4.9344882369041443e-01" nType="-99"/>
        <Node pos="r" depth="1" NCoef="0" IVar="1" Cut="2.6271884441375732e+00" cType="1" res="-3.3939097193069756e-04" rms="4.2086616158485413e-01" purity="5.0159680843353271e-01" nType="0">
          <Node pos="l" depth="2" NCoef="0" IVar="0" Cut="1.8972072601318359e+00" cType="1" res="-7.1739102713763714e-04" rms="4.1886457800865173e-01" purity="4.9663844704627991e-01" nType="0">
            <Node pos="l" depth="3" NCoef="0" IVar="0" Cut="1.3551435470581055e+00" cType="1" res="4.5811544987373054e-04" rms="4.2288705706596375e-01" purity="5.0947368144989014e-01" nType="0">
              <Node pos="l" depth="4" NCoef="0" IVar="2" Cut="5.4942041635513306e-01" cType="1" res="-1.2329872697591782e-03" rms="4.2495870590209961e-01" purity="5.1933968067169189e-01" nType="0">
                <Node pos="l" depth="5" NCoef="0" IVar="-1" Cut="0.0000000000000000e+00" cType="1" res="1.0751414811238647e-03" rms="4.0636968612670898e-01" purity="6.0500782728195190e-01" nType="-99"/>
                <Node pos="r" depth="5" NCoef="0" IVar="7" Cut="7.5090614318847656e+01" cType="1" res="-3.0607236549258232e-03" rms="4.3494260311126709e-01" purity="4.7169515490531921e-01" nType="0">
                  <Node pos="l" depth="6" NCoef="0" IVar="-1" Cut="0.0000000000000000e+00" cType="1" res="-5.8211517171002924e-05" rms="4.4901517033576965e-01" purity="4.6516674757003784e-01" nType="-99"/>
                  <Node pos="r" depth="6" NCoef="0" IVar="-1" Cut="0.0000000000000000e+00" cType="1" res="-3.2486063428223133e-03" rms="4.2248946428298950e-01" purity="4.7729164361953735e-01" nType="-99"/>
                </Node>
              </Node>
              <Node pos="r" depth="4" NCoef="0" IVar="-1" Cut="0.0000000000000000e+00" cType="1" res="4.5448848977684975e-03" rms="4.1417720913887024e-01" purity="4.6885928511619568e-01" nType="-99"/>
            </Node>
            <Node pos="r" depth="3" NCoef="0" IVar="-1" Cut="0.0000000000000000e+00" cType="1" res="-4.5544826425611973e-03" rms="3.9806151390075684e-01" purity="4.3237420916557312e-01" nType="-99"/>
          </Node>
          <Node pos="r" depth="2" NCoef="0" IVar="-1" Cut="0.0000000000000000e+00" cType="1" res="8.8155997218564153e-04" rms="4.3129318952560425e-01" purity="5.2782309055328369e-01" nType="-99"/>
        </Node>
      </Node>
    </BinaryTree>
    <BinaryTree type="DecisionTree" boostWeight="1.0000000000000000e+00" itree="250">
      <Node pos="s" depth="0" NCoef="0" IVar="2" Cut="1.6368615627288818e+00" cType="1" res="4.3985881347907707e-05" rms="4.1832923889160156e-01" purity="5.0000000000000000e-01" nType="0">
        <Node pos="l" depth="1" NCoef="0" IVar="0" Cut="1.5652508735656738e+00" cType="1" res="-4.2302726069465280e-04" rms="4.1898098587989807e-01" purity="5.7055962085723877e-01" nType="0">
          <Node pos="l" depth="2" NCoef="0" IVar="2" Cut="1.1691864728927612e+00" cType="1" res="1.0173414921155199e-04" rms="4.1976055502891541e-01" purity="5.6369990110397339e-01" nType="0">
            <Node pos="l" depth="3" NCoef="0" IVar="1" Cut="1.1190752983093262e+00" cType="1" res="7.4773671803995967e-04" rms="4.1203513741493225e-01" purity="5.7827609777450562e-01" nType="0">
              <Node pos="l" depth="4" NCoef="0" IVar="0" Cut="3.7263345718383789e-01" cType="1" res="-2.7649884577840567e-04" rms="3.9772096276283264e-01" purity="5.5093872547149658e-01" nType="0">
                <Node pos="l" depth="5" NCoef="0" IVar="-1" Cut="0.0000000000000000e+00" cType="1" res="1.0473461588844657e-03" rms="4.0411868691444397e-01" purity="5.6655836105346680e-01" nType="-99"/>
                <Node pos="r" depth="5" NCoef="0" IVar="-1" Cut="0.0000000000000000e+00" cType="1" res="-1.3069945853203535e-03" rms="3.9196830987930298e-01" purity="5.3713089227676392e-01" nType="-99"/>
              </Node>
              <Node pos="r" depth="4" NCoef="0" IVar="-1" Cut="0.0000000000000000e+00" cType="1" res="9.5567334210500121e-04" rms="4.2836266756057739e-01" purity="6.1064487695693970e-01" nType="-99"/>
            </Node>
            <Node pos="r" depth="3" NCoef="0" IVar="-1" Cut="0.0000000000000000e+00" cType="1" res="-1.3368569780141115e-03" rms="4.5108324289321899e-01" purity="5.0180536508560181e-01" nType="-99"/>
          </Node>
          <Node pos="r" depth="2" NCoef="0" IVar="-1" Cut="0.0000000000000000e+00" cType="1" res="-1.2365721631795168e-03" rms="4.1600665450096130e-01" purity="5.9656268358230591e-01" nType="-99"/>
        </Node>
        <Node pos="r" depth="1" NCoef="0" IVar="2" Cut="2.1357152462005615e+00" cType="1" res="1.3635408831760287e-03" rms="4.1647943854331970e-01" purity="3.0063235759735107e-01" nType="0">
          <Node pos="l" depth="2" NCoef="0" IVar="-1" Cut="0.0000000000000000e+00" cType="1" res="2.3027544375509024e-03" rms="4.5776239037513733e-01" purity="4.3601503968238831e-01" nType="-99"/>
          <Node pos="r" depth="2" NCoef="0" IVar="-1" Cut="0.0000000000000000e+00" cType="1" res="-8.8388624135404825e-04" rms="3.8433089852333069e-01" purity="2.0409870147705078e-01" nType="-99"/>
        </Node>
      </Node>
    </BinaryTree>
    <BinaryTree type="DecisionTree" boostWeight="1.0000000000000000e+00" itree="251">
      <Node pos="s" depth="0" NCoef="0" IVar="2" Cut="9.8211699724197388e-01" cType="1" res="4.5983641030034050e-05" rms="4.1832685470581055e-01" purity="5.0000000000000000e-01" nType="0">
        <Node pos="l" depth="1" NCoef="0" IVar="0" Cut="9.8893153667449951e-01" cType="1" res="-6.8986567202955484e-04" rms="4.0775164961814880e-01" purity="5.8405864238739014e-01" nType="0">
          <Node pos="l" depth="2" NCoef="0" IVar="2" Cut="3.7414050102233887e-01" cType="1" res="2.2780586732551455e-04" rms="4.0717476606369019e-01" purity="5.8452814817428589e-01" nType="0">
            <Node pos="l" depth="3" NCoef="0" IVar="-1" Cut="0.0000000000000000e+00" cType="1" res="1.0380096500739455e-03" rms="4.0020203590393066e-01" purity="6.1196625232696533e-01" nType="-99"/>
            <Node pos="r" depth="3" NCoef="0" IVar="-1" Cut="0.0000000000000000e+00" cType="1" res="-5.0940708024427295e-04" rms="4.1190671920776367e-01" purity="5.6562089920043945e-01" nType="-99"/>
          </Node>
          <Node pos="r" depth="2" NCoef="0" IVar="-1" Cut="0.0000000000000000e+00" cType="1" res="-1.1382575612515211e-03" rms="4.0865767002105713e-01" purity="5.8331650495529175e-01" nType="-99"/>
        </Node>
        <Node pos="r" depth="1" NCoef="0" IVar="4" Cut="2.6666667461395264e+00" cType="1" res="7.9404638381674886e-04" rms="4.2880901694297791e-01" purity="4.1454616189002991e-01" nType="0">
          <Node pos="l" depth="2" NCoef="0" IVar="2" Cut="2.1042444705963135e+00" cType="1" res="1.7654880648478866e-03" rms="4.2905592918395996e-01" purity="3.8847512006759644e-01" nType="0">
            <Node pos="l" depth="3" NCoef="0" IVar="7" Cut="8.3231460571289062e+01" cType="1" res="3.0070331413298845e-03" rms="4.4792848825454712e-01" purity="4.7111821174621582e-01" nType="0">
              <Node pos="l" depth="4" NCoef="0" IVar="-1" Cut="0.0000000000000000e+00" cType="1" res="2.1165558136999607e-03" rms="4.5670381188392639e-01" purity="4.5497265458106995e-01" nType="-99"/>
              <Node pos="r" depth="4" NCoef="0" IVar="-1" Cut="0.0000000000000000e+00" cType="1" res="1.0221556294709444e-03" rms="4.3799126148223877e-01" purity="4.8901867866516113e-01" nType="-99"/>
            </Node>
            <Node pos="r" depth="3" NCoef="0" IVar="-1" Cut="0.0000000000000000e+00" cType="1" res="-1.3648049207404256e-03" rms="3.8255602121353149e-01" purity="2.0008797943592072e-01" nType="-99"/>
          </Node>
          <Node pos="r" depth="2" NCoef="0" IVar="-1" Cut="0.0000000000000000e+00" cType="1" res="-1.5015609096735716e-03" rms="4.2791417241096497e-01" purity="5.0703334808349609e-01" nType="-99"/>
        </Node>
      </Node>
    </BinaryTree>
    <BinaryTree type="DecisionTree" boostWeight="1.0000000000000000e+00" itree="252">
      <Node pos="s" depth="0" NCoef="0" IVar="2" Cut="2.2916061878204346e+00" cType="1" res="4.4790023821406066e-05" rms="4.1832521557807922e-01" purity="5.0000000000000000e-01" nType="0">
        <Node pos="l" depth="1" NCoef="0" IVar="2" Cut="1.7459816932678223e+00" cType="1" res="-2.8326833853498101e-04" rms="4.2492350935935974e-01" purity="5.4748231172561646e-01" nType="0">
          <Node pos="l" depth="2" NCoef="0" IVar="2" Cut="2.4942405521869659e-01" cType="1" res="1.2421398423612118e-04" rms="4.2049220204353333e-01" purity="5.6724691390991211e-01" nType="0">
            <Node pos="l" depth="3" NCoef="0" IVar="-1" Cut="0.0000000000000000e+00" cType="1" res="-1.2705828994512558e-03" rms="4.0434500575065613e-01" purity="6.0369765758514404e-01" nType="-99"/>
            <Node pos="r" depth="3" NCoef="0" IVar="0" Cut="1.3959091901779175e+00" cType="1" res="6.4743362599983811e-04" rms="4.2380180954933167e-01" purity="5.5959522724151611e-01" nType="0">
              <Node pos="l" depth="4" NCoef="0" IVar="0" Cut="3.3235964179039001e-01" cType="1" res="-2.3724317725282162e-04" rms="4.2497745156288147e-01" purity="5.4530572891235352e-01" nType="0">
                <Node pos="l" depth="5" NCoef="0" IVar="-1" Cut="0.0000000000000000e+00" cType="1" res="9.7761861979961395e-04" rms="4.2298990488052368e-01" purity="5.5313611030578613e-01" nType="-99"/>
                <Node pos="r" depth="5" NCoef="0" IVar="4" Cut="5.2380955219268799e-01" cType="1" res="-1.0451562702655792e-03" rms="4.2573443055152893e-01" purity="5.4230290651321411e-01" nType="0">
                  <Node pos="l" depth="6" NCoef="0" IVar="-1" Cut="0.0000000000000000e+00" cType="1" res="4.9798697000369430e-04" rms="4.2949384450912476e-01" purity="4.8351219296455383e-01" nType="-99"/>
                  <Node pos="r" depth="6" NCoef="0" IVar="0" Cut="7.8816854953765869e-01" cType="1" res="-2.0290846005082130e-03" rms="4.2383852601051331e-01" purity="5.7170176506042480e-01" nType="0">
                    <Node pos="l" depth="7" NCoef="0" IVar="-1" Cut="0.0000000000000000e+00" cType="1" res="3.0820701795164496e-05" rms="4.2368191480636597e-01" purity="5.7552063465118408e-01" nType="-99"/>
                    <Node pos="r" depth="7" NCoef="0" IVar="-1" Cut="0.0000000000000000e+00" cType="1" res="-2.1267295815050602e-03" rms="4.2398306727409363e-01" purity="5.6793051958084106e-01" nType="-99"/>
                  </Node>
                </Node>
              </Node>
              <Node pos="r" depth="4" NCoef="0" IVar="-1" Cut="0.0000000000000000e+00" cType="1" res="1.6250191256403923e-03" rms="4.2033144831657410e-01" purity="6.0141634941101074e-01" nType="-99"/>
            </Node>
          </Node>
          <Node pos="r" depth="2" NCoef="0" IVar="-1" Cut="0.0000000000000000e+00" cType="1" res="-1.8942441092804074e-03" rms="4.5629656314849854e-01" purity="4.0157175064086914e-01" nType="-99"/>
        </Node>
        <Node pos="r" depth="1" NCoef="0" IVar="-1" Cut="0.0000000000000000e+00" cType="1" res="3.4324473235756159e-03" rms="3.7058791518211365e-01" purity="1.7866016924381256e-01" nType="-99"/>
      </Node>
    </BinaryTree>
    <BinaryTree type="DecisionTree" boostWeight="1.0000000000000000e+00" itree="253">
      <Node pos="s" depth="0" NCoef="0" IVar="6" Cut="1.1814180755615234e+02" cType="1" res="-1.5251021068252157e-05" rms="4.1832119226455688e-01" purity="5.0000000000000000e-01" nType="0">
        <Node pos="l" depth="1" NCoef="0" IVar="6" Cut="4.2741188049316406e+01" cType="1" res="-3.0103093013167381e-04" rms="4.1622352600097656e-01" purity="4.7068229317665100e-01" nType="0">
          <Node pos="l" depth="2" NCoef="0" IVar="1" Cut="1.6387506723403931e+00" cType="1" res="-2.4820063263177872e-03" rms="4.2233726382255554e-01" purity="5.2372550964355469e-01" nType="0">
            <Node pos="l" depth="3" NCoef="0" IVar="-1" Cut="0.0000000000000000e+00" cType="1" res="-6.2909559346735477e-04" rms="4.2388072609901428e-01" purity="5.6510776281356812e-01" nType="-99"/>
            <Node pos="r" depth="3" NCoef="0" IVar="-1" Cut="0.0000000000000000e+00" cType="1" res="-2.4672334548085928e-03" rms="4.2052805423736572e-01" purity="4.7555559873580933e-01" nType="-99"/>
          </Node>
          <Node pos="r" depth="2" NCoef="0" IVar="0" Cut="1.8906105756759644e+00" cType="1" res="4.8814961337484419e-04" rms="4.1398620605468750e-01" purity="4.5148873329162598e-01" nType="0">
            <Node pos="l" depth="3" NCoef="0" IVar="5" Cut="1.4413626098632812e+02" cType="1" res="-3.7957608583383262e-04" rms="4.1630074381828308e-01" purity="4.5085045695304871e-01" nType="0">
              <Node pos="l" depth="4" NCoef="0" IVar="5" Cut="1.0750163269042969e+02" cType="1" res="-3.4823506139218807e-03" rms="4.0002062916755676e-01" purity="4.2100450396537781e-01" nType="0">
                <Node pos="l" depth="5" NCoef="0" IVar="-1" Cut="0.0000000000000000e+00" cType="1" res="-5.7307467795908451e-04" rms="3.7413275241851807e-01" purity="3.3657929301261902e-01" nType="-99"/>
                <Node pos="r" depth="5" NCoef="0" IVar="-1" Cut="0.0000000000000000e+00" cType="1" res="-3.7939073517918587e-03" rms="4.2938947677612305e-01" purity="5.2370685338973999e-01" nType="-99"/>
              </Node>
              <Node pos="r" depth="4" NCoef="0" IVar="6" Cut="8.5826957702636719e+01" cType="1" res="3.7588188424706459e-03" rms="4.3703767657279968e-01" purity="4.9065813422203064e-01" nType="0">
                <Node pos="l" depth="5" NCoef="0" IVar="-1" Cut="0.0000000000000000e+00" cType="1" res="3.1526852399110794e-03" rms="4.3749818205833435e-01" purity="4.4955530762672424e-01" nType="-99"/>
                <Node pos="r" depth="5" NCoef="0" IVar="-1" Cut="0.0000000000000000e+00" cType="1" res="1.1090757325291634e-03" rms="4.3660333752632141e-01" purity="5.2884405851364136e-01" nType="-99"/>
              </Node>
            </Node>
            <Node pos="r" depth="3" NCoef="0" IVar="-1" Cut="0.0000000000000000e+00" cType="1" res="3.0625956133008003e-03" rms="4.0231546759605408e-01" purity="4.5464560389518738e-01" nType="-99"/>
          </Node>
        </Node>
        <Node pos="r" depth="1" NCoef="0" IVar="-1" Cut="0.0000000000000000e+00" cType="1" res="6.3958077225834131e-04" rms="4.2836469411849976e-01" purity="6.4245134592056274e-01" nType="-99"/>
      </Node>
    </BinaryTree>
    <BinaryTree type="DecisionTree" boostWeight="1.0000000000000000e+00" itree="254">
      <Node pos="s" depth="0" NCoef="0" IVar="4" Cut="7.1428573131561279e-01" cType="1" res="-1.0161799764318857e-05" rms="4.1831299662590027e-01" purity="5.0000000000000000e-01" nType="0">
        <Node pos="l" depth="1" NCoef="0" IVar="7" Cut="8.3542404174804688e+01" cType="1" res="-1.1676478898152709e-03" rms="4.1929164528846741e-01" purity="4.4392177462577820e-01" nType="0">
          <Node pos="l" depth="2" NCoef="0" IVar="-1" Cut="0.0000000000000000e+00" cType="1" res="-1.4995058299973607e-03" rms="4.2419371008872986e-01" purity="4.6566841006278992e-01" nType="-99"/>
          <Node pos="r" depth="2" NCoef="0" IVar="-1" Cut="0.0000000000000000e+00" cType="1" res="4.1014162707142532e-04" rms="4.1285568475723267e-01" purity="4.1578555107116699e-01" nType="-99"/>
        </Node>
        <Node pos="r" depth="1" NCoef="0" IVar="5" Cut="2.0012669372558594e+02" cType="1" res="4.6874510007910430e-04" rms="4.1790646314620972e-01" purity="5.2320218086242676e-01" nType="0">
          <Node pos="l" depth="2" NCoef="0" IVar="5" Cut="1.3765676879882812e+02" cType="1" res="1.2960197636857629e-03" rms="4.2010033130645752e-01" purity="5.4759806394577026e-01" nType="0">
            <Node pos="l" depth="3" NCoef="0" IVar="5" Cut="9.6009841918945312e+01" cType="1" res="2.6856930926442146e-03" rms="4.1305568814277649e-01" purity="5.5730897188186646e-01" nType="0">
              <Node pos="l" depth="4" NCoef="0" IVar="-1" Cut="0.0000000000000000e+00" cType="1" res="-7.5490103336051106e-04" rms="4.1421544551849365e-01" purity="4.0217971801757812e-01" nType="-99"/>
              <Node pos="r" depth="4" NCoef="0" IVar="-1" Cut="0.0000000000000000e+00" cType="1" res="2.9111062176525593e-03" rms="4.1201931238174438e-01" purity="6.9172978401184082e-01" nType="-99"/>
            </Node>
            <Node pos="r" depth="3" NCoef="0" IVar="-1" Cut="0.0000000000000000e+00" cType="1" res="-1.8141914624720812e-03" rms="4.4316646456718445e-01" purity="5.1460498571395874e-01" nType="-99"/>
          </Node>
          <Node pos="r" depth="2" NCoef="0" IVar="-1" Cut="0.0000000000000000e+00" cType="1" res="-2.1438903640955687e-03" rms="4.0827822685241699e-01" purity="4.1785478591918945e-01" nType="-99"/>
        </Node>
      </Node>
    </BinaryTree>
    <BinaryTree type="DecisionTree" boostWeight="1.0000000000000000e+00" itree="255">
      <Node pos="s" depth="0" NCoef="0" IVar="4" Cut="7.1428573131561279e-01" cType="1" res="6.0580492572626099e-05" rms="4.1831013560295105e-01" purity="5.0000000000000000e-01" nType="0">
        <Node pos="l" depth="1" NCoef="0" IVar="6" Cut="1.1854922485351562e+02" cType="1" res="-9.2395680258050561e-04" rms="4.1928920149803162e-01" purity="4.4392177462577820e-01" nType="0">
          <Node pos="l" depth="2" NCoef="0" IVar="-1" Cut="0.0000000000000000e+00" cType="1" res="4.1719560977071524e-04" rms="4.0133839845657349e-01" purity="3.2457759976387024e-01" nType="-99"/>
          <Node pos="r" depth="2" NCoef="0" IVar="-1" Cut="0.0000000000000000e+00" cType="1" res="-1.2966985814273357e-03" rms="4.4151660799980164e-01" purity="5.9898626804351807e-01" nType="-99"/>
        </Node>
        <Node pos="r" depth="1" NCoef="0" IVar="7" Cut="1.2635140228271484e+02" cType="1" res="4.6793028013780713e-04" rms="4.1790372133255005e-01" purity="5.2320218086242676e-01" nType="0">
          <Node pos="l" depth="2" NCoef="0" IVar="6" Cut="4.2675792694091797e+01" cType="1" res="1.2070444645360112e-03" rms="4.2317223548889160e-01" purity="4.8715421557426453e-01" nType="0">
            <Node pos="l" depth="3" NCoef="0" IVar="-1" Cut="0.0000000000000000e+00" cType="1" res="-1.6997072380036116e-03" rms="4.2641118168830872e-01" purity="4.9842688441276550e-01" nType="-99"/>
            <Node pos="r" depth="3" NCoef="0" IVar="2" Cut="6.5008395910263062e-01" cType="1" res="3.3525209873914719e-03" rms="4.2145723104476929e-01" purity="4.8127529025077820e-01" nType="0">
              <Node pos="l" depth="4" NCoef="0" IVar="-1" Cut="0.0000000000000000e+00" cType="1" res="-2.8574417228810489e-04" rms="4.0281903743743896e-01" purity="5.6054043769836426e-01" nType="-99"/>
              <Node pos="r" depth="4" NCoef="0" IVar="0" Cut="1.0494779348373413e+00" cType="1" res="5.3696455433964729e-03" rms="4.3081879615783691e-01" purity="4.4004845619201660e-01" nType="0">
                <Node pos="l" depth="5" NCoef="0" IVar="-1" Cut="0.0000000000000000e+00" cType="1" res="1.3793774414807558e-03" rms="4.3905091285705566e-01" purity="4.5081931352615356e-01" nType="-99"/>
                <Node pos="r" depth="5" NCoef="0" IVar="-1" Cut="0.0000000000000000e+00" cType="1" res="5.2262428216636181e-03" rms="4.2245000600814819e-01" purity="4.2933350801467896e-01" nType="-99"/>
              </Node>
            </Node>
          </Node>
          <Node pos="r" depth="2" NCoef="0" IVar="-1" Cut="0.0000000000000000e+00" cType="1" res="-1.3186808209866285e-03" rms="3.9623564481735229e-01" purity="6.6662216186523438e-01" nType="-99"/>
        </Node>
      </Node>
    </BinaryTree>
    <BinaryTree type="DecisionTree" boostWeight="1.0000000000000000e+00" itree="256">
      <Node pos="s" depth="0" NCoef="0" IVar="6" Cut="1.1814180755615234e+02" cType="1" res="2.3314310055866372e-06" rms="4.1830304265022278e-01" purity="5.0000000000000000e-01" nType="0">
        <Node pos="l" depth="1" NCoef="0" IVar="0" Cut="1.8972072601318359e+00" cType="1" res="-3.5364273935556412e-04" rms="4.1620221734046936e-01" purity="4.7068229317665100e-01" nType="0">
          <Node pos="l" depth="2" NCoef="0" IVar="5" Cut="1.4124215698242188e+02" cType="1" res="3.1605223193764687e-04" rms="4.1969028115272522e-01" purity="4.7791203856468201e-01" nType="0">
            <Node pos="l" depth="3" NCoef="0" IVar="6" Cut="4.7176486968994141e+01" cType="1" res="-1.5719695948064327e-03" rms="4.0860804915428162e-01" purity="4.7496497631072998e-01" nType="0">
              <Node pos="l" depth="4" NCoef="0" IVar="-1" Cut="0.0000000000000000e+00" cType="1" res="1.8881234573200345e-03" rms="4.2871779203414917e-01" purity="6.0706502199172974e-01" nType="-99"/>
              <Node pos="r" depth="4" NCoef="0" IVar="0" Cut="7.2274506092071533e-01" cType="1" res="-4.3646735139191151e-03" rms="3.9736676216125488e-01" purity="4.0406152606010437e-01" nType="0">
                <Node pos="l" depth="5" NCoef="0" IVar="-1" Cut="0.0000000000000000e+00" cType="1" res="-9.5655693439766765e-04" rms="3.9799633622169495e-01" purity="4.0596294403076172e-01" nType="-99"/>
                <Node pos="r" depth="5" NCoef="0" IVar="-1" Cut="0.0000000000000000e+00" cType="1" res="-5.3167827427387238e-03" rms="3.9665374159812927e-01" purity="4.0198883414268494e-01" nType="-99"/>
              </Node>
            </Node>
            <Node pos="r" depth="3" NCoef="0" IVar="5" Cut="1.9938412475585938e+02" cType="1" res="3.4927495289593935e-03" rms="4.3768557906150818e-01" purity="4.8287075757980347e-01" nType="0">
              <Node pos="l" depth="4" NCoef="0" IVar="-1" Cut="0.0000000000000000e+00" cType="1" res="8.1454339670017362e-04" rms="4.4910615682601929e-01" purity="4.8785465955734253e-01" nType="-99"/>
              <Node pos="r" depth="4" NCoef="0" IVar="-1" Cut="0.0000000000000000e+00" cType="1" res="3.4664825070649385e-03" rms="4.2249333858489990e-01" purity="4.7644543647766113e-01" nType="-99"/>
            </Node>
          </Node>
          <Node pos="r" depth="2" NCoef="0" IVar="-1" Cut="0.0000000000000000e+00" cType="1" res="-1.7909440211951733e-03" rms="4.0360504388809204e-01" purity="4.4509232044219971e-01" nType="-99"/>
        </Node>
        <Node pos="r" depth="1" NCoef="0" IVar="-1" Cut="0.0000000000000000e+00" cType="1" res="8.0601067747920752e-04" rms="4.2835995554924011e-01" purity="6.4245134592056274e-01" nType="-99"/>
      </Node>
    </BinaryTree>
    <BinaryTree type="DecisionTree" boostWeight="1.0000000000000000e+00" itree="257">
      <Node pos="s" depth="0" NCoef="0" IVar="4" Cut="7.1428573131561279e-01" cType="1" res="4.7116587666096166e-05" rms="4.1829600930213928e-01" purity="5.0000000000000000e-01" nType="0">
        <Node pos="l" depth="1" NCoef="0" IVar="6" Cut="1.1854922485351562e+02" cType="1" res="-9.7418110817670822e-04" rms="4.1927063465118408e-01" purity="4.4392177462577820e-01" nType="0">
          <Node pos="l" depth="2" NCoef="0" IVar="-1" Cut="0.0000000000000000e+00" cType="1" res="2.3372724535875022e-04" rms="4.0130698680877686e-01" purity="3.2457759976387024e-01" nType="-99"/>
          <Node pos="r" depth="2" NCoef="0" IVar="-1" Cut="0.0000000000000000e+00" cType="1" res="-1.2066116323694587e-03" rms="4.4151496887207031e-01" purity="5.9898626804351807e-01" nType="-99"/>
        </Node>
        <Node pos="r" depth="1" NCoef="0" IVar="5" Cut="2.0012669372558594e+02" cType="1" res="4.6967589878477156e-04" rms="4.1789135336875916e-01" purity="5.2320218086242676e-01" nType="0">
          <Node pos="l" depth="2" NCoef="0" IVar="5" Cut="1.3765676879882812e+02" cType="1" res="1.3182960683479905e-03" rms="4.2009019851684570e-01" purity="5.4759806394577026e-01" nType="0">
            <Node pos="l" depth="3" NCoef="0" IVar="5" Cut="9.6009841918945312e+01" cType="1" res="2.6358496397733688e-03" rms="4.1304361820220947e-01" purity="5.5730897188186646e-01" nType="0">
              <Node pos="l" depth="4" NCoef="0" IVar="-1" Cut="0.0000000000000000e+00" cType="1" res="-3.5681191366165876e-04" rms="4.1419634222984314e-01" purity="4.0217971801757812e-01" nType="-99"/>
              <Node pos="r" depth="4" NCoef="0" IVar="-1" Cut="0.0000000000000000e+00" cType="1" res="2.6159568224102259e-03" rms="4.1202238202095032e-01" purity="6.9172978401184082e-01" nType="-99"/>
            </Node>
            <Node pos="r" depth="3" NCoef="0" IVar="-1" Cut="0.0000000000000000e+00" cType="1" res="-1.6714114462956786e-03" rms="4.4316577911376953e-01" purity="5.1460498571395874e-01" nType="-99"/>
          </Node>
          <Node pos="r" depth="2" NCoef="0" IVar="-1" Cut="0.0000000000000000e+00" cType="1" res="-2.2071311250329018e-03" rms="4.0824005007743835e-01" purity="4.1785478591918945e-01" nType="-99"/>
        </Node>
      </Node>
    </BinaryTree>
    <BinaryTree type="DecisionTree" boostWeight="1.0000000000000000e+00" itree="258">
      <Node pos="s" depth="0" NCoef="0" IVar="6" Cut="1.1814180755615234e+02" cType="1" res="8.7055152107495815e-05" rms="4.1829353570938110e-01" purity="5.0000000000000000e-01" nType="0">
        <Node pos="l" depth="1" NCoef="0" IVar="3" Cut="2.0000000000000000e+00" cType="1" res="8.1353046698495746e-04" rms="4.1151395440101624e-01" purity="4.7068229317665100e-01" nType="0">
          <Node pos="l" depth="2" NCoef="0" IVar="4" Cut="7.1428573131561279e-01" cType="1" res="4.0628857095725834e-04" rms="4.1529902815818787e-01" purity="5.0974237918853760e-01" nType="0">
            <Node pos="l" depth="3" NCoef="0" IVar="-1" Cut="0.0000000000000000e+00" cType="1" res="2.6814737357199192e-03" rms="4.0400713682174683e-01" purity="3.2515683770179749e-01" nType="-99"/>
            <Node pos="r" depth="3" NCoef="0" IVar="6" Cut="7.3787612915039062e+01" cType="1" res="-4.2472194763831794e-04" rms="4.1829866170883179e-01" purity="5.5969655513763428e-01" nType="0">
              <Node pos="l" depth="4" NCoef="0" IVar="1" Cut="1.6721198558807373e+00" cType="1" res="1.5271984739229083e-03" rms="4.1666930913925171e-01" purity="5.4759812355041504e-01" nType="0">
                <Node pos="l" depth="5" NCoef="0" IVar="-1" Cut="0.0000000000000000e+00" cType="1" res="1.9927194807678461e-03" rms="4.0983796119689941e-01" purity="5.4084706306457520e-01" nType="-99"/>
                <Node pos="r" depth="5" NCoef="0" IVar="-1" Cut="0.0000000000000000e+00" cType="1" res="-8.1056478666141629e-04" rms="4.2732951045036316e-01" purity="5.5837440490722656e-01" nType="-99"/>
              </Node>
              <Node pos="r" depth="4" NCoef="0" IVar="-1" Cut="0.0000000000000000e+00" cType="1" res="-3.0802735127508640e-03" rms="4.2298775911331177e-01" purity="5.9516865015029907e-01" nType="-99"/>
            </Node>
          </Node>
          <Node pos="r" depth="2" NCoef="0" IVar="5" Cut="1.4449981689453125e+02" cType="1" res="-1.9450477557256818e-03" rms="4.1835030913352966e-01" purity="3.7553235888481140e-01" nType="0">
            <Node pos="l" depth="3" NCoef="0" IVar="-1" Cut="0.0000000000000000e+00" cType="1" res="5.7313992874696851e-04" rms="4.2097845673561096e-01" purity="4.2416253685951233e-01" nType="-99"/>
            <Node pos="r" depth="3" NCoef="0" IVar="-1" Cut="0.0000000000000000e+00" cType="1" res="-3.5105259157717228e-03" rms="4.1587668657302856e-01" purity="3.3036094903945923e-01" nType="-99"/>
          </Node>
        </Node>
        <Node pos="r" depth="1" NCoef="0" IVar="-1" Cut="0.0000000000000000e+00" cType="1" res="8.6599896894767880e-04" rms="4.2835932970046997e-01" purity="6.4245134592056274e-01" nType="-99"/>
      </Node>
    </BinaryTree>
    <BinaryTree type="DecisionTree" boostWeight="1.0000000000000000e+00" itree="259">
      <Node pos="s" depth="0" NCoef="0" IVar="4" Cut="7.1428573131561279e-01" cType="1" res="7.8121825936250389e-05" rms="4.1828757524490356e-01" purity="5.0000000000000000e-01" nType="0">
        <Node pos="l" depth="1" NCoef="0" IVar="7" Cut="8.3542404174804688e+01" cType="1" res="-1.2121198233217001e-03" rms="4.1926509141921997e-01" purity="4.4392177462577820e-01" nType="0">
          <Node pos="l" depth="2" NCoef="0" IVar="-1" Cut="0.0000000000000000e+00" cType="1" res="-1.4912410406395793e-03" rms="4.2416724562644958e-01" purity="4.6566841006278992e-01" nType="-99"/>
          <Node pos="r" depth="2" NCoef="0" IVar="-1" Cut="0.0000000000000000e+00" cType="1" res="3.3734430326148868e-04" rms="4.1282957792282104e-01" purity="4.1578555107116699e-01" nType="-99"/>
        </Node>
        <Node pos="r" depth="1" NCoef="0" IVar="2" Cut="1.9642339944839478e+00" cType="1" res="6.1195599846541882e-04" rms="4.1788130998611450e-01" purity="5.2320218086242676e-01" nType="0">
          <Node pos="l" depth="2" NCoef="0" IVar="7" Cut="1.2642032623291016e+02" cType="1" res="-5.5023247114149854e-05" rms="4.2049363255500793e-01" purity="5.9118366241455078e-01" nType="0">
            <Node pos="l" depth="3" NCoef="0" IVar="4" Cut="1.5238095521926880e+00" cType="1" res="1.3102671364322305e-03" rms="4.2907893657684326e-01" purity="5.5594253540039062e-01" nType="0">
              <Node pos="l" depth="4" NCoef="0" IVar="-1" Cut="0.0000000000000000e+00" cType="1" res="3.8901208899915218e-03" rms="4.1641661524772644e-01" purity="4.4411137700080872e-01" nType="-99"/>
              <Node pos="r" depth="4" NCoef="0" IVar="6" Cut="4.2675792694091797e+01" cType="1" res="-2.3362804204225540e-03" rms="4.3761152029037476e-01" purity="6.3352912664413452e-01" nType="0">
                <Node pos="l" depth="5" NCoef="0" IVar="-1" Cut="0.0000000000000000e+00" cType="1" res="-1.3869239483028650e-03" rms="4.3726244568824768e-01" purity="6.0853028297424316e-01" nType="-99"/>
                <Node pos="r" depth="5" NCoef="0" IVar="-1" Cut="0.0000000000000000e+00" cType="1" res="-8.5543753812089562e-04" rms="4.3796977400779724e-01" purity="6.5923726558685303e-01" nType="-99"/>
              </Node>
            </Node>
            <Node pos="r" depth="3" NCoef="0" IVar="-1" Cut="0.0000000000000000e+00" cType="1" res="-2.5044379290193319e-03" rms="3.8857275247573853e-01" purity="7.1582144498825073e-01" nType="-99"/>
          </Node>
          <Node pos="r" depth="2" NCoef="0" IVar="-1" Cut="0.0000000000000000e+00" cType="1" res="3.1271888874471188e-03" rms="4.0740728378295898e-01" purity="2.5515639781951904e-01" nType="-99"/>
        </Node>
      </Node>
    </BinaryTree>
    <BinaryTree type="DecisionTree" boostWeight="1.0000000000000000e+00" itree="260">
      <Node pos="s" depth="0" NCoef="0" IVar="7" Cut="1.2635140228271484e+02" cType="1" res="-3.2952964829746634e-05" rms="4.1827470064163208e-01" purity="5.0000000000000000e-01" nType="0">
        <Node pos="l" depth="1" NCoef="0" IVar="6" Cut="9.1677116394042969e+01" cType="1" res="-4.6639519860036671e-04" rms="4.2179271578788757e-01" purity="4.7062867879867554e-01" nType="0">
          <Node pos="l" depth="2" NCoef="0" IVar="7" Cut="3.6114326477050781e+01" cType="1" res="1.0331165976822376e-03" rms="4.1628199815750122e-01" purity="4.4442299008369446e-01" nType="0">
            <Node pos="l" depth="3" NCoef="0" IVar="-1" Cut="0.0000000000000000e+00" cType="1" res="-3.6688051186501980e-03" rms="4.4723275303840637e-01" purity="4.3195515871047974e-01" nType="-99"/>
            <Node pos="r" depth="3" NCoef="0" IVar="4" Cut="2.4761905670166016e+00" cType="1" res="2.5865714997053146e-03" rms="4.0950861573219299e-01" purity="4.4702580571174622e-01" nType="0">
              <Node pos="l" depth="4" NCoef="0" IVar="3" Cut="1.0000000000000000e+00" cType="1" res="2.5254809297621250e-03" rms="3.8743078708648682e-01" purity="4.0669009089469910e-01" nType="0">
                <Node pos="l" depth="5" NCoef="0" IVar="-1" Cut="0.0000000000000000e+00" cType="1" res="4.7927265986800194e-03" rms="4.1893628239631653e-01" purity="4.8961728811264038e-01" nType="-99"/>
                <Node pos="r" depth="5" NCoef="0" IVar="6" Cut="6.3101387023925781e+01" cType="1" res="2.2039676550775766e-03" rms="3.9415130019187927e-01" purity="3.4864041209220886e-01" nType="0">
                  <Node pos="l" depth="6" NCoef="0" IVar="-1" Cut="0.0000000000000000e+00" cType="1" res="3.5588014870882034e-03" rms="3.9721295237541199e-01" purity="3.6759391427040100e-01" nType="-99"/>
                  <Node pos="r" depth="6" NCoef="0" IVar="-1" Cut="0.0000000000000000e+00" cType="1" res="-2.6107815210707486e-04" rms="3.9110592007637024e-01" purity="3.3003467321395874e-01" nType="-99"/>
                </Node>
              </Node>
              <Node pos="r" depth="4" NCoef="0" IVar="-1" Cut="0.0000000000000000e+00" cType="1" res="-2.0032175816595554e-03" rms="4.2386704683303833e-01" purity="5.6716579198837280e-01" nType="-99"/>
            </Node>
          </Node>
          <Node pos="r" depth="2" NCoef="0" IVar="2" Cut="8.8788229227066040e-01" cType="1" res="-4.2557599954307079e-03" rms="4.3538498878479004e-01" purity="5.3685206174850464e-01" nType="0">
            <Node pos="l" depth="3" NCoef="0" IVar="-1" Cut="0.0000000000000000e+00" cType="1" res="-3.6301973741501570e-03" rms="4.2774444818496704e-01" purity="6.3046509027481079e-01" nType="-99"/>
            <Node pos="r" depth="3" NCoef="0" IVar="-1" Cut="0.0000000000000000e+00" cType="1" res="-1.8267073755851015e-05" rms="4.4461295008659363e-01" purity="4.2112198472023010e-01" nType="-99"/>
          </Node>
        </Node>
        <Node pos="r" depth="1" NCoef="0" IVar="-1" Cut="0.0000000000000000e+00" cType="1" res="9.5626205438748002e-04" rms="4.0287521481513977e-01" purity="6.2562984228134155e-01" nType="-99"/>
      </Node>
    </BinaryTree>
    <BinaryTree type="DecisionTree" boostWeight="1.0000000000000000e+00" itree="261">
      <Node pos="s" depth="0" NCoef="0" IVar="6" Cut="1.1814180755615234e+02" cType="1" res="-5.4709806136088446e-05" rms="4.1825950145721436e-01" purity="5.0000000000000000e-01" nType="0">
        <Node pos="l" depth="1" NCoef="0" IVar="6" Cut="9.1529441833496094e+01" cType="1" res="-4.8672215780243278e-04" rms="4.1615846753120422e-01" purity="4.7068229317665100e-01" nType="0">
          <Node pos="l" depth="2" NCoef="0" IVar="3" Cut="2.0000000000000000e+00" cType="1" res="1.9078298646491021e-04" rms="4.0819394588470459e-01" purity="4.6658635139465332e-01" nType="0">
            <Node pos="l" depth="3" NCoef="0" IVar="6" Cut="4.4008598327636719e+01" cType="1" res="-4.0008043288253248e-04" rms="4.1314503550529480e-01" purity="5.1158249378204346e-01" nType="0">
              <Node pos="l" depth="4" NCoef="0" IVar="-1" Cut="0.0000000000000000e+00" cType="1" res="1.5385280130431056e-03" rms="4.1873648762702942e-01" purity="6.1862403154373169e-01" nType="-99"/>
              <Node pos="r" depth="4" NCoef="0" IVar="5" Cut="1.4417424011230469e+02" cType="1" res="-1.8575885333120823e-03" rms="4.1066142916679382e-01" purity="4.6465867757797241e-01" nType="0">
                <Node pos="l" depth="5" NCoef="0" IVar="6" Cut="6.6637573242187500e+01" cType="1" res="-5.4562510922551155e-03" rms="3.9924100041389465e-01" purity="4.6067476272583008e-01" nType="0">
                  <Node pos="l" depth="6" NCoef="0" IVar="-1" Cut="0.0000000000000000e+00" cType="1" res="-1.2132182018831372e-03" rms="3.9871132373809814e-01" purity="5.0818324089050293e-01" nType="-99"/>
                  <Node pos="r" depth="6" NCoef="0" IVar="-1" Cut="0.0000000000000000e+00" cType="1" res="-6.4470102079212666e-03" rms="3.9982080459594727e-01" purity="4.0529292821884155e-01" nType="-99"/>
                </Node>
                <Node pos="r" depth="5" NCoef="0" IVar="-1" Cut="0.0000000000000000e+00" cType="1" res="3.2035098411142826e-03" rms="4.3367874622344971e-01" purity="4.7306606173515320e-01" nType="-99"/>
              </Node>
            </Node>
            <Node pos="r" depth="3" NCoef="0" IVar="-1" Cut="0.0000000000000000e+00" cType="1" res="-2.0989358890801668e-03" rms="4.1570168733596802e-01" purity="3.5868543386459351e-01" nType="-99"/>
          </Node>
          <Node pos="r" depth="2" NCoef="0" IVar="-1" Cut="0.0000000000000000e+00" cType="1" res="1.2722671963274479e-03" rms="4.2556703090667725e-01" purity="4.8801064491271973e-01" nType="-99"/>
        </Node>
        <Node pos="r" depth="1" NCoef="0" IVar="-1" Cut="0.0000000000000000e+00" cType="1" res="9.5031777163967490e-04" rms="4.2831540107727051e-01" purity="6.4245134592056274e-01" nType="-99"/>
      </Node>
    </BinaryTree>
    <BinaryTree type="DecisionTree" boostWeight="1.0000000000000000e+00" itree="262">
      <Node pos="s" depth="0" NCoef="0" IVar="3" Cut="2.0000000000000000e+00" cType="1" res="8.9482055045664310e-04" rms="4.1432437300682068e-01" purity="5.0000000000000000e-01" nType="0">
        <Node pos="l" depth="1" NCoef="0" IVar="5" Cut="1.5990359497070312e+02" cType="1" res="-6.3248974038287997e-04" rms="4.1585087776184082e-01" purity="5.2830606698989868e-01" nType="0">
          <Node pos="l" depth="2" NCoef="0" IVar="5" Cut="9.7141265869140625e+01" cType="1" res="4.7991826431825757e-04" rms="4.1065615415573120e-01" purity="5.2064317464828491e-01" nType="0">
            <Node pos="l" depth="3" NCoef="0" IVar="-1" Cut="0.0000000000000000e+00" cType="1" res="-6.5729622729122639e-03" rms="3.8628345727920532e-01" purity="3.7574788928031921e-01" nType="-99"/>
            <Node pos="r" depth="3" NCoef="0" IVar="5" Cut="1.1806170654296875e+02" cType="1" res="4.0234695188701153e-03" rms="4.1945731639862061e-01" purity="5.7548511028289795e-01" nType="0">
              <Node pos="l" depth="4" NCoef="0" IVar="-1" Cut="0.0000000000000000e+00" cType="1" res="4.6255909837782383e-03" rms="4.0337908267974854e-01" purity="6.3418787717819214e-01" nType="-99"/>
              <Node pos="r" depth="4" NCoef="0" IVar="-1" Cut="0.0000000000000000e+00" cType="1" res="3.5198964178562164e-04" rms="4.3079289793968201e-01" purity="5.3259950876235962e-01" nType="-99"/>
            </Node>
          </Node>
          <Node pos="r" depth="2" NCoef="0" IVar="-1" Cut="0.0000000000000000e+00" cType="1" res="-1.6348719364032149e-03" rms="4.2742225527763367e-01" purity="5.4573816061019897e-01" nType="-99"/>
        </Node>
        <Node pos="r" depth="1" NCoef="0" IVar="5" Cut="2.2955096435546875e+02" cType="1" res="1.3813814148306847e-03" rms="4.2326170206069946e-01" purity="4.4034042954444885e-01" nType="0">
          <Node pos="l" depth="2" NCoef="0" IVar="-1" Cut="0.0000000000000000e+00" cType="1" res="-8.7784533388912678e-04" rms="4.3130555748939514e-01" purity="4.3614840507507324e-01" nType="-99"/>
          <Node pos="r" depth="2" NCoef="0" IVar="-1" Cut="0.0000000000000000e+00" cType="1" res="3.6071646027266979e-03" rms="4.1062375903129578e-01" purity="4.4674819707870483e-01" nType="-99"/>
        </Node>
      </Node>
    </BinaryTree>
    <BinaryTree type="DecisionTree" boostWeight="1.0000000000000000e+00" itree="263">
      <Node pos="s" depth="0" NCoef="0" IVar="3" Cut="1.0000000000000000e+00" cType="1" res="9.5169752603396773e-04" rms="4.1431346535682678e-01" purity="5.0000000000000000e-01" nType="0">
        <Node pos="l" depth="1" NCoef="0" IVar="6" Cut="7.7472183227539062e+01" cType="1" res="-1.0016477899625897e-03" rms="4.1639173030853271e-01" purity="5.4398608207702637e-01" nType="0">
          <Node pos="l" depth="2" NCoef="0" IVar="-1" Cut="0.0000000000000000e+00" cType="1" res="2.1610013209283352e-04" rms="4.1566953063011169e-01" purity="5.7798892259597778e-01" nType="-99"/>
          <Node pos="r" depth="2" NCoef="0" IVar="-1" Cut="0.0000000000000000e+00" cType="1" res="-1.8278738716617227e-03" rms="4.1745629906654358e-01" purity="4.9334400892257690e-01" nType="-99"/>
        </Node>
        <Node pos="r" depth="1" NCoef="0" IVar="5" Cut="2.2955096435546875e+02" cType="1" res="6.5134116448462009e-04" rms="4.1925972700119019e-01" purity="4.7559583187103271e-01" nType="0">
          <Node pos="l" depth="2" NCoef="0" IVar="4" Cut="6.6666668653488159e-01" cType="1" res="-4.7784362686797976e-04" rms="4.2393371462821960e-01" purity="4.7001934051513672e-01" nType="0">
            <Node pos="l" depth="3" NCoef="0" IVar="-1" Cut="0.0000000000000000e+00" cType="1" res="-5.7011740282177925e-03" rms="4.2979782819747925e-01" purity="4.2295798659324646e-01" nType="-99"/>
            <Node pos="r" depth="3" NCoef="0" IVar="5" Cut="1.1597174072265625e+02" cType="1" res="2.4309584405273199e-03" rms="4.2208361625671387e-01" purity="4.8439264297485352e-01" nType="0">
              <Node pos="l" depth="4" NCoef="0" IVar="1" Cut="1.1739170551300049e+00" cType="1" res="6.5365587361156940e-03" rms="4.1438284516334534e-01" purity="4.7758844494819641e-01" nType="0">
                <Node pos="l" depth="5" NCoef="0" IVar="-1" Cut="0.0000000000000000e+00" cType="1" res="2.5492778513580561e-03" rms="3.9885318279266357e-01" purity="4.3501484394073486e-01" nType="-99"/>
                <Node pos="r" depth="5" NCoef="0" IVar="-1" Cut="0.0000000000000000e+00" cType="1" res="5.0468216650187969e-03" rms="4.2945155501365662e-01" purity="5.2050268650054932e-01" nType="-99"/>
              </Node>
              <Node pos="r" depth="4" NCoef="0" IVar="-1" Cut="0.0000000000000000e+00" cType="1" res="-3.2665100879967213e-03" rms="4.3704137206077576e-01" purity="4.9807465076446533e-01" nType="-99"/>
            </Node>
          </Node>
          <Node pos="r" depth="2" NCoef="0" IVar="-1" Cut="0.0000000000000000e+00" cType="1" res="2.0339672919362783e-03" rms="4.0760007500648499e-01" purity="4.8922234773635864e-01" nType="-99"/>
        </Node>
      </Node>
    </BinaryTree>
    <BinaryTree type="DecisionTree" boostWeight="1.0000000000000000e+00" itree="264">
      <Node pos="s" depth="0" NCoef="0" IVar="6" Cut="1.1814180755615234e+02" cType="1" res="7.0029920607339591e-05" rms="4.1822105646133423e-01" purity="5.0000000000000000e-01" nType="0">
        <Node pos="l" depth="1" NCoef="0" IVar="6" Cut="6.9352966308593750e+01" cType="1" res="-2.8514146106317639e-04" rms="4.1613233089447021e-01" purity="4.7068229317665100e-01" nType="0">
          <Node pos="l" depth="2" NCoef="0" IVar="5" Cut="1.4449981689453125e+02" cType="1" res="-1.5079462900757790e-03" rms="4.1522303223609924e-01" purity="4.8710140585899353e-01" nType="0">
            <Node pos="l" depth="3" NCoef="0" IVar="5" Cut="8.1746215820312500e+01" cType="1" res="-3.1455558200832456e-05" rms="4.1537135839462280e-01" purity="5.4426264762878418e-01" nType="0">
              <Node pos="l" depth="4" NCoef="0" IVar="-1" Cut="0.0000000000000000e+00" cType="1" res="4.0659317746758461e-03" rms="4.1024747490882874e-01" purity="3.0504277348518372e-01" nType="-99"/>
              <Node pos="r" depth="4" NCoef="0" IVar="-1" Cut="0.0000000000000000e+00" cType="1" res="-1.2321999529376626e-03" rms="4.1768410801887512e-01" purity="6.5428680181503296e-01" nType="-99"/>
            </Node>
            <Node pos="r" depth="3" NCoef="0" IVar="-1" Cut="0.0000000000000000e+00" cType="1" res="-4.5270719565451145e-03" rms="4.1477033495903015e-01" purity="3.2389029860496521e-01" nType="-99"/>
          </Node>
          <Node pos="r" depth="2" NCoef="0" IVar="7" Cut="7.5605125427246094e+01" cType="1" res="1.3388647930696607e-03" rms="4.1733136773109436e-01" purity="4.4887605309486389e-01" nType="0">
            <Node pos="l" depth="3" NCoef="0" IVar="-1" Cut="0.0000000000000000e+00" cType="1" res="-9.2314544599503279e-04" rms="4.4146227836608887e-01" purity="4.6086344122886658e-01" nType="-99"/>
            <Node pos="r" depth="3" NCoef="0" IVar="-1" Cut="0.0000000000000000e+00" cType="1" res="2.4297120980918407e-03" rms="3.9708054065704346e-01" purity="4.3934342265129089e-01" nType="-99"/>
          </Node>
        </Node>
        <Node pos="r" depth="1" NCoef="0" IVar="-1" Cut="0.0000000000000000e+00" cType="1" res="8.3578022895380855e-04" rms="4.2822077870368958e-01" purity="6.4245134592056274e-01" nType="-99"/>
      </Node>
    </BinaryTree>
    <BinaryTree type="DecisionTree" boostWeight="1.0000000000000000e+00" itree="265">
      <Node pos="s" depth="0" NCoef="0" IVar="6" Cut="1.1814180755615234e+02" cType="1" res="5.2711558964801952e-05" rms="4.1821217536926270e-01" purity="5.0000000000000000e-01" nType="0">
        <Node pos="l" depth="1" NCoef="0" IVar="6" Cut="9.1529441833496094e+01" cType="1" res="-2.4126138305291533e-04" rms="4.1612121462821960e-01" purity="4.7068229317665100e-01" nType="0">
          <Node pos="l" depth="2" NCoef="0" IVar="3" Cut="2.0000000000000000e+00" cType="1" res="4.8869382590055466e-04" rms="4.0816083550453186e-01" purity="4.6658635139465332e-01" nType="0">
            <Node pos="l" depth="3" NCoef="0" IVar="5" Cut="1.4241572570800781e+02" cType="1" res="4.4384112698026001e-05" rms="4.1310912370681763e-01" purity="5.1158249378204346e-01" nType="0">
              <Node pos="l" depth="4" NCoef="0" IVar="6" Cut="6.3016925811767578e+01" cType="1" res="-1.3158664805814624e-03" rms="4.0516477823257446e-01" purity="5.3260350227355957e-01" nType="0">
                <Node pos="l" depth="5" NCoef="0" IVar="-1" Cut="0.0000000000000000e+00" cType="1" res="1.3234709622338414e-03" rms="4.0850040316581726e-01" purity="6.0085111856460571e-01" nType="-99"/>
                <Node pos="r" depth="5" NCoef="0" IVar="-1" Cut="0.0000000000000000e+00" cType="1" res="-5.6219892576336861e-03" rms="3.9887052774429321e-01" purity="4.0721380710601807e-01" nType="-99"/>
              </Node>
              <Node pos="r" depth="4" NCoef="0" IVar="-1" Cut="0.0000000000000000e+00" cType="1" res="2.0705612841993570e-03" rms="4.3313851952552795e-01" purity="4.5671561360359192e-01" nType="-99"/>
            </Node>
            <Node pos="r" depth="3" NCoef="0" IVar="-1" Cut="0.0000000000000000e+00" cType="1" res="-2.1134433336555958e-03" rms="4.1567108035087585e-01" purity="3.5868543386459351e-01" nType="-99"/>
          </Node>
          <Node pos="r" depth="2" NCoef="0" IVar="-1" Cut="0.0000000000000000e+00" cType="1" res="1.2622441863641143e-03" rms="4.2551726102828979e-01" purity="4.8801064491271973e-01" nType="-99"/>
        </Node>
        <Node pos="r" depth="1" NCoef="0" IVar="-1" Cut="0.0000000000000000e+00" cType="1" res="6.8972009466961026e-04" rms="4.2822381854057312e-01" purity="6.4245134592056274e-01" nType="-99"/>
      </Node>
    </BinaryTree>
    <BinaryTree type="DecisionTree" boostWeight="1.0000000000000000e+00" itree="266">
      <Node pos="s" depth="0" NCoef="0" IVar="0" Cut="2.3188085556030273e+00" cType="1" res="1.0051306890090927e-04" rms="4.1820561885833740e-01" purity="5.0000000000000000e-01" nType="0">
        <Node pos="l" depth="1" NCoef="0" IVar="4" Cut="2.1428570747375488e+00" cType="1" res="-1.2227857951074839e-04" rms="4.2034515738487244e-01" purity="5.0221854448318481e-01" nType="0">
          <Node pos="l" depth="2" NCoef="0" IVar="1" Cut="2.1213152408599854e+00" cType="1" res="-1.0352518875151873e-03" rms="4.1880407929420471e-01" purity="4.7749820351600647e-01" nType="0">
            <Node pos="l" depth="3" NCoef="0" IVar="4" Cut="1.0476191043853760e+00" cType="1" res="1.2756734213326126e-04" rms="4.1339552402496338e-01" purity="4.6416559815406799e-01" nType="0">
              <Node pos="l" depth="4" NCoef="0" IVar="7" Cut="8.6280738830566406e+01" cType="1" res="-7.5957988156005740e-04" rms="4.0749728679656982e-01" purity="4.1861146688461304e-01" nType="0">
                <Node pos="l" depth="5" NCoef="0" IVar="-1" Cut="0.0000000000000000e+00" cType="1" res="1.5621058410033584e-03" rms="4.2331838607788086e-01" purity="4.1343504190444946e-01" nType="-99"/>
                <Node pos="r" depth="5" NCoef="0" IVar="2" Cut="9.1203773021697998e-01" cType="1" res="-3.3824816346168518e-03" rms="3.9414069056510925e-01" purity="4.2282205820083618e-01" nType="0">
                  <Node pos="l" depth="6" NCoef="0" IVar="-1" Cut="0.0000000000000000e+00" cType="1" res="2.4971582461148500e-03" rms="3.7454408407211304e-01" purity="5.0221174955368042e-01" nType="-99"/>
                  <Node pos="r" depth="6" NCoef="0" IVar="-1" Cut="0.0000000000000000e+00" cType="1" res="-8.7664555758237839e-03" rms="4.1508254408836365e-01" purity="3.3278024196624756e-01" nType="-99"/>
                </Node>
              </Node>
              <Node pos="r" depth="4" NCoef="0" IVar="-1" Cut="0.0000000000000000e+00" cType="1" res="1.3568686554208398e-03" rms="4.2952060699462891e-01" purity="5.9212571382522583e-01" nType="-99"/>
            </Node>
            <Node pos="r" depth="3" NCoef="0" IVar="-1" Cut="0.0000000000000000e+00" cType="1" res="-3.1140192877501249e-03" rms="4.4172129034996033e-01" purity="5.3600895404815674e-01" nType="-99"/>
          </Node>
          <Node pos="r" depth="2" NCoef="0" IVar="-1" Cut="0.0000000000000000e+00" cType="1" res="2.3364149965345860e-03" rms="4.2827397584915161e-01" purity="6.3135808706283569e-01" nType="-99"/>
        </Node>
        <Node pos="r" depth="1" NCoef="0" IVar="-1" Cut="0.0000000000000000e+00" cType="1" res="1.1755195446312428e-03" rms="4.0096884965896606e-01" purity="4.8254388570785522e-01" nType="-99"/>
      </Node>
    </BinaryTree>
    <BinaryTree type="DecisionTree" boostWeight="1.0000000000000000e+00" itree="267">
      <Node pos="s" depth="0" NCoef="0" IVar="6" Cut="1.1814180755615234e+02" cType="1" res="1.6831848188303411e-04" rms="4.1818863153457642e-01" purity="5.0000000000000000e-01" nType="0">
        <Node pos="l" depth="1" NCoef="0" IVar="6" Cut="6.9352966308593750e+01" cType="1" res="-1.7067157023120672e-04" rms="4.1609284281730652e-01" purity="4.7068229317665100e-01" nType="0">
          <Node pos="l" depth="2" NCoef="0" IVar="0" Cut="2.1080124378204346e+00" cType="1" res="-1.4413935132324696e-03" rms="4.1519179940223694e-01" purity="4.8710140585899353e-01" nType="0">
            <Node pos="l" depth="3" NCoef="0" IVar="6" Cut="3.7672225952148438e+01" cType="1" res="-3.3435027580708265e-04" rms="4.2048045992851257e-01" purity="4.9823886156082153e-01" nType="0">
              <Node pos="l" depth="4" NCoef="0" IVar="-1" Cut="0.0000000000000000e+00" cType="1" res="3.6455353256314993e-03" rms="4.3451896309852600e-01" purity="5.6411057710647583e-01" nType="-99"/>
              <Node pos="r" depth="4" NCoef="0" IVar="2" Cut="1.0894577503204346e+00" cType="1" res="-3.8287588395178318e-03" rms="4.1334697604179382e-01" purity="4.6579885482788086e-01" nType="0">
                <Node pos="l" depth="5" NCoef="0" IVar="-1" Cut="0.0000000000000000e+00" cType="1" res="-1.5171496197581291e-03" rms="3.9984175562858582e-01" purity="5.2185088396072388e-01" nType="-99"/>
                <Node pos="r" depth="5" NCoef="0" IVar="-1" Cut="0.0000000000000000e+00" cType="1" res="-3.6305063404142857e-03" rms="4.3081939220428467e-01" purity="3.9049383997917175e-01" nType="-99"/>
              </Node>
            </Node>
            <Node pos="r" depth="3" NCoef="0" IVar="-1" Cut="0.0000000000000000e+00" cType="1" res="-3.2442056108266115e-03" rms="3.9831492304801941e-01" purity="4.5254233479499817e-01" nType="-99"/>
          </Node>
          <Node pos="r" depth="2" NCoef="0" IVar="1" Cut="1.8391916751861572e+00" cType="1" res="1.5169732505455613e-03" rms="4.1728052496910095e-01" purity="4.4887605309486389e-01" nType="0">
            <Node pos="l" depth="3" NCoef="0" IVar="2" Cut="1.0684064626693726e+00" cType="1" res="-2.6781024644151330e-04" rms="4.0891042351722717e-01" purity="4.2201387882232666e-01" nType="0">
              <Node pos="l" depth="4" NCoef="0" IVar="-1" Cut="0.0000000000000000e+00" cType="1" res="1.0458698961883783e-03" rms="4.0572595596313477e-01" purity="4.9879598617553711e-01" nType="-99"/>
              <Node pos="r" depth="4" NCoef="0" IVar="-1" Cut="0.0000000000000000e+00" cType="1" res="-2.4770663585513830e-03" rms="4.1334715485572815e-01" purity="3.1360813975334167e-01" nType="-99"/>
            </Node>
            <Node pos="r" depth="3" NCoef="0" IVar="-1" Cut="0.0000000000000000e+00" cType="1" res="2.9850059654563665e-03" rms="4.3601304292678833e-01" purity="5.1106131076812744e-01" nType="-99"/>
          </Node>
        </Node>
        <Node pos="r" depth="1" NCoef="0" IVar="-1" Cut="0.0000000000000000e+00" cType="1" res="8.4586173761636019e-04" rms="4.2822203040122986e-01" purity="6.4245134592056274e-01" nType="-99"/>
      </Node>
    </BinaryTree>
    <BinaryTree type="DecisionTree" boostWeight="1.0000000000000000e+00" itree="268">
      <Node pos="s" depth="0" NCoef="0" IVar="0" Cut="2.3188085556030273e+00" cType="1" res="1.9925259402953088e-04" rms="4.1817992925643921e-01" purity="5.0000000000000000e-01" nType="0">
        <Node pos="l" depth="1" NCoef="0" IVar="4" Cut="2.1428570747375488e+00" cType="1" res="-5.7554851082386449e-05" rms="4.2032057046890259e-01" purity="5.0221854448318481e-01" nType="0">
          <Node pos="l" depth="2" NCoef="0" IVar="1" Cut="2.1213152408599854e+00" cType="1" res="-7.4329844210296869e-04" rms="4.1877347230911255e-01" purity="4.7749820351600647e-01" nType="0">
            <Node pos="l" depth="3" NCoef="0" IVar="3" Cut="2.0000000000000000e+00" cType="1" res="1.0231309570372105e-03" rms="3.9480432868003845e-01" purity="4.6416559815406799e-01" nType="0">
              <Node pos="l" depth="4" NCoef="0" IVar="3" Cut="1.0000000000000000e+00" cType="1" res="3.4567423426778987e-05" rms="1.7180550098419189e-01" purity="4.7544986009597778e-01" nType="0">
                <Node pos="l" depth="5" NCoef="0" IVar="6" Cut="7.7472801208496094e+01" cType="1" res="1.0578294750303030e-03" rms="4.1848897933959961e-01" purity="4.9780136346817017e-01" nType="0">
                  <Node pos="l" depth="6" NCoef="0" IVar="-1" Cut="0.0000000000000000e+00" cType="1" res="2.8203211259096861e-03" rms="4.2129015922546387e-01" purity="5.1616370677947998e-01" nType="-99"/>
                  <Node pos="r" depth="6" NCoef="0" IVar="-1" Cut="0.0000000000000000e+00" cType="1" res="-1.7422945238649845e-03" rms="4.1560736298561096e-01" purity="4.7927981615066528e-01" nType="-99"/>
                </Node>
                <Node pos="r" depth="5" NCoef="0" IVar="1" Cut="1.0101460218429565e+00" cType="1" res="-2.6286768261343241e-03" rms="4.0811803936958313e-01" purity="4.4989004731178284e-01" nType="0">
                  <Node pos="l" depth="6" NCoef="0" IVar="-1" Cut="0.0000000000000000e+00" cType="1" res="7.5536780059337616e-04" rms="4.0026459097862244e-01" purity="4.3311357498168945e-01" nType="-99"/>
                  <Node pos="r" depth="6" NCoef="0" IVar="-1" Cut="0.0000000000000000e+00" cType="1" res="-3.7506746593862772e-03" rms="4.1552019119262695e-01" purity="4.6607300639152527e-01" nType="-99"/>
                </Node>
              </Node>
              <Node pos="r" depth="4" NCoef="0" IVar="-1" Cut="0.0000000000000000e+00" cType="1" res="1.7496292712166905e-03" rms="4.1252067685127258e-01" purity="4.3514820933341980e-01" nType="-99"/>
            </Node>
            <Node pos="r" depth="3" NCoef="0" IVar="-1" Cut="0.0000000000000000e+00" cType="1" res="-2.7301842346787453e-03" rms="4.4170117378234863e-01" purity="5.3600895404815674e-01" nType="-99"/>
          </Node>
          <Node pos="r" depth="2" NCoef="0" IVar="-1" Cut="0.0000000000000000e+00" cType="1" res="1.7752181738615036e-03" rms="4.2829406261444092e-01" purity="6.3135808706283569e-01" nType="-99"/>
        </Node>
        <Node pos="r" depth="1" NCoef="0" IVar="-1" Cut="0.0000000000000000e+00" cType="1" res="1.4073491329327226e-03" rms="4.0093249082565308e-01" purity="4.8254388570785522e-01" nType="-99"/>
      </Node>
    </BinaryTree>
    <BinaryTree type="DecisionTree" boostWeight="1.0000000000000000e+00" itree="269">
      <Node pos="s" depth="0" NCoef="0" IVar="6" Cut="1.1814180755615234e+02" cType="1" res="1.6469645197503269e-04" rms="4.1817137598991394e-01" purity="5.0000000000000000e-01" nType="0">
        <Node pos="l" depth="1" NCoef="0" IVar="6" Cut="4.2741188049316406e+01" cType="1" res="-1.5674246242269874e-04" rms="4.1607499122619629e-01" purity="4.7068229317665100e-01" nType="0">
          <Node pos="l" depth="2" NCoef="0" IVar="6" Cut="3.0913730621337891e+01" cType="1" res="-3.2715969718992710e-03" rms="4.2221465706825256e-01" purity="5.2372550964355469e-01" nType="0">
            <Node pos="l" depth="3" NCoef="0" IVar="-1" Cut="0.0000000000000000e+00" cType="1" res="-2.6980808470398188e-03" rms="4.2671656608581543e-01" purity="4.7890874743461609e-01" nType="-99"/>
            <Node pos="r" depth="3" NCoef="0" IVar="-1" Cut="0.0000000000000000e+00" cType="1" res="-1.2560636969283223e-03" rms="4.1817945241928101e-01" purity="5.6346571445465088e-01" nType="-99"/>
          </Node>
          <Node pos="r" depth="2" NCoef="0" IVar="1" Cut="2.1659178733825684e+00" cType="1" res="9.7035989165306091e-04" rms="4.1382515430450439e-01" purity="4.5148873329162598e-01" nType="0">
            <Node pos="l" depth="3" NCoef="0" IVar="7" Cut="7.6383224487304688e+01" cType="1" res="-6.3046456489246339e-05" rms="4.0857601165771484e-01" purity="4.3122646212577820e-01" nType="0">
              <Node pos="l" depth="4" NCoef="0" IVar="-1" Cut="0.0000000000000000e+00" cType="1" res="2.2398266009986401e-03" rms="4.3687844276428223e-01" purity="4.3903496861457825e-01" nType="-99"/>
              <Node pos="r" depth="4" NCoef="0" IVar="6" Cut="8.2236488342285156e+01" cType="1" res="-2.4732185993343592e-03" rms="3.8985341787338257e-01" purity="4.2635321617126465e-01" nType="0">
                <Node pos="l" depth="5" NCoef="0" IVar="-1" Cut="0.0000000000000000e+00" cType="1" res="-5.9090158902108669e-03" rms="3.8216632604598999e-01" purity="4.1603460907936096e-01" nType="-99"/>
                <Node pos="r" depth="5" NCoef="0" IVar="-1" Cut="0.0000000000000000e+00" cType="1" res="4.2332434095442295e-03" rms="4.0130412578582764e-01" purity="4.4233593344688416e-01" nType="-99"/>
              </Node>
            </Node>
            <Node pos="r" depth="3" NCoef="0" IVar="-1" Cut="0.0000000000000000e+00" cType="1" res="2.5278632529079914e-03" rms="4.3270856142044067e-01" purity="5.2660745382308960e-01" nType="-99"/>
          </Node>
        </Node>
        <Node pos="r" depth="1" NCoef="0" IVar="-1" Cut="0.0000000000000000e+00" cType="1" res="8.0451404210180044e-04" rms="4.2820793390274048e-01" purity="6.4245134592056274e-01" nType="-99"/>
      </Node>
    </BinaryTree>
    <BinaryTree type="DecisionTree" boostWeight="1.0000000000000000e+00" itree="270">
      <Node pos="s" depth="0" NCoef="0" IVar="7" Cut="1.2635140228271484e+02" cType="1" res="1.4673378609586507e-04" rms="4.1815966367721558e-01" purity="5.0000000000000000e-01" nType="0">
        <Node pos="l" depth="1" NCoef="0" IVar="6" Cut="9.1677116394042969e+01" cType="1" res="-1.9465787045191973e-04" rms="4.2170038819313049e-01" purity="4.7062867879867554e-01" nType="0">
          <Node pos="l" depth="2" NCoef="0" IVar="6" Cut="5.3575893402099609e+01" cType="1" res="1.4386035036295652e-03" rms="4.1618770360946655e-01" purity="4.4442299008369446e-01" nType="0">
            <Node pos="l" depth="3" NCoef="0" IVar="4" Cut="2.4761905670166016e+00" cType="1" res="-2.5628288276493549e-03" rms="4.2288911342620850e-01" purity="5.0258678197860718e-01" nType="0">
              <Node pos="l" depth="4" NCoef="0" IVar="-1" Cut="0.0000000000000000e+00" cType="1" res="7.6980883022770286e-04" rms="4.1945925354957581e-01" purity="4.7327131032943726e-01" nType="-99"/>
              <Node pos="r" depth="4" NCoef="0" IVar="-1" Cut="0.0000000000000000e+00" cType="1" res="-3.8406148087233305e-03" rms="4.2669233679771423e-01" purity="5.3572940826416016e-01" nType="-99"/>
            </Node>
            <Node pos="r" depth="3" NCoef="0" IVar="7" Cut="6.0215820312500000e+01" cType="1" res="4.9639274366199970e-03" rms="4.1016063094139099e-01" purity="3.9317980408668518e-01" nType="0">
              <Node pos="l" depth="4" NCoef="0" IVar="-1" Cut="0.0000000000000000e+00" cType="1" res="-3.6506689502857625e-04" rms="4.4357019662857056e-01" purity="4.2082390189170837e-01" nType="-99"/>
              <Node pos="r" depth="4" NCoef="0" IVar="-1" Cut="0.0000000000000000e+00" cType="1" res="5.8769532479345798e-03" rms="3.8976433873176575e-01" purity="3.7739402055740356e-01" nType="-99"/>
            </Node>
          </Node>
          <Node pos="r" depth="2" NCoef="0" IVar="2" Cut="8.8788229227066040e-01" cType="1" res="-4.3220166116952896e-03" rms="4.3529292941093445e-01" purity="5.3685206174850464e-01" nType="0">
            <Node pos="l" depth="3" NCoef="0" IVar="-1" Cut="0.0000000000000000e+00" cType="1" res="-3.5347966477274895e-03" rms="4.2763516306877136e-01" purity="6.3046509027481079e-01" nType="-99"/>
            <Node pos="r" depth="3" NCoef="0" IVar="-1" Cut="0.0000000000000000e+00" cType="1" res="-2.4736454361118376e-04" rms="4.4454672932624817e-01" purity="4.2112198472023010e-01" nType="-99"/>
          </Node>
        </Node>
        <Node pos="r" depth="1" NCoef="0" IVar="-1" Cut="0.0000000000000000e+00" cType="1" res="8.4638554835692048e-04" rms="4.0266045928001404e-01" purity="6.2562984228134155e-01" nType="-99"/>
      </Node>
    </BinaryTree>
    <BinaryTree type="DecisionTree" boostWeight="1.0000000000000000e+00" itree="271">
      <Node pos="s" depth="0" NCoef="0" IVar="6" Cut="1.1814180755615234e+02" cType="1" res="6.3439067162107676e-05" rms="4.1814020276069641e-01" purity="5.0000000000000000e-01" nType="0">
        <Node pos="l" depth="1" NCoef="0" IVar="1" Cut="1.0924954414367676e+00" cType="1" res="-2.9198269476182759e-04" rms="4.1604521870613098e-01" purity="4.7068229317665100e-01" nType="0">
          <Node pos="l" depth="2" NCoef="0" IVar="5" Cut="1.4083737182617188e+02" cType="1" res="-1.6548611456528306e-03" rms="4.0686628222465515e-01" purity="4.5949295163154602e-01" nType="0">
            <Node pos="l" depth="3" NCoef="0" IVar="7" Cut="9.4076988220214844e+01" cType="1" res="-2.9980735853314400e-03" rms="3.9606925845146179e-01" purity="4.6714970469474792e-01" nType="0">
              <Node pos="l" depth="4" NCoef="0" IVar="-1" Cut="0.0000000000000000e+00" cType="1" res="-3.8371335249394178e-03" rms="4.2348113656044006e-01" purity="4.4118109345436096e-01" nType="-99"/>
              <Node pos="r" depth="4" NCoef="0" IVar="-1" Cut="0.0000000000000000e+00" cType="1" res="5.7377334451302886e-04" rms="3.5992082953453064e-01" purity="4.9870830774307251e-01" nType="-99"/>
            </Node>
            <Node pos="r" depth="3" NCoef="0" IVar="-1" Cut="0.0000000000000000e+00" cType="1" res="6.7519466392695904e-04" rms="4.2832776904106140e-01" purity="4.4365179538726807e-01" nType="-99"/>
          </Node>
          <Node pos="r" depth="2" NCoef="0" IVar="2" Cut="1.3094892501831055e+00" cType="1" res="6.1903492314741015e-04" rms="4.2206713557243347e-01" purity="4.7816184163093567e-01" nType="0">
            <Node pos="l" depth="3" NCoef="0" IVar="5" Cut="1.0842897796630859e+02" cType="1" res="2.1722642704844475e-03" rms="4.2306679487228394e-01" purity="5.7187777757644653e-01" nType="0">
              <Node pos="l" depth="4" NCoef="0" IVar="-1" Cut="0.0000000000000000e+00" cType="1" res="3.0846216250211000e-03" rms="4.0849992632865906e-01" purity="4.7173351049423218e-01" nType="-99"/>
              <Node pos="r" depth="4" NCoef="0" IVar="-1" Cut="0.0000000000000000e+00" cType="1" res="-3.2751082471804693e-05" rms="4.3436294794082642e-01" purity="6.5204548835754395e-01" nType="-99"/>
            </Node>
            <Node pos="r" depth="3" NCoef="0" IVar="2" Cut="2.1045479774475098e+00" cType="1" res="-1.4674187405034900e-03" rms="4.2071154713630676e-01" purity="3.5227319598197937e-01" nType="0">
              <Node pos="l" depth="4" NCoef="0" IVar="-1" Cut="0.0000000000000000e+00" cType="1" res="7.0006883470341563e-04" rms="4.5280349254608154e-01" purity="4.8829317092895508e-01" nType="-99"/>
              <Node pos="r" depth="4" NCoef="0" IVar="-1" Cut="0.0000000000000000e+00" cType="1" res="-5.6755212135612965e-03" rms="3.8267901539802551e-01" purity="2.0410348474979401e-01" nType="-99"/>
            </Node>
          </Node>
        </Node>
        <Node pos="r" depth="1" NCoef="0" IVar="-1" Cut="0.0000000000000000e+00" cType="1" res="8.3393522072583437e-04" rms="4.2816931009292603e-01" purity="6.4245134592056274e-01" nType="-99"/>
      </Node>
    </BinaryTree>
    <BinaryTree type="DecisionTree" boostWeight="1.0000000000000000e+00" itree="272">
      <Node pos="s" depth="0" NCoef="0" IVar="2" Cut="2.2916061878204346e+00" cType="1" res="1.4455872587859631e-04" rms="4.1813462972640991e-01" purity="5.0000000000000000e-01" nType="0">
        <Node pos="l" depth="1" NCoef="0" IVar="2" Cut="1.7459816932678223e+00" cType="1" res="-2.3033682373352349e-04" rms="4.2472517490386963e-01" purity="5.4748231172561646e-01" nType="0">
          <Node pos="l" depth="2" NCoef="0" IVar="0" Cut="1.5953245162963867e+00" cType="1" res="1.2257664639037102e-04" rms="4.2030230164527893e-01" purity="5.6724691390991211e-01" nType="0">
            <Node pos="l" depth="3" NCoef="0" IVar="1" Cut="3.7302371859550476e-01" cType="1" res="5.7926354929804802e-04" rms="4.2086812853813171e-01" purity="5.6003779172897339e-01" nType="0">
              <Node pos="l" depth="4" NCoef="0" IVar="-1" Cut="0.0000000000000000e+00" cType="1" res="-8.7464490206912160e-04" rms="4.0410813689231873e-01" purity="5.3581720590591431e-01" nType="-99"/>
              <Node pos="r" depth="4" NCoef="0" IVar="2" Cut="1.0808405876159668e+00" cType="1" res="1.0333764366805553e-03" rms="4.2438337206840515e-01" purity="5.6524473428726196e-01" nType="0">
                <Node pos="l" depth="5" NCoef="0" IVar="7" Cut="8.5238883972167969e+01" cType="1" res="1.9755396060645580e-03" rms="4.1399401426315308e-01" purity="5.8856630325317383e-01" nType="0">
                  <Node pos="l" depth="6" NCoef="0" IVar="-1" Cut="0.0000000000000000e+00" cType="1" res="4.0465034544467926e-04" rms="4.3610230088233948e-01" purity="5.8184993267059326e-01" nType="-99"/>
                  <Node pos="r" depth="6" NCoef="0" IVar="-1" Cut="0.0000000000000000e+00" cType="1" res="1.8750148592516780e-03" rms="3.8578966259956360e-01" purity="5.9662628173828125e-01" nType="-99"/>
                </Node>
                <Node pos="r" depth="5" NCoef="0" IVar="-1" Cut="0.0000000000000000e+00" cType="1" res="-8.5509876953437924e-04" rms="4.5302373170852661e-01" purity="4.9793425202369690e-01" nType="-99"/>
              </Node>
            </Node>
            <Node pos="r" depth="3" NCoef="0" IVar="-1" Cut="0.0000000000000000e+00" cType="1" res="-8.4580533439293504e-04" rms="4.1808512806892395e-01" purity="5.9534251689910889e-01" nType="-99"/>
          </Node>
          <Node pos="r" depth="2" NCoef="0" IVar="-1" Cut="0.0000000000000000e+00" cType="1" res="-1.6336621483787894e-03" rms="4.5604285597801208e-01" purity="4.0157175064086914e-01" nType="-99"/>
        </Node>
        <Node pos="r" depth="1" NCoef="0" IVar="-1" Cut="0.0000000000000000e+00" cType="1" res="4.0694759227335453e-03" rms="3.7045377492904663e-01" purity="1.7866016924381256e-01" nType="-99"/>
      </Node>
    </BinaryTree>
    <BinaryTree type="DecisionTree" boostWeight="1.0000000000000000e+00" itree="273">
      <Node pos="s" depth="0" NCoef="0" IVar="0" Cut="2.3188085556030273e+00" cType="1" res="6.4534018747508526e-05" rms="4.1812968254089355e-01" purity="5.0000000000000000e-01" nType="0">
        <Node pos="l" depth="1" NCoef="0" IVar="4" Cut="2.1428570747375488e+00" cType="1" res="-2.1197080786805600e-04" rms="4.2027777433395386e-01" purity="5.0221854448318481e-01" nType="0">
          <Node pos="l" depth="2" NCoef="0" IVar="1" Cut="2.1213152408599854e+00" cType="1" res="-1.0722237639129162e-03" rms="4.1873449087142944e-01" purity="4.7749820351600647e-01" nType="0">
            <Node pos="l" depth="3" NCoef="0" IVar="4" Cut="1.0476191043853760e+00" cType="1" res="-2.0295043941587210e-04" rms="4.1331708431243896e-01" purity="4.6416559815406799e-01" nType="0">
              <Node pos="l" depth="4" NCoef="0" IVar="7" Cut="8.6280738830566406e+01" cType="1" res="-9.8489469382911921e-04" rms="4.0740820765495300e-01" purity="4.1861146688461304e-01" nType="0">
                <Node pos="l" depth="5" NCoef="0" IVar="-1" Cut="0.0000000000000000e+00" cType="1" res="1.0136649943888187e-03" rms="4.2327290773391724e-01" purity="4.1343504190444946e-01" nType="-99"/>
                <Node pos="r" depth="5" NCoef="0" IVar="2" Cut="9.1203773021697998e-01" cType="1" res="-3.0864367727190256e-03" rms="3.9402034878730774e-01" purity="4.2282205820083618e-01" nType="0">
                  <Node pos="l" depth="6" NCoef="0" IVar="-1" Cut="0.0000000000000000e+00" cType="1" res="1.4531955821439624e-03" rms="3.7445166707038879e-01" purity="5.0221174955368042e-01" nType="-99"/>
                  <Node pos="r" depth="6" NCoef="0" IVar="-1" Cut="0.0000000000000000e+00" cType="1" res="-6.8499012850224972e-03" rms="4.1501131653785706e-01" purity="3.3278024196624756e-01" nType="-99"/>
                </Node>
              </Node>
              <Node pos="r" depth="4" NCoef="0" IVar="-1" Cut="0.0000000000000000e+00" cType="1" res="1.0340686421841383e-03" rms="4.2947259545326233e-01" purity="5.9212571382522583e-01" nType="-99"/>
            </Node>
            <Node pos="r" depth="3" NCoef="0" IVar="-1" Cut="0.0000000000000000e+00" cType="1" res="-2.4749930016696453e-03" rms="4.4170400500297546e-01" purity="5.3600895404815674e-01" nType="-99"/>
          </Node>
          <Node pos="r" depth="2" NCoef="0" IVar="-1" Cut="0.0000000000000000e+00" cType="1" res="2.1552937105298042e-03" rms="4.2822131514549255e-01" purity="6.3135808706283569e-01" nType="-99"/>
        </Node>
        <Node pos="r" depth="1" NCoef="0" IVar="-1" Cut="0.0000000000000000e+00" cType="1" res="1.4214660041034222e-03" rms="4.0081998705863953e-01" purity="4.8254388570785522e-01" nType="-99"/>
      </Node>
    </BinaryTree>
    <BinaryTree type="DecisionTree" boostWeight="1.0000000000000000e+00" itree="274">
      <Node pos="s" depth="0" NCoef="0" IVar="2" Cut="9.8211699724197388e-01" cType="1" res="1.1959513358306140e-04" rms="4.1811946034431458e-01" purity="5.0000000000000000e-01" nType="0">
        <Node pos="l" depth="1" NCoef="0" IVar="1" Cut="1.4920955896377563e+00" cType="1" res="-8.4777595475316048e-04" rms="4.0756195783615112e-01" purity="5.8405864238739014e-01" nType="0">
          <Node pos="l" depth="2" NCoef="0" IVar="0" Cut="4.0867689251899719e-01" cType="1" res="-2.0980134140700102e-03" rms="3.9663195610046387e-01" purity="5.5699717998504639e-01" nType="0">
            <Node pos="l" depth="3" NCoef="0" IVar="-1" Cut="0.0000000000000000e+00" cType="1" res="6.5239451942034066e-05" rms="4.0467813611030579e-01" purity="5.8026778697967529e-01" nType="-99"/>
            <Node pos="r" depth="3" NCoef="0" IVar="-1" Cut="0.0000000000000000e+00" cType="1" res="-2.2391814272850752e-03" rms="3.9044508337974548e-01" purity="5.3944534063339233e-01" nType="-99"/>
          </Node>
          <Node pos="r" depth="2" NCoef="0" IVar="-1" Cut="0.0000000000000000e+00" cType="1" res="4.5278773177415133e-04" rms="4.2257651686668396e-01" purity="6.2244898080825806e-01" nType="-99"/>
        </Node>
        <Node pos="r" depth="1" NCoef="0" IVar="7" Cut="8.3162536621093750e+01" cType="1" res="1.1030223686248064e-03" rms="4.2858347296714783e-01" purity="4.1454616189002991e-01" nType="0">
          <Node pos="l" depth="2" NCoef="0" IVar="1" Cut="2.1849880218505859e+00" cType="1" res="-1.1185401817783713e-03" rms="4.3308591842651367e-01" purity="3.8620442152023315e-01" nType="0">
            <Node pos="l" depth="3" NCoef="0" IVar="-1" Cut="0.0000000000000000e+00" cType="1" res="2.2368209902197123e-03" rms="4.3574607372283936e-01" purity="3.7941524386405945e-01" nType="-99"/>
            <Node pos="r" depth="3" NCoef="0" IVar="-1" Cut="0.0000000000000000e+00" cType="1" res="-5.5681345984339714e-03" rms="4.2841586470603943e-01" purity="3.9774158596992493e-01" nType="-99"/>
          </Node>
          <Node pos="r" depth="2" NCoef="0" IVar="0" Cut="1.0540096759796143e+00" cType="1" res="3.8409000262618065e-03" rms="4.2295262217521667e-01" purity="4.4947481155395508e-01" nType="0">
            <Node pos="l" depth="3" NCoef="0" IVar="-1" Cut="0.0000000000000000e+00" cType="1" res="8.1635029346216470e-05" rms="4.3230411410331726e-01" purity="4.5480427145957947e-01" nType="-99"/>
            <Node pos="r" depth="3" NCoef="0" IVar="-1" Cut="0.0000000000000000e+00" cType="1" res="4.5798574574291706e-03" rms="4.1457298398017883e-01" purity="4.4481313228607178e-01" nType="-99"/>
          </Node>
        </Node>
      </Node>
    </BinaryTree>
    <BinaryTree type="DecisionTree" boostWeight="1.0000000000000000e+00" itree="275">
      <Node pos="s" depth="0" NCoef="0" IVar="1" Cut="2.7312343120574951e+00" cType="1" res="8.2873513747472316e-05" rms="4.1811022162437439e-01" purity="5.0000000000000000e-01" nType="0">
        <Node pos="l" depth="1" NCoef="0" IVar="2" Cut="9.7440475225448608e-01" cType="1" res="-2.0246763597242534e-04" rms="4.1663989424705505e-01" purity="4.9702125787734985e-01" nType="0">
          <Node pos="l" depth="2" NCoef="0" IVar="0" Cut="1.1028586626052856e+00" cType="1" res="-1.6675574006512761e-03" rms="4.0482762455940247e-01" purity="5.7411128282546997e-01" nType="0">
            <Node pos="l" depth="3" NCoef="0" IVar="2" Cut="3.7120789289474487e-01" cType="1" res="-3.6506022297544405e-05" rms="4.0641143918037415e-01" purity="5.8086514472961426e-01" nType="0">
              <Node pos="l" depth="4" NCoef="0" IVar="-1" Cut="0.0000000000000000e+00" cType="1" res="9.7620277665555477e-04" rms="3.9998131990432739e-01" purity="6.0838681459426880e-01" nType="-99"/>
              <Node pos="r" depth="4" NCoef="0" IVar="-1" Cut="0.0000000000000000e+00" cType="1" res="-7.0938776480033994e-04" rms="4.1079115867614746e-01" purity="5.6184685230255127e-01" nType="-99"/>
            </Node>
            <Node pos="r" depth="3" NCoef="0" IVar="-1" Cut="0.0000000000000000e+00" cType="1" res="-3.3135584089905024e-03" rms="4.0070638060569763e-01" purity="5.5678856372833252e-01" nType="-99"/>
          </Node>
          <Node pos="r" depth="2" NCoef="0" IVar="4" Cut="1.3333333730697632e+00" cType="1" res="1.3311909278854728e-03" rms="4.2865109443664551e-01" purity="4.1632330417633057e-01" nType="0">
            <Node pos="l" depth="3" NCoef="0" IVar="7" Cut="8.4273307800292969e+01" cType="1" res="-1.0566330747678876e-03" rms="4.2067357897758484e-01" purity="3.3112770318984985e-01" nType="0">
              <Node pos="l" depth="4" NCoef="0" IVar="-1" Cut="0.0000000000000000e+00" cType="1" res="3.2344947103410959e-03" rms="4.2407375574111938e-01" purity="3.2740125060081482e-01" nType="-99"/>
              <Node pos="r" depth="4" NCoef="0" IVar="-1" Cut="0.0000000000000000e+00" cType="1" res="-4.4043674133718014e-03" rms="4.1746231913566589e-01" purity="3.3455163240432739e-01" nType="-99"/>
            </Node>
            <Node pos="r" depth="3" NCoef="0" IVar="-1" Cut="0.0000000000000000e+00" cType="1" res="2.2737630642950535e-03" rms="4.3809303641319275e-01" purity="5.1941823959350586e-01" nType="-99"/>
          </Node>
        </Node>
        <Node pos="r" depth="1" NCoef="0" IVar="-1" Cut="0.0000000000000000e+00" cType="1" res="1.2750258902087808e-03" rms="4.2983856797218323e-01" purity="5.2415120601654053e-01" nType="-99"/>
      </Node>
    </BinaryTree>
    <BinaryTree type="DecisionTree" boostWeight="1.0000000000000000e+00" itree="276">
      <Node pos="s" depth="0" NCoef="0" IVar="6" Cut="1.1814180755615234e+02" cType="1" res="7.0325731940101832e-05" rms="4.1810277104377747e-01" purity="5.0000000000000000e-01" nType="0">
        <Node pos="l" depth="1" NCoef="0" IVar="6" Cut="4.2741188049316406e+01" cType="1" res="-3.7134549347683787e-04" rms="4.1600254178047180e-01" purity="4.7068229317665100e-01" nType="0">
          <Node pos="l" depth="2" NCoef="0" IVar="6" Cut="3.0913730621337891e+01" cType="1" res="-2.6976228691637516e-03" rms="4.2213270068168640e-01" purity="5.2372550964355469e-01" nType="0">
            <Node pos="l" depth="3" NCoef="0" IVar="-1" Cut="0.0000000000000000e+00" cType="1" res="-2.1421604324132204e-03" rms="4.2660143971443176e-01" purity="4.7890874743461609e-01" nType="-99"/>
            <Node pos="r" depth="3" NCoef="0" IVar="-1" Cut="0.0000000000000000e+00" cType="1" res="-1.1019767262041569e-03" rms="4.1812881827354431e-01" purity="5.6346571445465088e-01" nType="-99"/>
          </Node>
          <Node pos="r" depth="2" NCoef="0" IVar="1" Cut="2.1659178733825684e+00" cType="1" res="4.7041216748766601e-04" rms="4.1375875473022461e-01" purity="4.5148873329162598e-01" nType="0">
            <Node pos="l" depth="3" NCoef="0" IVar="0" Cut="1.2136613130569458e+00" cType="1" res="-6.9676944985985756e-04" rms="4.0851095318794250e-01" purity="4.3122646212577820e-01" nType="0">
              <Node pos="l" depth="4" NCoef="0" IVar="4" Cut="5.2380955219268799e-01" cType="1" res="6.5364560578018427e-04" rms="4.1409367322921753e-01" purity="4.5229172706604004e-01" nType="0">
                <Node pos="l" depth="5" NCoef="0" IVar="-1" Cut="0.0000000000000000e+00" cType="1" res="5.0363661721348763e-03" rms="4.0168386697769165e-01" purity="3.1962096691131592e-01" nType="-99"/>
                <Node pos="r" depth="5" NCoef="0" IVar="5" Cut="1.1413800811767578e+02" cType="1" res="-1.6524294624105096e-03" rms="4.1890043020248413e-01" purity="5.0500935316085815e-01" nType="0">
                  <Node pos="l" depth="6" NCoef="0" IVar="-1" Cut="0.0000000000000000e+00" cType="1" res="1.2696665944531560e-03" rms="3.9435654878616333e-01" purity="4.1315826773643494e-01" nType="-99"/>
                  <Node pos="r" depth="6" NCoef="0" IVar="-1" Cut="0.0000000000000000e+00" cType="1" res="-2.3434581235051155e-03" rms="4.3976971507072449e-01" purity="5.8756583929061890e-01" nType="-99"/>
                </Node>
              </Node>
              <Node pos="r" depth="4" NCoef="0" IVar="-1" Cut="0.0000000000000000e+00" cType="1" res="-3.5961160901933908e-03" rms="3.9136677980422974e-01" purity="3.6842283606529236e-01" nType="-99"/>
            </Node>
            <Node pos="r" depth="3" NCoef="0" IVar="-1" Cut="0.0000000000000000e+00" cType="1" res="2.5286709424108267e-03" rms="4.3263140320777893e-01" purity="5.2660745382308960e-01" nType="-99"/>
          </Node>
        </Node>
        <Node pos="r" depth="1" NCoef="0" IVar="-1" Cut="0.0000000000000000e+00" cType="1" res="1.0326559422537684e-03" rms="4.2815443873405457e-01" purity="6.4245134592056274e-01" nType="-99"/>
      </Node>
    </BinaryTree>
    <BinaryTree type="DecisionTree" boostWeight="1.0000000000000000e+00" itree="277">
      <Node pos="s" depth="0" NCoef="0" IVar="6" Cut="1.1814180755615234e+02" cType="1" res="4.4365984649630263e-05" rms="4.1809463500976562e-01" purity="5.0000000000000000e-01" nType="0">
        <Node pos="l" depth="1" NCoef="0" IVar="6" Cut="4.2741188049316406e+01" cType="1" res="-3.2272539101541042e-04" rms="4.1599234938621521e-01" purity="4.7068229317665100e-01" nType="0">
          <Node pos="l" depth="2" NCoef="0" IVar="6" Cut="3.0913730621337891e+01" cType="1" res="-2.1331571042537689e-03" rms="4.2213350534439087e-01" purity="5.2372550964355469e-01" nType="0">
            <Node pos="l" depth="3" NCoef="0" IVar="-1" Cut="0.0000000000000000e+00" cType="1" res="-1.6745094908401370e-03" rms="4.2660278081893921e-01" purity="4.7890874743461609e-01" nType="-99"/>
            <Node pos="r" depth="3" NCoef="0" IVar="-1" Cut="0.0000000000000000e+00" cType="1" res="-8.8585959747433662e-04" rms="4.1812974214553833e-01" purity="5.6346571445465088e-01" nType="-99"/>
          </Node>
          <Node pos="r" depth="2" NCoef="0" IVar="1" Cut="2.1659178733825684e+00" cType="1" res="3.3237479510717094e-04" rms="4.1374576091766357e-01" purity="4.5148873329162598e-01" nType="0">
            <Node pos="l" depth="3" NCoef="0" IVar="5" Cut="1.4388380432128906e+02" cType="1" res="-6.1370118055492640e-04" rms="4.0849694609642029e-01" purity="4.3122646212577820e-01" nType="0">
              <Node pos="l" depth="4" NCoef="0" IVar="5" Cut="9.5134300231933594e+01" cType="1" res="-2.5721918791532516e-03" rms="3.9431610703468323e-01" purity="4.1732165217399597e-01" nType="0">
                <Node pos="l" depth="5" NCoef="0" IVar="-1" Cut="0.0000000000000000e+00" cType="1" res="-6.6700382158160210e-03" rms="3.4776884317398071e-01" purity="2.4932646751403809e-01" nType="-99"/>
                <Node pos="r" depth="5" NCoef="0" IVar="-1" Cut="0.0000000000000000e+00" cType="1" res="-2.6292753318557516e-05" rms="4.2274415493011475e-01" purity="5.3036534786224365e-01" nType="-99"/>
              </Node>
              <Node pos="r" depth="4" NCoef="0" IVar="-1" Cut="0.0000000000000000e+00" cType="1" res="1.2997041922062635e-03" rms="4.2808181047439575e-01" purity="4.5125427842140198e-01" nType="-99"/>
            </Node>
            <Node pos="r" depth="3" NCoef="0" IVar="-1" Cut="0.0000000000000000e+00" cType="1" res="2.0259334705770016e-03" rms="4.3263149261474609e-01" purity="5.2660745382308960e-01" nType="-99"/>
          </Node>
        </Node>
        <Node pos="r" depth="1" NCoef="0" IVar="-1" Cut="0.0000000000000000e+00" cType="1" res="8.5232220590114594e-04" rms="4.2815807461738586e-01" purity="6.4245134592056274e-01" nType="-99"/>
      </Node>
    </BinaryTree>
    <BinaryTree type="DecisionTree" boostWeight="1.0000000000000000e+00" itree="278">
      <Node pos="s" depth="0" NCoef="0" IVar="4" Cut="7.1428573131561279e-01" cType="1" res="9.2102622147649527e-05" rms="4.1809499263763428e-01" purity="5.0000000000000000e-01" nType="0">
        <Node pos="l" depth="1" NCoef="0" IVar="0" Cut="8.3333128690719604e-01" cType="1" res="-1.1775273596867919e-03" rms="4.1909372806549072e-01" purity="4.4392177462577820e-01" nType="0">
          <Node pos="l" depth="2" NCoef="0" IVar="-1" Cut="0.0000000000000000e+00" cType="1" res="-1.6327981138601899e-03" rms="4.2430335283279419e-01" purity="4.7339585423469543e-01" nType="-99"/>
          <Node pos="r" depth="2" NCoef="0" IVar="-1" Cut="0.0000000000000000e+00" cType="1" res="4.0119531331583858e-04" rms="4.1349655389785767e-01" purity="4.1270381212234497e-01" nType="-99"/>
        </Node>
        <Node pos="r" depth="1" NCoef="0" IVar="5" Cut="2.0012669372558594e+02" cType="1" res="6.1740877572447062e-04" rms="4.1767990589141846e-01" purity="5.2320218086242676e-01" nType="0">
          <Node pos="l" depth="2" NCoef="0" IVar="7" Cut="9.3884536743164062e+01" cType="1" res="1.3495502062141895e-03" rms="4.1986587643623352e-01" purity="5.4759806394577026e-01" nType="0">
            <Node pos="l" depth="3" NCoef="0" IVar="5" Cut="9.3035308837890625e+01" cType="1" res="-5.2842125296592712e-04" rms="4.4084045290946960e-01" purity="5.0925618410110474e-01" nType="0">
              <Node pos="l" depth="4" NCoef="0" IVar="-1" Cut="0.0000000000000000e+00" cType="1" res="3.3383462578058243e-03" rms="4.3589651584625244e-01" purity="4.0211418271064758e-01" nType="-99"/>
              <Node pos="r" depth="4" NCoef="0" IVar="-1" Cut="0.0000000000000000e+00" cType="1" res="-1.8058972200378776e-03" rms="4.4337591528892517e-01" purity="5.6535995006561279e-01" nType="-99"/>
            </Node>
            <Node pos="r" depth="3" NCoef="0" IVar="-1" Cut="0.0000000000000000e+00" cType="1" res="2.5527863763272762e-03" rms="3.8270327448844910e-01" purity="6.1091071367263794e-01" nType="-99"/>
          </Node>
          <Node pos="r" depth="2" NCoef="0" IVar="-1" Cut="0.0000000000000000e+00" cType="1" res="-1.7599575221538544e-03" rms="4.0809085965156555e-01" purity="4.1785478591918945e-01" nType="-99"/>
        </Node>
      </Node>
    </BinaryTree>
    <BinaryTree type="DecisionTree" boostWeight="1.0000000000000000e+00" itree="279">
      <Node pos="s" depth="0" NCoef="0" IVar="2" Cut="1.6368615627288818e+00" cType="1" res="7.9772980825509876e-05" rms="4.1808900237083435e-01" purity="5.0000000000000000e-01" nType="0">
        <Node pos="l" depth="1" NCoef="0" IVar="0" Cut="1.3695946931838989e+00" cType="1" res="-3.6041808198206127e-04" rms="4.1875997185707092e-01" purity="5.7055962085723877e-01" nType="0">
          <Node pos="l" depth="2" NCoef="0" IVar="3" Cut="1.0000000000000000e+00" cType="1" res="-2.7695449534803629e-04" rms="3.5794875025749207e-01" purity="5.6015050411224365e-01" nType="0">
            <Node pos="l" depth="3" NCoef="0" IVar="-1" Cut="0.0000000000000000e+00" cType="1" res="-1.5271264128386974e-03" rms="4.1983351111412048e-01" purity="5.7213270664215088e-01" nType="-99"/>
            <Node pos="r" depth="3" NCoef="0" IVar="2" Cut="5.4562598466873169e-01" cType="1" res="3.0291613074950874e-04" rms="4.1890254616737366e-01" purity="5.5255734920501709e-01" nType="0">
              <Node pos="l" depth="4" NCoef="0" IVar="-1" Cut="0.0000000000000000e+00" cType="1" res="1.0025864467024803e-03" rms="3.9383983612060547e-01" purity="5.7080048322677612e-01" nType="-99"/>
              <Node pos="r" depth="4" NCoef="0" IVar="-1" Cut="0.0000000000000000e+00" cType="1" res="-4.1172438068315387e-04" rms="4.3634521961212158e-01" purity="5.3919422626495361e-01" nType="-99"/>
            </Node>
          </Node>
          <Node pos="r" depth="2" NCoef="0" IVar="-1" Cut="0.0000000000000000e+00" cType="1" res="6.8279291735962033e-04" rms="4.1719910502433777e-01" purity="6.0244858264923096e-01" nType="-99"/>
        </Node>
        <Node pos="r" depth="1" NCoef="0" IVar="3" Cut="2.0000000000000000e+00" cType="1" res="3.8886419497430325e-03" rms="4.0295201539993286e-01" purity="3.0063235759735107e-01" nType="0">
          <Node pos="l" depth="2" NCoef="0" IVar="-1" Cut="0.0000000000000000e+00" cType="1" res="-9.6749118529260159e-04" rms="4.2098879814147949e-01" purity="3.2753676176071167e-01" nType="-99"/>
          <Node pos="r" depth="2" NCoef="0" IVar="-1" Cut="0.0000000000000000e+00" cType="1" res="4.1622663848102093e-03" rms="4.1020908951759338e-01" purity="2.6772224903106689e-01" nType="-99"/>
        </Node>
      </Node>
    </BinaryTree>
    <BinaryTree type="DecisionTree" boostWeight="1.0000000000000000e+00" itree="280">
      <Node pos="s" depth="0" NCoef="0" IVar="6" Cut="1.1814180755615234e+02" cType="1" res="2.2472719138022512e-05" rms="4.1808456182479858e-01" purity="5.0000000000000000e-01" nType="0">
        <Node pos="l" depth="1" NCoef="0" IVar="3" Cut="2.0000000000000000e+00" cType="1" res="7.7310728374868631e-04" rms="4.1131713986396790e-01" purity="4.7068229317665100e-01" nType="0">
          <Node pos="l" depth="2" NCoef="0" IVar="7" Cut="7.5721290588378906e+01" cType="1" res="4.3676706263795495e-04" rms="4.1508129239082336e-01" purity="5.0974237918853760e-01" nType="0">
            <Node pos="l" depth="3" NCoef="0" IVar="4" Cut="1.4285714626312256e+00" cType="1" res="-1.2041730806231499e-03" rms="4.3827632069587708e-01" purity="4.8130401968955994e-01" nType="0">
              <Node pos="l" depth="4" NCoef="0" IVar="-1" Cut="0.0000000000000000e+00" cType="1" res="2.8313847724348307e-03" rms="4.3332162499427795e-01" purity="4.0750077366828918e-01" nType="-99"/>
              <Node pos="r" depth="4" NCoef="0" IVar="-1" Cut="0.0000000000000000e+00" cType="1" res="-3.9107971824705601e-03" rms="4.4396063685417175e-01" purity="5.6846934556961060e-01" nType="-99"/>
            </Node>
            <Node pos="r" depth="3" NCoef="0" IVar="1" Cut="8.9146333932876587e-01" cType="1" res="1.9561338704079390e-03" rms="3.9237797260284424e-01" purity="5.3607386350631714e-01" nType="0">
              <Node pos="l" depth="4" NCoef="0" IVar="-1" Cut="0.0000000000000000e+00" cType="1" res="-1.1888761946465820e-04" rms="3.8731461763381958e-01" purity="5.1281064748764038e-01" nType="-99"/>
              <Node pos="r" depth="4" NCoef="0" IVar="-1" Cut="0.0000000000000000e+00" cType="1" res="2.0745976362377405e-03" rms="3.9612823724746704e-01" purity="5.5353444814682007e-01" nType="-99"/>
            </Node>
          </Node>
          <Node pos="r" depth="2" NCoef="0" IVar="1" Cut="1.6387456655502319e+00" cType="1" res="-2.0556494127959013e-03" rms="4.1817364096641541e-01" purity="3.7553235888481140e-01" nType="0">
            <Node pos="l" depth="3" NCoef="0" IVar="-1" Cut="0.0000000000000000e+00" cType="1" res="-3.2531495671719313e-03" rms="4.1412365436553955e-01" purity="3.6489474773406982e-01" nType="-99"/>
            <Node pos="r" depth="3" NCoef="0" IVar="-1" Cut="0.0000000000000000e+00" cType="1" res="7.6315819751471281e-04" rms="4.2322835326194763e-01" purity="3.8901168107986450e-01" nType="-99"/>
          </Node>
        </Node>
        <Node pos="r" depth="1" NCoef="0" IVar="-1" Cut="0.0000000000000000e+00" cType="1" res="7.1556225884705782e-04" rms="4.2813548445701599e-01" purity="6.4245134592056274e-01" nType="-99"/>
      </Node>
    </BinaryTree>
    <BinaryTree type="DecisionTree" boostWeight="1.0000000000000000e+00" itree="281">
      <Node pos="s" depth="0" NCoef="0" IVar="4" Cut="7.1428573131561279e-01" cType="1" res="2.1749059669673443e-05" rms="4.1807717084884644e-01" purity="5.0000000000000000e-01" nType="0">
        <Node pos="l" depth="1" NCoef="0" IVar="7" Cut="8.3542404174804688e+01" cType="1" res="-1.3906280510127544e-03" rms="4.1908165812492371e-01" purity="4.4392177462577820e-01" nType="0">
          <Node pos="l" depth="2" NCoef="0" IVar="-1" Cut="0.0000000000000000e+00" cType="1" res="-1.7295393627136946e-03" rms="4.2406970262527466e-01" purity="4.6566841006278992e-01" nType="-99"/>
          <Node pos="r" depth="2" NCoef="0" IVar="-1" Cut="0.0000000000000000e+00" cType="1" res="4.1724988841451705e-04" rms="4.1252940893173218e-01" purity="4.1578555107116699e-01" nType="-99"/>
        </Node>
        <Node pos="r" depth="1" NCoef="0" IVar="5" Cut="2.0012669372558594e+02" cType="1" res="6.0611648950725794e-04" rms="4.1765946149826050e-01" purity="5.2320218086242676e-01" nType="0">
          <Node pos="l" depth="2" NCoef="0" IVar="4" Cut="1.6666666269302368e+00" cType="1" res="1.3297445839270949e-03" rms="4.1984617710113525e-01" purity="5.4759806394577026e-01" nType="0">
            <Node pos="l" depth="3" NCoef="0" IVar="2" Cut="7.5511997938156128e-01" cType="1" res="-1.0427387896925211e-03" rms="4.0787693858146667e-01" purity="4.2149558663368225e-01" nType="0">
              <Node pos="l" depth="4" NCoef="0" IVar="-1" Cut="0.0000000000000000e+00" cType="1" res="-1.5051054069772363e-03" rms="3.8604801893234253e-01" purity="4.7374570369720459e-01" nType="-99"/>
              <Node pos="r" depth="4" NCoef="0" IVar="-1" Cut="0.0000000000000000e+00" cType="1" res="1.7684296471998096e-04" rms="4.2743337154388428e-01" purity="3.7223425507545471e-01" nType="-99"/>
            </Node>
            <Node pos="r" depth="3" NCoef="0" IVar="5" Cut="1.1088420104980469e+02" cType="1" res="2.7477962430566549e-03" rms="4.2683374881744385e-01" purity="6.2297052145004272e-01" nType="0">
              <Node pos="l" depth="4" NCoef="0" IVar="-1" Cut="0.0000000000000000e+00" cType="1" res="2.0251363457646221e-04" rms="4.3613657355308533e-01" purity="6.0925912857055664e-01" nType="-99"/>
              <Node pos="r" depth="4" NCoef="0" IVar="-1" Cut="0.0000000000000000e+00" cType="1" res="2.9937352519482374e-03" rms="4.1411906480789185e-01" purity="6.4120346307754517e-01" nType="-99"/>
            </Node>
          </Node>
          <Node pos="r" depth="2" NCoef="0" IVar="-1" Cut="0.0000000000000000e+00" cType="1" res="-1.7407627310603857e-03" rms="4.0806749463081360e-01" purity="4.1785478591918945e-01" nType="-99"/>
        </Node>
      </Node>
    </BinaryTree>
    <BinaryTree type="DecisionTree" boostWeight="1.0000000000000000e+00" itree="282">
      <Node pos="s" depth="0" NCoef="0" IVar="4" Cut="7.1428573131561279e-01" cType="1" res="5.1500861445674673e-05" rms="4.1807627677917480e-01" purity="5.0000000000000000e-01" nType="0">
        <Node pos="l" depth="1" NCoef="0" IVar="7" Cut="8.3542404174804688e+01" cType="1" res="-1.0998230427503586e-03" rms="4.1907876729965210e-01" purity="4.4392177462577820e-01" nType="0">
          <Node pos="l" depth="2" NCoef="0" IVar="-1" Cut="0.0000000000000000e+00" cType="1" res="-1.3638021191582084e-03" rms="4.2406788468360901e-01" purity="4.6566841006278992e-01" nType="-99"/>
          <Node pos="r" depth="2" NCoef="0" IVar="-1" Cut="0.0000000000000000e+00" cType="1" res="3.2560562249273062e-04" rms="4.1252854466438293e-01" purity="4.1578555107116699e-01" nType="-99"/>
        </Node>
        <Node pos="r" depth="1" NCoef="0" IVar="2" Cut="1.9642339944839478e+00" cType="1" res="5.2785815205425024e-04" rms="4.1765987873077393e-01" purity="5.2320218086242676e-01" nType="0">
          <Node pos="l" depth="2" NCoef="0" IVar="7" Cut="1.2642032623291016e+02" cType="1" res="-1.2823066208511591e-04" rms="4.2028227448463440e-01" purity="5.9118366241455078e-01" nType="0">
            <Node pos="l" depth="3" NCoef="0" IVar="4" Cut="1.5238095521926880e+00" cType="1" res="1.1512631317600608e-03" rms="4.2889574170112610e-01" purity="5.5594253540039062e-01" nType="0">
              <Node pos="l" depth="4" NCoef="0" IVar="-1" Cut="0.0000000000000000e+00" cType="1" res="3.5111033357679844e-03" rms="4.1619953513145447e-01" purity="4.4411137700080872e-01" nType="-99"/>
              <Node pos="r" depth="4" NCoef="0" IVar="6" Cut="4.2675792694091797e+01" cType="1" res="-2.1501109004020691e-03" rms="4.3745732307434082e-01" purity="6.3352912664413452e-01" nType="0">
                <Node pos="l" depth="5" NCoef="0" IVar="-1" Cut="0.0000000000000000e+00" cType="1" res="-1.3813745463266969e-03" rms="4.3707960844039917e-01" purity="6.0853028297424316e-01" nType="-99"/>
                <Node pos="r" depth="5" NCoef="0" IVar="-1" Cut="0.0000000000000000e+00" cType="1" res="-6.9018162321299314e-04" rms="4.3784451484680176e-01" purity="6.5923726558685303e-01" nType="-99"/>
              </Node>
            </Node>
            <Node pos="r" depth="3" NCoef="0" IVar="-1" Cut="0.0000000000000000e+00" cType="1" res="-2.3970329202711582e-03" rms="3.8825517892837524e-01" purity="7.1582144498825073e-01" nType="-99"/>
          </Node>
          <Node pos="r" depth="2" NCoef="0" IVar="-1" Cut="0.0000000000000000e+00" cType="1" res="3.0046536121517420e-03" rms="4.0714517235755920e-01" purity="2.5515639781951904e-01" nType="-99"/>
        </Node>
      </Node>
    </BinaryTree>
    <BinaryTree type="DecisionTree" boostWeight="1.0000000000000000e+00" itree="283">
      <Node pos="s" depth="0" NCoef="0" IVar="7" Cut="1.2635140228271484e+02" cType="1" res="-4.9063834012486041e-05" rms="4.1806510090827942e-01" purity="5.0000000000000000e-01" nType="0">
        <Node pos="l" depth="1" NCoef="0" IVar="6" Cut="9.1677116394042969e+01" cType="1" res="-4.1801246698014438e-04" rms="4.2162272334098816e-01" purity="4.7062867879867554e-01" nType="0">
          <Node pos="l" depth="2" NCoef="0" IVar="0" Cut="2.1069586277008057e+00" cType="1" res="1.0458878241479397e-03" rms="4.1610205173492432e-01" purity="4.4442299008369446e-01" nType="0">
            <Node pos="l" depth="3" NCoef="0" IVar="5" Cut="1.4955754089355469e+02" cType="1" res="2.5090302806347609e-03" rms="4.2004051804542542e-01" purity="4.4806027412414551e-01" nType="0">
              <Node pos="l" depth="4" NCoef="0" IVar="5" Cut="8.4395675659179688e+01" cType="1" res="2.7209988911636174e-04" rms="4.1765952110290527e-01" purity="4.5989856123924255e-01" nType="0">
                <Node pos="l" depth="5" NCoef="0" IVar="-1" Cut="0.0000000000000000e+00" cType="1" res="8.6813764646649361e-03" rms="3.8860058784484863e-01" purity="2.7874922752380371e-01" nType="-99"/>
                <Node pos="r" depth="5" NCoef="0" IVar="-1" Cut="0.0000000000000000e+00" cType="1" res="-2.5166289415210485e-03" rms="4.3157875537872314e-01" purity="5.5186861753463745e-01" nType="-99"/>
              </Node>
              <Node pos="r" depth="4" NCoef="0" IVar="-1" Cut="0.0000000000000000e+00" cType="1" res="5.7491795159876347e-03" rms="4.2695915699005127e-01" purity="4.1292968392372131e-01" nType="-99"/>
            </Node>
            <Node pos="r" depth="3" NCoef="0" IVar="-1" Cut="0.0000000000000000e+00" cType="1" res="-3.1968588009476662e-03" rms="4.0005910396575928e-01" purity="4.3000754714012146e-01" nType="-99"/>
          </Node>
          <Node pos="r" depth="2" NCoef="0" IVar="1" Cut="1.4746018648147583e+00" cType="1" res="-4.1173845529556274e-03" rms="4.3523994088172913e-01" purity="5.3685206174850464e-01" nType="0">
            <Node pos="l" depth="3" NCoef="0" IVar="-1" Cut="0.0000000000000000e+00" cType="1" res="-4.2299260385334492e-03" rms="4.3330389261245728e-01" purity="4.8643982410430908e-01" nType="-99"/>
            <Node pos="r" depth="3" NCoef="0" IVar="-1" Cut="0.0000000000000000e+00" cType="1" res="-5.3865968948230147e-04" rms="4.3688032031059265e-01" purity="5.8032685518264771e-01" nType="-99"/>
          </Node>
        </Node>
        <Node pos="r" depth="1" NCoef="0" IVar="-1" Cut="0.0000000000000000e+00" cType="1" res="8.0648658331483603e-04" rms="4.0248945355415344e-01" purity="6.2562984228134155e-01" nType="-99"/>
      </Node>
    </BinaryTree>
    <BinaryTree type="DecisionTree" boostWeight="1.0000000000000000e+00" itree="284">
      <Node pos="s" depth="0" NCoef="0" IVar="6" Cut="1.1814180755615234e+02" cType="1" res="-1.2410061026457697e-04" rms="4.1803601384162903e-01" purity="5.0000000000000000e-01" nType="0">
        <Node pos="l" depth="1" NCoef="0" IVar="6" Cut="9.1529441833496094e+01" cType="1" res="-5.6101591326296329e-04" rms="4.1593560576438904e-01" purity="4.7068229317665100e-01" nType="0">
          <Node pos="l" depth="2" NCoef="0" IVar="3" Cut="2.0000000000000000e+00" cType="1" res="1.5625629748683423e-04" rms="4.0796825289726257e-01" purity="4.6658635139465332e-01" nType="0">
            <Node pos="l" depth="3" NCoef="0" IVar="6" Cut="4.4008598327636719e+01" cType="1" res="-3.4586722904350609e-05" rms="4.1289806365966797e-01" purity="5.1158249378204346e-01" nType="0">
              <Node pos="l" depth="4" NCoef="0" IVar="-1" Cut="0.0000000000000000e+00" cType="1" res="1.4290416147559881e-03" rms="4.1852226853370667e-01" purity="6.1862403154373169e-01" nType="-99"/>
              <Node pos="r" depth="4" NCoef="0" IVar="5" Cut="1.4417424011230469e+02" cType="1" res="-1.2393337674438953e-03" rms="4.1040247678756714e-01" purity="4.6465867757797241e-01" nType="0">
                <Node pos="l" depth="5" NCoef="0" IVar="6" Cut="6.6637573242187500e+01" cType="1" res="-3.6309505812823772e-03" rms="3.9897137880325317e-01" purity="4.6067476272583008e-01" nType="0">
                  <Node pos="l" depth="6" NCoef="0" IVar="-1" Cut="0.0000000000000000e+00" cType="1" res="-7.4226339347660542e-04" rms="3.9849597215652466e-01" purity="5.0818324089050293e-01" nType="-99"/>
                  <Node pos="r" depth="6" NCoef="0" IVar="-1" Cut="0.0000000000000000e+00" cType="1" res="-4.3754056096076965e-03" rms="3.9950695633888245e-01" purity="4.0529292821884155e-01" nType="-99"/>
                </Node>
                <Node pos="r" depth="5" NCoef="0" IVar="-1" Cut="0.0000000000000000e+00" cType="1" res="2.1347641013562679e-03" rms="4.3349459767341614e-01" purity="4.7306606173515320e-01" nType="-99"/>
              </Node>
            </Node>
            <Node pos="r" depth="3" NCoef="0" IVar="-1" Cut="0.0000000000000000e+00" cType="1" res="-2.6911138556897640e-03" rms="4.1547435522079468e-01" purity="3.5868543386459351e-01" nType="-99"/>
          </Node>
          <Node pos="r" depth="2" NCoef="0" IVar="-1" Cut="0.0000000000000000e+00" cType="1" res="1.0149371810257435e-03" rms="4.2541480064392090e-01" purity="4.8801064491271973e-01" nType="-99"/>
        </Node>
        <Node pos="r" depth="1" NCoef="0" IVar="-1" Cut="0.0000000000000000e+00" cType="1" res="9.3120970996096730e-04" rms="4.2808866500854492e-01" purity="6.4245134592056274e-01" nType="-99"/>
      </Node>
    </BinaryTree>
    <BinaryTree type="DecisionTree" boostWeight="1.0000000000000000e+00" itree="285">
      <Node pos="s" depth="0" NCoef="0" IVar="6" Cut="1.1814180755615234e+02" cType="1" res="-3.8181093259481713e-05" rms="4.1803151369094849e-01" purity="5.0000000000000000e-01" nType="0">
        <Node pos="l" depth="1" NCoef="0" IVar="2" Cut="2.2916061878204346e+00" cType="1" res="-3.8531832979060709e-04" rms="4.1592994332313538e-01" purity="4.7068229317665100e-01" nType="0">
          <Node pos="l" depth="2" NCoef="0" IVar="4" Cut="1.4285714626312256e+00" cType="1" res="7.7077194873709232e-05" rms="4.2364519834518433e-01" purity="5.2004396915435791e-01" nType="0">
            <Node pos="l" depth="3" NCoef="0" IVar="5" Cut="1.5339257812500000e+02" cType="1" res="2.0964276045560837e-03" rms="4.1544377803802490e-01" purity="4.0201520919799805e-01" nType="0">
              <Node pos="l" depth="4" NCoef="0" IVar="2" Cut="6.5473097562789917e-01" cType="1" res="-6.4907211344689131e-04" rms="3.9204815030097961e-01" purity="2.9781642556190491e-01" nType="0">
                <Node pos="l" depth="5" NCoef="0" IVar="-1" Cut="0.0000000000000000e+00" cType="1" res="-3.6922111175954342e-03" rms="3.8590043783187866e-01" purity="3.2088169455528259e-01" nType="-99"/>
                <Node pos="r" depth="5" NCoef="0" IVar="-1" Cut="0.0000000000000000e+00" cType="1" res="2.6502299588173628e-03" rms="3.9734619855880737e-01" purity="2.7750912308692932e-01" nType="-99"/>
              </Node>
              <Node pos="r" depth="4" NCoef="0" IVar="-1" Cut="0.0000000000000000e+00" cType="1" res="3.0504753813147545e-03" rms="4.5048916339874268e-01" purity="5.6956994533538818e-01" nType="-99"/>
            </Node>
            <Node pos="r" depth="3" NCoef="0" IVar="6" Cut="5.1610191345214844e+01" cType="1" res="-2.0643493626266718e-03" rms="4.3216207623481750e-01" purity="6.4520794153213501e-01" nType="0">
              <Node pos="l" depth="4" NCoef="0" IVar="-1" Cut="0.0000000000000000e+00" cType="1" res="4.1497922211419791e-05" rms="4.3143373727798462e-01" purity="6.3905334472656250e-01" nType="-99"/>
              <Node pos="r" depth="4" NCoef="0" IVar="-1" Cut="0.0000000000000000e+00" cType="1" res="-2.6522707194089890e-03" rms="4.3337374925613403e-01" purity="6.5567702054977417e-01" nType="-99"/>
            </Node>
          </Node>
          <Node pos="r" depth="2" NCoef="0" IVar="-1" Cut="0.0000000000000000e+00" cType="1" res="-4.9487268552184105e-03" rms="3.6589983105659485e-01" purity="1.7267766594886780e-01" nType="-99"/>
        </Node>
        <Node pos="r" depth="1" NCoef="0" IVar="-1" Cut="0.0000000000000000e+00" cType="1" res="7.6850038021802902e-04" rms="4.2809194326400757e-01" purity="6.4245134592056274e-01" nType="-99"/>
      </Node>
    </BinaryTree>
    <BinaryTree type="DecisionTree" boostWeight="1.0000000000000000e+00" itree="286">
      <Node pos="s" depth="0" NCoef="0" IVar="0" Cut="2.3188085556030273e+00" cType="1" res="4.3471110984683037e-05" rms="4.1802799701690674e-01" purity="5.0000000000000000e-01" nType="0">
        <Node pos="l" depth="1" NCoef="0" IVar="4" Cut="2.1428570747375488e+00" cType="1" res="-2.7801399119198322e-04" rms="4.2018598318099976e-01" purity="5.0221854448318481e-01" nType="0">
          <Node pos="l" depth="2" NCoef="0" IVar="1" Cut="2.1213152408599854e+00" cType="1" res="-1.0851728729903698e-03" rms="4.1863304376602173e-01" purity="4.7749820351600647e-01" nType="0">
            <Node pos="l" depth="3" NCoef="0" IVar="4" Cut="1.0476191043853760e+00" cType="1" res="-1.4896703942213207e-04" rms="4.1321069002151489e-01" purity="4.6416559815406799e-01" nType="0">
              <Node pos="l" depth="4" NCoef="0" IVar="2" Cut="1.5960570573806763e+00" cType="1" res="-1.0482883080840111e-03" rms="4.0732535719871521e-01" purity="4.1861146688461304e-01" nType="0">
                <Node pos="l" depth="5" NCoef="0" IVar="2" Cut="7.6002943515777588e-01" cType="1" res="2.8751461650244892e-04" rms="4.1109833121299744e-01" purity="4.7534158825874329e-01" nType="0">
                  <Node pos="l" depth="6" NCoef="0" IVar="-1" Cut="0.0000000000000000e+00" cType="1" res="-6.5900932531803846e-04" rms="3.9496657252311707e-01" purity="5.0454241037368774e-01" nType="-99"/>
                  <Node pos="r" depth="6" NCoef="0" IVar="-1" Cut="0.0000000000000000e+00" cType="1" res="1.2953298864886165e-03" rms="4.3223553895950317e-01" purity="4.3529632687568665e-01" nType="-99"/>
                </Node>
                <Node pos="r" depth="5" NCoef="0" IVar="-1" Cut="0.0000000000000000e+00" cType="1" res="-5.8139292523264885e-03" rms="3.9440193772315979e-01" purity="2.2873663902282715e-01" nType="-99"/>
              </Node>
              <Node pos="r" depth="4" NCoef="0" IVar="-1" Cut="0.0000000000000000e+00" cType="1" res="1.2296467320993543e-03" rms="4.2930093407630920e-01" purity="5.9212571382522583e-01" nType="-99"/>
            </Node>
            <Node pos="r" depth="3" NCoef="0" IVar="-1" Cut="0.0000000000000000e+00" cType="1" res="-2.6313003618270159e-03" rms="4.4161933660507202e-01" purity="5.3600895404815674e-01" nType="-99"/>
          </Node>
          <Node pos="r" depth="2" NCoef="0" IVar="-1" Cut="0.0000000000000000e+00" cType="1" res="1.9796513952314854e-03" rms="4.2818233370780945e-01" purity="6.3135808706283569e-01" nType="-99"/>
        </Node>
        <Node pos="r" depth="1" NCoef="0" IVar="-1" Cut="0.0000000000000000e+00" cType="1" res="1.6350998776033521e-03" rms="4.0063399076461792e-01" purity="4.8254388570785522e-01" nType="-99"/>
      </Node>
    </BinaryTree>
    <BinaryTree type="DecisionTree" boostWeight="1.0000000000000000e+00" itree="287">
      <Node pos="s" depth="0" NCoef="0" IVar="2" Cut="2.2916061878204346e+00" cType="1" res="1.1457935761427507e-04" rms="4.1802343726158142e-01" purity="5.0000000000000000e-01" nType="0">
        <Node pos="l" depth="1" NCoef="0" IVar="3" Cut="2.0000000000000000e+00" cType="1" res="3.8659491110593081e-04" rms="4.2172497510910034e-01" purity="5.4748231172561646e-01" nType="0">
          <Node pos="l" depth="2" NCoef="0" IVar="2" Cut="3.2737788558006287e-01" cType="1" res="3.8693269016221166e-04" rms="4.1933283209800720e-01" purity="5.5686652660369873e-01" nType="0">
            <Node pos="l" depth="3" NCoef="0" IVar="-1" Cut="0.0000000000000000e+00" cType="1" res="-8.0747791798785329e-04" rms="4.0087279677391052e-01" purity="6.2511134147644043e-01" nType="-99"/>
            <Node pos="r" depth="3" NCoef="0" IVar="2" Cut="7.9505038261413574e-01" cType="1" res="8.7025010725483298e-04" rms="4.2389708757400513e-01" purity="5.3951412439346313e-01" nType="0">
              <Node pos="l" depth="4" NCoef="0" IVar="-1" Cut="0.0000000000000000e+00" cType="1" res="1.6517442418262362e-03" rms="4.0276479721069336e-01" purity="5.9679371118545532e-01" nType="-99"/>
              <Node pos="r" depth="4" NCoef="0" IVar="6" Cut="8.0099105834960938e+01" cType="1" res="-3.2734181149862707e-04" rms="4.3474948406219482e-01" purity="5.0894677639007568e-01" nType="0">
                <Node pos="l" depth="5" NCoef="0" IVar="-1" Cut="0.0000000000000000e+00" cType="1" res="6.9292052648961544e-04" rms="4.3301662802696228e-01" purity="5.3339052200317383e-01" nType="-99"/>
                <Node pos="r" depth="5" NCoef="0" IVar="-1" Cut="0.0000000000000000e+00" cType="1" res="-1.9028766546398401e-03" rms="4.3793860077857971e-01" purity="4.6347293257713318e-01" nType="-99"/>
              </Node>
            </Node>
          </Node>
          <Node pos="r" depth="2" NCoef="0" IVar="0" Cut="8.3949291706085205e-01" cType="1" res="-1.7003442626446486e-03" rms="4.3791303038597107e-01" purity="5.2338534593582153e-01" nType="0">
            <Node pos="l" depth="3" NCoef="0" IVar="-1" Cut="0.0000000000000000e+00" cType="1" res="9.5961077022366226e-05" rms="4.3399620056152344e-01" purity="5.3217619657516479e-01" nType="-99"/>
            <Node pos="r" depth="3" NCoef="0" IVar="-1" Cut="0.0000000000000000e+00" cType="1" res="-1.7727018566802144e-03" rms="4.4152685999870300e-01" purity="5.1518797874450684e-01" nType="-99"/>
          </Node>
        </Node>
        <Node pos="r" depth="1" NCoef="0" IVar="-1" Cut="0.0000000000000000e+00" cType="1" res="3.3763535320758820e-03" rms="3.7026977539062500e-01" purity="1.7866016924381256e-01" nType="-99"/>
      </Node>
    </BinaryTree>
    <BinaryTree type="DecisionTree" boostWeight="1.0000000000000000e+00" itree="288">
      <Node pos="s" depth="0" NCoef="0" IVar="6" Cut="1.1814180755615234e+02" cType="1" res="4.3540178012335673e-05" rms="4.1801956295967102e-01" purity="5.0000000000000000e-01" nType="0">
        <Node pos="l" depth="1" NCoef="0" IVar="6" Cut="4.2741188049316406e+01" cType="1" res="-3.4164157113991678e-04" rms="4.1591918468475342e-01" purity="4.7068229317665100e-01" nType="0">
          <Node pos="l" depth="2" NCoef="0" IVar="1" Cut="1.6387506723403931e+00" cType="1" res="-2.5601072702556849e-03" rms="4.2204678058624268e-01" purity="5.2372550964355469e-01" nType="0">
            <Node pos="l" depth="3" NCoef="0" IVar="-1" Cut="0.0000000000000000e+00" cType="1" res="-1.9396264106035233e-03" rms="4.2364054918289185e-01" purity="5.6510776281356812e-01" nType="-99"/>
            <Node pos="r" depth="3" NCoef="0" IVar="-1" Cut="0.0000000000000000e+00" cType="1" res="-9.1584998881444335e-04" rms="4.2018148303031921e-01" purity="4.7555559873580933e-01" nType="-99"/>
          </Node>
          <Node pos="r" depth="2" NCoef="0" IVar="1" Cut="2.1659178733825684e+00" cType="1" res="4.6110470429994166e-04" rms="4.1367661952972412e-01" purity="4.5148873329162598e-01" nType="0">
            <Node pos="l" depth="3" NCoef="0" IVar="7" Cut="7.6383224487304688e+01" cType="1" res="-3.1969000701792538e-04" rms="4.0843132138252258e-01" purity="4.3122646212577820e-01" nType="0">
              <Node pos="l" depth="4" NCoef="0" IVar="-1" Cut="0.0000000000000000e+00" cType="1" res="1.4297940069809556e-03" rms="4.3675318360328674e-01" purity="4.3903496861457825e-01" nType="-99"/>
              <Node pos="r" depth="4" NCoef="0" IVar="6" Cut="8.2236488342285156e+01" cType="1" res="-2.0340308547019958e-03" rms="3.8970428705215454e-01" purity="4.2635321617126465e-01" nType="0">
                <Node pos="l" depth="5" NCoef="0" IVar="-1" Cut="0.0000000000000000e+00" cType="1" res="-5.1479395478963852e-03" rms="3.8204041123390198e-01" purity="4.1603460907936096e-01" nType="-99"/>
                <Node pos="r" depth="5" NCoef="0" IVar="-1" Cut="0.0000000000000000e+00" cType="1" res="3.9047508034855127e-03" rms="4.0115416049957275e-01" purity="4.4233593344688416e-01" nType="-99"/>
              </Node>
            </Node>
            <Node pos="r" depth="3" NCoef="0" IVar="-1" Cut="0.0000000000000000e+00" cType="1" res="1.7708740197122097e-03" rms="4.3255576491355896e-01" purity="5.2660745382308960e-01" nType="-99"/>
          </Node>
        </Node>
        <Node pos="r" depth="1" NCoef="0" IVar="-1" Cut="0.0000000000000000e+00" cType="1" res="8.9267827570438385e-04" rms="4.2807340621948242e-01" purity="6.4245134592056274e-01" nType="-99"/>
      </Node>
    </BinaryTree>
    <BinaryTree type="DecisionTree" boostWeight="1.0000000000000000e+00" itree="289">
      <Node pos="s" depth="0" NCoef="0" IVar="6" Cut="1.1814180755615234e+02" cType="1" res="4.6676865167682990e-05" rms="4.1801172494888306e-01" purity="5.0000000000000000e-01" nType="0">
        <Node pos="l" depth="1" NCoef="0" IVar="6" Cut="4.2741188049316406e+01" cType="1" res="-2.6877844356931746e-04" rms="4.1590937972068787e-01" purity="4.7068229317665100e-01" nType="0">
          <Node pos="l" depth="2" NCoef="0" IVar="1" Cut="1.6387506723403931e+00" cType="1" res="-2.0413333550095558e-03" rms="4.2204767465591431e-01" purity="5.2372550964355469e-01" nType="0">
            <Node pos="l" depth="3" NCoef="0" IVar="-1" Cut="0.0000000000000000e+00" cType="1" res="-1.5541090397164226e-03" rms="4.2364284396171570e-01" purity="5.6510776281356812e-01" nType="-99"/>
            <Node pos="r" depth="3" NCoef="0" IVar="-1" Cut="0.0000000000000000e+00" cType="1" res="-7.1863341145217419e-04" rms="4.2018157243728638e-01" purity="4.7555559873580933e-01" nType="-99"/>
          </Node>
          <Node pos="r" depth="2" NCoef="0" IVar="3" Cut="2.0000000000000000e+00" cType="1" res="-2.1005555754527450e-04" rms="4.0849253535270691e-01" purity="4.5148873329162598e-01" nType="0">
            <Node pos="l" depth="3" NCoef="0" IVar="2" Cut="8.6464440822601318e-01" cType="1" res="-4.7525967238470912e-04" rms="4.1369545459747314e-01" purity="4.7721546888351440e-01" nType="0">
              <Node pos="l" depth="4" NCoef="0" IVar="-1" Cut="0.0000000000000000e+00" cType="1" res="8.9445919729769230e-04" rms="4.0571236610412598e-01" purity="5.5151438713073730e-01" nType="-99"/>
              <Node pos="r" depth="4" NCoef="0" IVar="6" Cut="7.5055313110351562e+01" cType="1" res="-2.4776752106845379e-03" rms="4.2112290859222412e-01" purity="4.0669450163841248e-01" nType="0">
                <Node pos="l" depth="5" NCoef="0" IVar="-1" Cut="0.0000000000000000e+00" cType="1" res="6.1325513524934649e-04" rms="4.2186871170997620e-01" purity="4.2971369624137878e-01" nType="-99"/>
                <Node pos="r" depth="5" NCoef="0" IVar="-1" Cut="0.0000000000000000e+00" cType="1" res="-4.5577106066048145e-03" rms="4.2015710473060608e-01" purity="3.7815976142883301e-01" nType="-99"/>
              </Node>
            </Node>
            <Node pos="r" depth="3" NCoef="0" IVar="-1" Cut="0.0000000000000000e+00" cType="1" res="1.9205405842512846e-03" rms="4.1356489062309265e-01" purity="3.7838414311408997e-01" nType="-99"/>
          </Node>
        </Node>
        <Node pos="r" depth="1" NCoef="0" IVar="-1" Cut="0.0000000000000000e+00" cType="1" res="7.3666922980919480e-04" rms="4.2807653546333313e-01" purity="6.4245134592056274e-01" nType="-99"/>
      </Node>
    </BinaryTree>
    <BinaryTree type="DecisionTree" boostWeight="1.0000000000000000e+00" itree="290">
      <Node pos="s" depth="0" NCoef="0" IVar="2" Cut="1.3094892501831055e+00" cType="1" res="6.1670791183132678e-05" rms="4.1800698637962341e-01" purity="5.0000000000000000e-01" nType="0">
        <Node pos="l" depth="1" NCoef="0" IVar="4" Cut="1.4285714626312256e+00" cType="1" res="-4.8599328147247434e-04" rms="4.1356340050697327e-01" purity="5.7867580652236938e-01" nType="0">
          <Node pos="l" depth="2" NCoef="0" IVar="2" Cut="8.7299293279647827e-01" cType="1" res="-1.4810900902375579e-03" rms="4.1233250498771667e-01" purity="5.1571017503738403e-01" nType="0">
            <Node pos="l" depth="3" NCoef="0" IVar="1" Cut="1.3341057300567627e+00" cType="1" res="-7.1477965684607625e-04" rms="4.0347182750701904e-01" purity="5.3100270032882690e-01" nType="0">
              <Node pos="l" depth="4" NCoef="0" IVar="-1" Cut="0.0000000000000000e+00" cType="1" res="-1.1524208821356297e-03" rms="3.8784724473953247e-01" purity="4.8078498244285583e-01" nType="-99"/>
              <Node pos="r" depth="4" NCoef="0" IVar="-1" Cut="0.0000000000000000e+00" cType="1" res="2.8990142163820565e-04" rms="4.1988864541053772e-01" purity="5.8591651916503906e-01" nType="-99"/>
            </Node>
            <Node pos="r" depth="3" NCoef="0" IVar="-1" Cut="0.0000000000000000e+00" cType="1" res="-1.9691893830895424e-03" rms="4.3614044785499573e-01" purity="4.7296175360679626e-01" nType="-99"/>
          </Node>
          <Node pos="r" depth="2" NCoef="0" IVar="-1" Cut="0.0000000000000000e+00" cType="1" res="5.4538756376132369e-04" rms="4.1550311446189880e-01" purity="6.7853468656539917e-01" nType="-99"/>
        </Node>
        <Node pos="r" depth="1" NCoef="0" IVar="7" Cut="8.1776397705078125e+01" cType="1" res="1.0128341382369399e-03" rms="4.2561256885528564e-01" purity="3.6335864663124084e-01" nType="0">
          <Node pos="l" depth="2" NCoef="0" IVar="5" Cut="1.6930505371093750e+02" cType="1" res="-1.4417819911614060e-03" rms="4.2713928222656250e-01" purity="3.3890166878700256e-01" nType="0">
            <Node pos="l" depth="3" NCoef="0" IVar="-1" Cut="0.0000000000000000e+00" cType="1" res="-2.9873640742152929e-03" rms="4.4471007585525513e-01" purity="4.0372461080551147e-01" nType="-99"/>
            <Node pos="r" depth="3" NCoef="0" IVar="-1" Cut="0.0000000000000000e+00" cType="1" res="1.7698367591947317e-03" rms="4.0907815098762512e-01" purity="2.7509692311286926e-01" nType="-99"/>
          </Node>
          <Node pos="r" depth="2" NCoef="0" IVar="-1" Cut="0.0000000000000000e+00" cType="1" res="2.6872868184000254e-03" rms="4.2369601130485535e-01" purity="3.9362290501594543e-01" nType="-99"/>
        </Node>
      </Node>
    </BinaryTree>
    <BinaryTree type="DecisionTree" boostWeight="1.0000000000000000e+00" itree="291">
      <Node pos="s" depth="0" NCoef="0" IVar="3" Cut="3.0000000000000000e+00" cType="1" res="8.8567595230415463e-04" rms="4.1408568620681763e-01" purity="5.0000000000000000e-01" nType="0">
        <Node pos="l" depth="1" NCoef="0" IVar="0" Cut="2.1080079078674316e+00" cType="1" res="2.9285048367455602e-04" rms="4.1760483384132385e-01" purity="5.1680099964141846e-01" nType="0">
          <Node pos="l" depth="2" NCoef="0" IVar="2" Cut="1.7516485452651978e+00" cType="1" res="-2.1599924366455525e-04" rms="4.1861718893051147e-01" purity="5.1504015922546387e-01" nType="0">
            <Node pos="l" depth="3" NCoef="0" IVar="1" Cut="1.4920861721038818e+00" cType="1" res="4.2061982094310224e-04" rms="4.1926157474517822e-01" purity="5.6204557418823242e-01" nType="0">
              <Node pos="l" depth="4" NCoef="0" IVar="2" Cut="7.5070399045944214e-01" cType="1" res="1.4870830345898867e-03" rms="4.0931653976440430e-01" purity="5.5031567811965942e-01" nType="0">
                <Node pos="l" depth="5" NCoef="0" IVar="-1" Cut="0.0000000000000000e+00" cType="1" res="-9.1914014774374664e-05" rms="3.9042490720748901e-01" purity="5.7154524326324463e-01" nType="-99"/>
                <Node pos="r" depth="5" NCoef="0" IVar="-1" Cut="0.0000000000000000e+00" cType="1" res="1.7814357997849584e-03" rms="4.2932987213134766e-01" purity="5.2672260999679565e-01" nType="-99"/>
              </Node>
              <Node pos="r" depth="4" NCoef="0" IVar="-1" Cut="0.0000000000000000e+00" cType="1" res="-6.8285764427855611e-04" rms="4.3569862842559814e-01" purity="5.8205735683441162e-01" nType="-99"/>
            </Node>
            <Node pos="r" depth="3" NCoef="0" IVar="-1" Cut="0.0000000000000000e+00" cType="1" res="-2.9509479645639658e-03" rms="4.1533634066581726e-01" purity="2.7791160345077515e-01" nType="-99"/>
          </Node>
          <Node pos="r" depth="2" NCoef="0" IVar="-1" Cut="0.0000000000000000e+00" cType="1" res="2.0623249001801014e-03" rms="4.1098988056182861e-01" purity="5.2817499637603760e-01" nType="-99"/>
        </Node>
        <Node pos="r" depth="1" NCoef="0" IVar="-1" Cut="0.0000000000000000e+00" cType="1" res="-1.1792920995503664e-03" rms="4.2069861292839050e-01" purity="3.8520032167434692e-01" nType="-99"/>
      </Node>
    </BinaryTree>
    <BinaryTree type="DecisionTree" boostWeight="1.0000000000000000e+00" itree="292">
      <Node pos="s" depth="0" NCoef="0" IVar="2" Cut="1.6368615627288818e+00" cType="1" res="7.1765556640457362e-05" rms="4.1799920797348022e-01" purity="5.0000000000000000e-01" nType="0">
        <Node pos="l" depth="1" NCoef="0" IVar="2" Cut="1.2471299171447754e+00" cType="1" res="-3.7391757359728217e-04" rms="4.1867715120315552e-01" purity="5.7055962085723877e-01" nType="0">
          <Node pos="l" depth="2" NCoef="0" IVar="2" Cut="4.7509694099426270e-01" cType="1" res="9.1256624727975577e-05" rms="4.1258528828620911e-01" purity="5.7965052127838135e-01" nType="0">
            <Node pos="l" depth="3" NCoef="0" IVar="7" Cut="8.3542404174804688e+01" cType="1" res="-1.3286620378494263e-03" rms="4.0201547741889954e-01" purity="5.9580522775650024e-01" nType="0">
              <Node pos="l" depth="4" NCoef="0" IVar="-1" Cut="0.0000000000000000e+00" cType="1" res="9.3247991753742099e-04" rms="4.3035584688186646e-01" purity="5.9097069501876831e-01" nType="-99"/>
              <Node pos="r" depth="4" NCoef="0" IVar="-1" Cut="0.0000000000000000e+00" cType="1" res="-2.7475818060338497e-03" rms="3.6965084075927734e-01" purity="6.0091906785964966e-01" nType="-99"/>
            </Node>
            <Node pos="r" depth="3" NCoef="0" IVar="0" Cut="7.0815163850784302e-01" cType="1" res="1.1053601047024131e-03" rms="4.1996851563453674e-01" purity="5.6811290979385376e-01" nType="0">
              <Node pos="l" depth="4" NCoef="0" IVar="-1" Cut="0.0000000000000000e+00" cType="1" res="-8.2711310824379325e-04" rms="4.2090415954589844e-01" purity="5.5846691131591797e-01" nType="-99"/>
              <Node pos="r" depth="4" NCoef="0" IVar="-1" Cut="0.0000000000000000e+00" cType="1" res="1.6465688822790980e-03" rms="4.1923165321350098e-01" purity="5.7557386159896851e-01" nType="-99"/>
            </Node>
          </Node>
          <Node pos="r" depth="2" NCoef="0" IVar="-1" Cut="0.0000000000000000e+00" cType="1" res="-1.3026540400460362e-03" rms="4.4675904512405396e-01" purity="5.2691936492919922e-01" nType="-99"/>
        </Node>
        <Node pos="r" depth="1" NCoef="0" IVar="5" Cut="2.3420921325683594e+02" cType="1" res="1.3310522772371769e-03" rms="4.1607511043548584e-01" purity="3.0063235759735107e-01" nType="0">
          <Node pos="l" depth="2" NCoef="0" IVar="-1" Cut="0.0000000000000000e+00" cType="1" res="2.8230203315615654e-03" rms="4.2715984582901001e-01" purity="3.3556798100471497e-01" nType="-99"/>
          <Node pos="r" depth="2" NCoef="0" IVar="-1" Cut="0.0000000000000000e+00" cType="1" res="-2.4409317411482334e-03" rms="3.9830607175827026e-01" purity="2.4663858115673065e-01" nType="-99"/>
        </Node>
      </Node>
    </BinaryTree>
    <BinaryTree type="DecisionTree" boostWeight="1.0000000000000000e+00" itree="293">
      <Node pos="s" depth="0" NCoef="0" IVar="6" Cut="1.1814180755615234e+02" cType="1" res="4.5557029807241634e-05" rms="4.1799762845039368e-01" purity="5.0000000000000000e-01" nType="0">
        <Node pos="l" depth="1" NCoef="0" IVar="6" Cut="4.2741188049316406e+01" cType="1" res="-2.8305861633270979e-04" rms="4.1589358448982239e-01" purity="4.7068229317665100e-01" nType="0">
          <Node pos="l" depth="2" NCoef="0" IVar="6" Cut="3.0913730621337891e+01" cType="1" res="-1.8724510446190834e-03" rms="4.2202463746070862e-01" purity="5.2372550964355469e-01" nType="0">
            <Node pos="l" depth="3" NCoef="0" IVar="-1" Cut="0.0000000000000000e+00" cType="1" res="-1.5237142797559500e-03" rms="4.2647844552993774e-01" purity="4.7890874743461609e-01" nType="-99"/>
            <Node pos="r" depth="3" NCoef="0" IVar="-1" Cut="0.0000000000000000e+00" cType="1" res="-7.3147314833477139e-04" rms="4.1803479194641113e-01" purity="5.6346571445465088e-01" nType="-99"/>
          </Node>
          <Node pos="r" depth="2" NCoef="0" IVar="3" Cut="2.0000000000000000e+00" cType="1" res="-2.6473804609850049e-04" rms="4.0848103165626526e-01" purity="4.5148873329162598e-01" nType="0">
            <Node pos="l" depth="3" NCoef="0" IVar="4" Cut="4.2857143282890320e-01" cType="1" res="-3.5735621349886060e-04" rms="4.1368618607521057e-01" purity="4.7721546888351440e-01" nType="0">
              <Node pos="l" depth="4" NCoef="0" IVar="-1" Cut="0.0000000000000000e+00" cType="1" res="2.4748949799686670e-03" rms="4.0384513139724731e-01" purity="3.2520133256912231e-01" nType="-99"/>
              <Node pos="r" depth="4" NCoef="0" IVar="3" Cut="1.0000000000000000e+00" cType="1" res="-5.9496005997061729e-04" rms="2.1134336292743683e-01" purity="5.3573840856552124e-01" nType="0">
                <Node pos="l" depth="5" NCoef="0" IVar="-1" Cut="0.0000000000000000e+00" cType="1" res="4.0986167732626200e-04" rms="4.2450705170631409e-01" purity="5.9012043476104736e-01" nType="-99"/>
                <Node pos="r" depth="5" NCoef="0" IVar="-1" Cut="0.0000000000000000e+00" cType="1" res="-3.0193435959517956e-03" rms="4.0824109315872192e-01" purity="4.6709436178207397e-01" nType="-99"/>
              </Node>
            </Node>
            <Node pos="r" depth="3" NCoef="0" IVar="-1" Cut="0.0000000000000000e+00" cType="1" res="1.4759870246052742e-03" rms="4.1354617476463318e-01" purity="3.7838414311408997e-01" nType="-99"/>
          </Node>
        </Node>
        <Node pos="r" depth="1" NCoef="0" IVar="-1" Cut="0.0000000000000000e+00" cType="1" res="7.6573324622586370e-04" rms="4.2807018756866455e-01" purity="6.4245134592056274e-01" nType="-99"/>
      </Node>
    </BinaryTree>
    <BinaryTree type="DecisionTree" boostWeight="1.0000000000000000e+00" itree="294">
      <Node pos="s" depth="0" NCoef="0" IVar="4" Cut="7.1428573131561279e-01" cType="1" res="1.7054213458322920e-05" rms="4.1799420118331909e-01" purity="5.0000000000000000e-01" nType="0">
        <Node pos="l" depth="1" NCoef="0" IVar="7" Cut="8.3542404174804688e+01" cType="1" res="-1.3242339482530951e-03" rms="4.1903501749038696e-01" purity="4.4392177462577820e-01" nType="0">
          <Node pos="l" depth="2" NCoef="0" IVar="-1" Cut="0.0000000000000000e+00" cType="1" res="-1.3792761601507664e-03" rms="4.2405217885971069e-01" purity="4.6566841006278992e-01" nType="-99"/>
          <Node pos="r" depth="2" NCoef="0" IVar="-1" Cut="0.0000000000000000e+00" cType="1" res="2.9369415642577223e-05" rms="4.1244912147521973e-01" purity="4.1578555107116699e-01" nType="-99"/>
        </Node>
        <Node pos="r" depth="1" NCoef="0" IVar="5" Cut="2.0012669372558594e+02" cType="1" res="5.7200877927243710e-04" rms="4.1756156086921692e-01" purity="5.2320218086242676e-01" nType="0">
          <Node pos="l" depth="2" NCoef="0" IVar="5" Cut="1.3765676879882812e+02" cType="1" res="1.2804522411897779e-03" rms="4.1975978016853333e-01" purity="5.4759806394577026e-01" nType="0">
            <Node pos="l" depth="3" NCoef="0" IVar="5" Cut="1.0195924377441406e+02" cType="1" res="2.7284645475447178e-03" rms="4.1268903017044067e-01" purity="5.5730897188186646e-01" nType="0">
              <Node pos="l" depth="4" NCoef="0" IVar="3" Cut="2.0000000000000000e+00" cType="1" res="3.4999946365132928e-04" rms="3.9765608310699463e-01" purity="4.4428208470344543e-01" nType="0">
                <Node pos="l" depth="5" NCoef="0" IVar="-1" Cut="0.0000000000000000e+00" cType="1" res="-1.7937001539394259e-03" rms="4.0342211723327637e-01" purity="4.5258954167366028e-01" nType="-99"/>
                <Node pos="r" depth="5" NCoef="0" IVar="-1" Cut="0.0000000000000000e+00" cType="1" res="2.8596168849617243e-03" rms="4.3131208419799805e-01" purity="4.3250852823257446e-01" nType="-99"/>
              </Node>
              <Node pos="r" depth="4" NCoef="0" IVar="-1" Cut="0.0000000000000000e+00" cType="1" res="2.7497408445924520e-03" rms="4.0959367156028748e-01" purity="6.9463306665420532e-01" nType="-99"/>
            </Node>
            <Node pos="r" depth="3" NCoef="0" IVar="-1" Cut="0.0000000000000000e+00" cType="1" res="-1.9332311348989606e-03" rms="4.4290518760681152e-01" purity="5.1460498571395874e-01" nType="-99"/>
          </Node>
          <Node pos="r" depth="2" NCoef="0" IVar="-1" Cut="0.0000000000000000e+00" cType="1" res="-1.7206793418154120e-03" rms="4.0791895985603333e-01" purity="4.1785478591918945e-01" nType="-99"/>
        </Node>
      </Node>
    </BinaryTree>
    <BinaryTree type="DecisionTree" boostWeight="1.0000000000000000e+00" itree="295">
      <Node pos="s" depth="0" NCoef="0" IVar="2" Cut="1.3094892501831055e+00" cType="1" res="5.7977027609013021e-05" rms="4.1798982024192810e-01" purity="5.0000000000000000e-01" nType="0">
        <Node pos="l" depth="1" NCoef="0" IVar="4" Cut="1.4285714626312256e+00" cType="1" res="-4.9020879669114947e-04" rms="4.1354531049728394e-01" purity="5.7867580652236938e-01" nType="0">
          <Node pos="l" depth="2" NCoef="0" IVar="7" Cut="8.5467498779296875e+01" cType="1" res="-1.2648252304643393e-03" rms="4.1231757402420044e-01" purity="5.1571017503738403e-01" nType="0">
            <Node pos="l" depth="3" NCoef="0" IVar="-1" Cut="0.0000000000000000e+00" cType="1" res="-1.3091636355966330e-03" rms="4.3246829509735107e-01" purity="5.2899032831192017e-01" nType="-99"/>
            <Node pos="r" depth="3" NCoef="0" IVar="-1" Cut="0.0000000000000000e+00" cType="1" res="1.9131826775264926e-05" rms="3.9037460088729858e-01" purity="5.0197207927703857e-01" nType="-99"/>
          </Node>
          <Node pos="r" depth="2" NCoef="0" IVar="-1" Cut="0.0000000000000000e+00" cType="1" res="3.6898412508890033e-04" rms="4.1548207402229309e-01" purity="6.7853468656539917e-01" nType="-99"/>
        </Node>
        <Node pos="r" depth="1" NCoef="0" IVar="7" Cut="8.1776397705078125e+01" cType="1" res="1.0100465733557940e-03" rms="4.2559692263603210e-01" purity="3.6335864663124084e-01" nType="0">
          <Node pos="l" depth="2" NCoef="0" IVar="5" Cut="1.6930505371093750e+02" cType="1" res="-9.6047954866662621e-04" rms="4.2712184786796570e-01" purity="3.3890166878700256e-01" nType="0">
            <Node pos="l" depth="3" NCoef="0" IVar="-1" Cut="0.0000000000000000e+00" cType="1" res="-2.5688814930617809e-03" rms="4.4467920064926147e-01" purity="4.0372461080551147e-01" nType="-99"/>
            <Node pos="r" depth="3" NCoef="0" IVar="-1" Cut="0.0000000000000000e+00" cType="1" res="1.9996722694486380e-03" rms="4.0907865762710571e-01" purity="2.7509692311286926e-01" nType="-99"/>
          </Node>
          <Node pos="r" depth="2" NCoef="0" IVar="-1" Cut="0.0000000000000000e+00" cType="1" res="2.2906996309757233e-03" rms="4.2368963360786438e-01" purity="3.9362290501594543e-01" nType="-99"/>
        </Node>
      </Node>
    </BinaryTree>
    <BinaryTree type="DecisionTree" boostWeight="1.0000000000000000e+00" itree="296">
      <Node pos="s" depth="0" NCoef="0" IVar="4" Cut="7.1428573131561279e-01" cType="1" res="1.8549642845755443e-05" rms="4.1798517107963562e-01" purity="5.0000000000000000e-01" nType="0">
        <Node pos="l" depth="1" NCoef="0" IVar="1" Cut="1.4745582342147827e+00" cType="1" res="-1.0399065213277936e-03" rms="4.1902685165405273e-01" purity="4.4392177462577820e-01" nType="0">
          <Node pos="l" depth="2" NCoef="0" IVar="-1" Cut="0.0000000000000000e+00" cType="1" res="-1.3852750416845083e-03" rms="4.0950912237167358e-01" purity="3.9365947246551514e-01" nType="-99"/>
          <Node pos="r" depth="2" NCoef="0" IVar="-1" Cut="0.0000000000000000e+00" cType="1" res="4.8236142902169377e-05" rms="4.2868506908416748e-01" purity="4.9612247943878174e-01" nType="-99"/>
        </Node>
        <Node pos="r" depth="1" NCoef="0" IVar="5" Cut="2.0012669372558594e+02" cType="1" res="4.5648316154256463e-04" rms="4.1755262017250061e-01" purity="5.2320218086242676e-01" nType="0">
          <Node pos="l" depth="2" NCoef="0" IVar="5" Cut="1.3765676879882812e+02" cType="1" res="1.1263174237683415e-03" rms="4.1975066065788269e-01" purity="5.4759806394577026e-01" nType="0">
            <Node pos="l" depth="3" NCoef="0" IVar="5" Cut="7.8161613464355469e+01" cType="1" res="2.3392252624034882e-03" rms="4.1268312931060791e-01" purity="5.5730897188186646e-01" nType="0">
              <Node pos="l" depth="4" NCoef="0" IVar="-1" Cut="0.0000000000000000e+00" cType="1" res="-1.9223813433200121e-03" rms="3.9180138707160950e-01" purity="2.5100040435791016e-01" nType="-99"/>
              <Node pos="r" depth="4" NCoef="0" IVar="0" Cut="1.0514109134674072e+00" cType="1" res="3.8812456186860800e-03" rms="4.1972902417182922e-01" purity="6.6441822052001953e-01" nType="0">
                <Node pos="l" depth="5" NCoef="0" IVar="-1" Cut="0.0000000000000000e+00" cType="1" res="-3.6959105636924505e-04" rms="4.2402446269989014e-01" purity="6.4878964424133301e-01" nType="-99"/>
                <Node pos="r" depth="5" NCoef="0" IVar="-1" Cut="0.0000000000000000e+00" cType="1" res="4.3328804895281792e-03" rms="4.1476103663444519e-01" purity="6.8207323551177979e-01" nType="-99"/>
              </Node>
            </Node>
            <Node pos="r" depth="3" NCoef="0" IVar="-1" Cut="0.0000000000000000e+00" cType="1" res="-1.5893422532826662e-03" rms="4.4289639592170715e-01" purity="5.1460498571395874e-01" nType="-99"/>
          </Node>
          <Node pos="r" depth="2" NCoef="0" IVar="-1" Cut="0.0000000000000000e+00" cType="1" res="-1.6835415735840797e-03" rms="4.0791234374046326e-01" purity="4.1785478591918945e-01" nType="-99"/>
        </Node>
      </Node>
    </BinaryTree>
    <BinaryTree type="DecisionTree" boostWeight="1.0000000000000000e+00" itree="297">
      <Node pos="s" depth="0" NCoef="0" IVar="6" Cut="1.1814180755615234e+02" cType="1" res="9.7344607638660818e-05" rms="4.1798156499862671e-01" purity="5.0000000000000000e-01" nType="0">
        <Node pos="l" depth="1" NCoef="0" IVar="0" Cut="1.8972072601318359e+00" cType="1" res="-2.4268170818686485e-04" rms="4.1587728261947632e-01" purity="4.7068229317665100e-01" nType="0">
          <Node pos="l" depth="2" NCoef="0" IVar="5" Cut="1.4124215698242188e+02" cType="1" res="3.3701374195516109e-04" rms="4.1939365863800049e-01" purity="4.7791203856468201e-01" nType="0">
            <Node pos="l" depth="3" NCoef="0" IVar="5" Cut="8.0040176391601562e+01" cType="1" res="-1.1341639328747988e-03" rms="4.0831941366195679e-01" purity="4.7496497631072998e-01" nType="0">
              <Node pos="l" depth="4" NCoef="0" IVar="-1" Cut="0.0000000000000000e+00" cType="1" res="3.3149209339171648e-03" rms="3.7481942772865295e-01" purity="2.4282410740852356e-01" nType="-99"/>
              <Node pos="r" depth="4" NCoef="0" IVar="2" Cut="8.0303972959518433e-01" cType="1" res="-2.9259533621370792e-03" rms="4.2079064249992371e-01" purity="5.6655883789062500e-01" nType="0">
                <Node pos="l" depth="5" NCoef="0" IVar="-1" Cut="0.0000000000000000e+00" cType="1" res="1.5550135867670178e-03" rms="4.1123592853546143e-01" purity="6.2966793775558472e-01" nType="-99"/>
                <Node pos="r" depth="5" NCoef="0" IVar="-1" Cut="0.0000000000000000e+00" cType="1" res="-4.8533789813518524e-03" rms="4.2974302172660828e-01" purity="5.0559288263320923e-01" nType="-99"/>
              </Node>
            </Node>
            <Node pos="r" depth="3" NCoef="0" IVar="2" Cut="1.4634802341461182e+00" cType="1" res="2.8123485390096903e-03" rms="4.3738320469856262e-01" purity="4.8287075757980347e-01" nType="0">
              <Node pos="l" depth="4" NCoef="0" IVar="-1" Cut="0.0000000000000000e+00" cType="1" res="2.2300645650830120e-04" rms="4.5137754082679749e-01" purity="6.5225088596343994e-01" nType="-99"/>
              <Node pos="r" depth="4" NCoef="0" IVar="-1" Cut="0.0000000000000000e+00" cType="1" res="4.6600815840065479e-03" rms="4.2006790637969971e-01" purity="2.8086486458778381e-01" nType="-99"/>
            </Node>
          </Node>
          <Node pos="r" depth="2" NCoef="0" IVar="-1" Cut="0.0000000000000000e+00" cType="1" res="-1.5174522995948792e-03" rms="4.0317791700363159e-01" purity="4.4509232044219971e-01" nType="-99"/>
        </Node>
        <Node pos="r" depth="1" NCoef="0" IVar="-1" Cut="0.0000000000000000e+00" cType="1" res="8.1520923413336277e-04" rms="4.2805495858192444e-01" purity="6.4245134592056274e-01" nType="-99"/>
      </Node>
    </BinaryTree>
    <BinaryTree type="DecisionTree" boostWeight="1.0000000000000000e+00" itree="298">
      <Node pos="s" depth="0" NCoef="0" IVar="4" Cut="7.1428573131561279e-01" cType="1" res="2.0103605493204668e-05" rms="4.1796645522117615e-01" purity="5.0000000000000000e-01" nType="0">
        <Node pos="l" depth="1" NCoef="0" IVar="0" Cut="8.3333128690719604e-01" cType="1" res="-1.1069140164181590e-03" rms="4.1902586817741394e-01" purity="4.4392177462577820e-01" nType="0">
          <Node pos="l" depth="2" NCoef="0" IVar="-1" Cut="0.0000000000000000e+00" cType="1" res="-1.1586925247684121e-03" rms="4.2422714829444885e-01" purity="4.7339585423469543e-01" nType="-99"/>
          <Node pos="r" depth="2" NCoef="0" IVar="-1" Cut="0.0000000000000000e+00" cType="1" res="-6.4447602198924869e-05" rms="4.1344314813613892e-01" purity="4.1270381212234497e-01" nType="-99"/>
        </Node>
        <Node pos="r" depth="1" NCoef="0" IVar="5" Cut="2.0012669372558594e+02" cType="1" res="4.8640428576618433e-04" rms="4.1752642393112183e-01" purity="5.2320218086242676e-01" nType="0">
          <Node pos="l" depth="2" NCoef="0" IVar="5" Cut="1.3765676879882812e+02" cType="1" res="1.1198592837899923e-03" rms="4.1972070932388306e-01" purity="5.4759806394577026e-01" nType="0">
            <Node pos="l" depth="3" NCoef="0" IVar="5" Cut="7.8161613464355469e+01" cType="1" res="2.2570006549358368e-03" rms="4.1265034675598145e-01" purity="5.5730897188186646e-01" nType="0">
              <Node pos="l" depth="4" NCoef="0" IVar="-1" Cut="0.0000000000000000e+00" cType="1" res="-2.0925155840814114e-03" rms="3.9177298545837402e-01" purity="2.5100040435791016e-01" nType="-99"/>
              <Node pos="r" depth="4" NCoef="0" IVar="2" Cut="1.1407691240310669e+00" cType="1" res="3.8346108049154282e-03" rms="4.1969427466392517e-01" purity="6.6441822052001953e-01" nType="0">
                <Node pos="l" depth="5" NCoef="0" IVar="-1" Cut="0.0000000000000000e+00" cType="1" res="3.5001898650079966e-03" rms="4.0676704049110413e-01" purity="7.2622138261795044e-01" nType="-99"/>
                <Node pos="r" depth="5" NCoef="0" IVar="-1" Cut="0.0000000000000000e+00" cType="1" res="-7.7085691737011075e-04" rms="4.3915140628814697e-01" purity="5.6747603416442871e-01" nType="-99"/>
              </Node>
            </Node>
            <Node pos="r" depth="3" NCoef="0" IVar="-1" Cut="0.0000000000000000e+00" cType="1" res="-1.4548033941537142e-03" rms="4.4287836551666260e-01" purity="5.1460498571395874e-01" nType="-99"/>
          </Node>
          <Node pos="r" depth="2" NCoef="0" IVar="-1" Cut="0.0000000000000000e+00" cType="1" res="-1.5534940175712109e-03" rms="4.0790414810180664e-01" purity="4.1785478591918945e-01" nType="-99"/>
        </Node>
      </Node>
    </BinaryTree>
    <BinaryTree type="DecisionTree" boostWeight="1.0000000000000000e+00" itree="299">
      <Node pos="s" depth="0" NCoef="0" IVar="2" Cut="9.8211699724197388e-01" cType="1" res="1.0866660159081221e-04" rms="4.1796231269836426e-01" purity="5.0000000000000000e-01" nType="0">
        <Node pos="l" depth="1" NCoef="0" IVar="0" Cut="9.8893153667449951e-01" cType="1" res="-7.9260976053774357e-04" rms="4.0743368864059448e-01" purity="5.8405864238739014e-01" nType="0">
          <Node pos="l" depth="2" NCoef="0" IVar="2" Cut="3.7414050102233887e-01" cType="1" res="1.3366373605094850e-04" rms="4.0688472986221313e-01" purity="5.8452814817428589e-01" nType="0">
            <Node pos="l" depth="3" NCoef="0" IVar="-1" Cut="0.0000000000000000e+00" cType="1" res="1.0293215746060014e-03" rms="3.9996451139450073e-01" purity="6.1196625232696533e-01" nType="-99"/>
            <Node pos="r" depth="3" NCoef="0" IVar="-1" Cut="0.0000000000000000e+00" cType="1" res="-5.8773485943675041e-04" rms="4.1158112883567810e-01" purity="5.6562089920043945e-01" nType="-99"/>
          </Node>
          <Node pos="r" depth="2" NCoef="0" IVar="-1" Cut="0.0000000000000000e+00" cType="1" res="-1.2038309359923005e-03" rms="4.0829569101333618e-01" purity="5.8331650495529175e-01" nType="-99"/>
        </Node>
        <Node pos="r" depth="1" NCoef="0" IVar="7" Cut="8.3162536621093750e+01" cType="1" res="1.0249020997434855e-03" rms="4.2839854955673218e-01" purity="4.1454616189002991e-01" nType="0">
          <Node pos="l" depth="2" NCoef="0" IVar="7" Cut="4.7529853820800781e+01" cType="1" res="-5.6077010231092572e-04" rms="4.3292289972305298e-01" purity="3.8620442152023315e-01" nType="0">
            <Node pos="l" depth="3" NCoef="0" IVar="-1" Cut="0.0000000000000000e+00" cType="1" res="-4.8548327758908272e-03" rms="4.3482089042663574e-01" purity="3.7386727333068848e-01" nType="-99"/>
            <Node pos="r" depth="3" NCoef="0" IVar="-1" Cut="0.0000000000000000e+00" cType="1" res="2.4952427484095097e-03" rms="4.3164935708045959e-01" purity="3.9406803250312805e-01" nType="-99"/>
          </Node>
          <Node pos="r" depth="2" NCoef="0" IVar="0" Cut="1.0540096759796143e+00" cType="1" res="2.9791013803333044e-03" rms="4.2274793982505798e-01" purity="4.4947481155395508e-01" nType="0">
            <Node pos="l" depth="3" NCoef="0" IVar="-1" Cut="0.0000000000000000e+00" cType="1" res="3.7163950037211180e-04" rms="4.3214526772499084e-01" purity="4.5480427145957947e-01" nType="-99"/>
            <Node pos="r" depth="3" NCoef="0" IVar="-1" Cut="0.0000000000000000e+00" cType="1" res="3.2685864716768265e-03" rms="4.1434264183044434e-01" purity="4.4481313228607178e-01" nType="-99"/>
          </Node>
        </Node>
      </Node>
    </BinaryTree>
  </Weights>
</MethodSetup>
